{
  "version": "1.0",
  "truncation": null,
  "padding": null,
  "added_tokens": [
    {
      "id": 0,
      "content": "<s>",
      "single_word": false,
      "lstrip": false,
      "rstrip": false,
      "normalized": true,
      "special": true
    },
    {
      "id": 1,
      "content": "<pad>",
      "single_word": false,
      "lstrip": false,
      "rstrip": false,
      "normalized": true,
      "special": true
    },
    {
      "id": 2,
      "content": "</s>",
      "single_word": false,
      "lstrip": false,
      "rstrip": false,
      "normalized": true,
      "special": true
    },
    {
      "id": 3,
      "content": "<unk>",
      "single_word": false,
      "lstrip": false,
      "rstrip": false,
      "normalized": true,
      "special": true
    },
    {
      "id": 4,
      "content": "<mask>",
      "single_word": false,
      "lstrip": true,
      "rstrip": false,
      "normalized": true,
      "special": true
    }
  ],
  "normalizer": null,
  "pre_tokenizer": {
    "type": "ByteLevel",
    "add_prefix_space": false,
    "trim_offsets": true,
    "use_regex": true
  },
  "post_processor": {
    "type": "RobertaProcessing",
    "sep": [
      "</s>",
      2
    ],
    "cls": [
      "<s>",
      0
    ],
    "trim_offsets": true,
    "add_prefix_space": false
  },
  "decoder": {
    "type": "ByteLevel",
    "add_prefix_space": true,
    "trim_offsets": true,
    "use_regex": true
  },
  "model": {
    "type": "BPE",
    "dropout": null,
    "unk_token": null,
    "continuing_subword_prefix": "",
    "end_of_word_suffix": "",
    "fuse_unk": false,
    "byte_fallback": false,
    "ignore_merges": false,
    "vocab": {
      "<s>": 0,
      "<pad>": 1,
      "</s>": 2,
      "<unk>": 3,
      "<mask>": 4,
      "!": 5,
      "\"": 6,
      "#": 7,
      "$": 8,
      "%": 9,
      "&": 10,
      "'": 11,
      "(": 12,
      ")": 13,
      "*": 14,
      "+": 15,
      ",": 16,
      "-": 17,
      ".": 18,
      "/": 19,
      "0": 20,
      "1": 21,
      "2": 22,
      "3": 23,
      "4": 24,
      "5": 25,
      "6": 26,
      "7": 27,
      "8": 28,
      "9": 29,
      ":": 30,
      ";": 31,
      "<": 32,
      "=": 33,
      ">": 34,
      "?": 35,
      "@": 36,
      "A": 37,
      "B": 38,
      "C": 39,
      "D": 40,
      "E": 41,
      "F": 42,
      "G": 43,
      "H": 44,
      "I": 45,
      "J": 46,
      "K": 47,
      "L": 48,
      "M": 49,
      "N": 50,
      "O": 51,
      "P": 52,
      "Q": 53,
      "R": 54,
      "S": 55,
      "T": 56,
      "U": 57,
      "V": 58,
      "W": 59,
      "X": 60,
      "Y": 61,
      "Z": 62,
      "[": 63,
      "\\": 64,
      "]": 65,
      "^": 66,
      "_": 67,
      "`": 68,
      "a": 69,
      "b": 70,
      "c": 71,
      "d": 72,
      "e": 73,
      "f": 74,
      "g": 75,
      "h": 76,
      "i": 77,
      "j": 78,
      "k": 79,
      "l": 80,
      "m": 81,
      "n": 82,
      "o": 83,
      "p": 84,
      "q": 85,
      "r": 86,
      "s": 87,
      "t": 88,
      "u": 89,
      "v": 90,
      "w": 91,
      "x": 92,
      "y": 93,
      "z": 94,
      "{": 95,
      "|": 96,
      "}": 97,
      "~": 98,
      "¡": 99,
      "¢": 100,
      "£": 101,
      "¤": 102,
      "¥": 103,
      "¦": 104,
      "§": 105,
      "¨": 106,
      "©": 107,
      "ª": 108,
      "«": 109,
      "¬": 110,
      "®": 111,
      "¯": 112,
      "°": 113,
      "±": 114,
      "²": 115,
      "³": 116,
      "´": 117,
      "µ": 118,
      "¶": 119,
      "·": 120,
      "¸": 121,
      "¹": 122,
      "º": 123,
      "»": 124,
      "¼": 125,
      "½": 126,
      "¾": 127,
      "¿": 128,
      "À": 129,
      "Á": 130,
      "Â": 131,
      "Ã": 132,
      "Ä": 133,
      "Å": 134,
      "Æ": 135,
      "Ç": 136,
      "È": 137,
      "É": 138,
      "Ê": 139,
      "Ë": 140,
      "Ì": 141,
      "Í": 142,
      "Î": 143,
      "Ï": 144,
      "Ð": 145,
      "Ñ": 146,
      "Ò": 147,
      "Ó": 148,
      "Ô": 149,
      "Õ": 150,
      "Ö": 151,
      "×": 152,
      "Ø": 153,
      "Ù": 154,
      "Ú": 155,
      "Û": 156,
      "Ü": 157,
      "Ý": 158,
      "Þ": 159,
      "ß": 160,
      "à": 161,
      "á": 162,
      "â": 163,
      "ã": 164,
      "ä": 165,
      "å": 166,
      "æ": 167,
      "ç": 168,
      "è": 169,
      "é": 170,
      "ê": 171,
      "ë": 172,
      "ì": 173,
      "í": 174,
      "î": 175,
      "ï": 176,
      "ð": 177,
      "ñ": 178,
      "ò": 179,
      "ó": 180,
      "ô": 181,
      "õ": 182,
      "ö": 183,
      "÷": 184,
      "ø": 185,
      "ù": 186,
      "ú": 187,
      "û": 188,
      "ü": 189,
      "ý": 190,
      "þ": 191,
      "ÿ": 192,
      "Ā": 193,
      "ā": 194,
      "Ă": 195,
      "ă": 196,
      "Ą": 197,
      "ą": 198,
      "Ć": 199,
      "ć": 200,
      "Ĉ": 201,
      "ĉ": 202,
      "Ċ": 203,
      "ċ": 204,
      "Č": 205,
      "č": 206,
      "Ď": 207,
      "ď": 208,
      "Đ": 209,
      "đ": 210,
      "Ē": 211,
      "ē": 212,
      "Ĕ": 213,
      "ĕ": 214,
      "Ė": 215,
      "ė": 216,
      "Ę": 217,
      "ę": 218,
      "Ě": 219,
      "ě": 220,
      "Ĝ": 221,
      "ĝ": 222,
      "Ğ": 223,
      "ğ": 224,
      "Ġ": 225,
      "ġ": 226,
      "Ģ": 227,
      "ģ": 228,
      "Ĥ": 229,
      "ĥ": 230,
      "Ħ": 231,
      "ħ": 232,
      "Ĩ": 233,
      "ĩ": 234,
      "Ī": 235,
      "ī": 236,
      "Ĭ": 237,
      "ĭ": 238,
      "Į": 239,
      "į": 240,
      "İ": 241,
      "ı": 242,
      "Ĳ": 243,
      "ĳ": 244,
      "Ĵ": 245,
      "ĵ": 246,
      "Ķ": 247,
      "ķ": 248,
      "ĸ": 249,
      "Ĺ": 250,
      "ĺ": 251,
      "Ļ": 252,
      "ļ": 253,
      "Ľ": 254,
      "ľ": 255,
      "Ŀ": 256,
      "ŀ": 257,
      "Ł": 258,
      "ł": 259,
      "Ń": 260,
      "in": 261,
      "Ġt": 262,
      "Ġa": 263,
      "er": 264,
      "on": 265,
      "es": 266,
      "en": 267,
      "ti": 268,
      "Ġth": 269,
      "Ġs": 270,
      "Ġc": 271,
      "ing": 272,
      "or": 273,
      "al": 274,
      "nd": 275,
      "re": 276,
      "Ġthe": 277,
      "Ġp": 278,
      "ed": 279,
      "at": 280,
      "Ġo": 281,
      "Ġw": 282,
      "it": 283,
      "Ġf": 284,
      "Ġin": 285,
      "an": 286,
      "is": 287,
      "Ġand": 288,
      "ar": 289,
      "ou": 290,
      "tion": 291,
      "Ġd": 292,
      "Ġm": 293,
      "Ġb": 294,
      "le": 295,
      "ic": 296,
      "Ġto": 297,
      "Ġof": 298,
      "ro": 299,
      "Ġe": 300,
      "ent": 301,
      "Ġh": 302,
      "om": 303,
      "el": 304,
      "st": 305,
      "ec": 306,
      "Ġre": 307,
      "ation": 308,
      "ac": 309,
      "Ġl": 310,
      "ur": 311,
      "ly": 312,
      "th": 313,
      "as": 314,
      "ol": 315,
      "il": 316,
      "ig": 317,
      "Ġn": 318,
      "id": 319,
      "ve": 320,
      "Ġu": 321,
      "im": 322,
      "ers": 323,
      "ĠT": 324,
      "ce": 325,
      "Ġcon": 326,
      "et": 327,
      "Ġg": 328,
      "ess": 329,
      "ow": 330,
      "ul": 331,
      "Ġr": 332,
      "Ġst": 333,
      "ir": 334,
      "Ġfor": 335,
      "ith": 336,
      "Ġwh": 337,
      "ra": 338,
      "Ġex": 339,
      "uc": 340,
      "em": 341,
      "Ġpro": 342,
      "ts": 343,
      "ĠTh": 344,
      "ver": 345,
      "ter": 346,
      "ĠA": 347,
      "--": 348,
      "Ġwith": 349,
      "Ġas": 350,
      "Ġy": 351,
      "am": 352,
      "ab": 353,
      "Ġcom": 354,
      "ay": 355,
      "if": 356,
      "ut": 357,
      "Ġon": 358,
      "ag": 359,
      "Ġor": 360,
      "tic": 361,
      "ity": 362,
      "ĠS": 363,
      "ment": 364,
      "ate": 365,
      "Ġv": 366,
      "os": 367,
      "ri": 368,
      "Ġyou": 369,
      "Ġen": 370,
      "Ġis": 371,
      "pp": 372,
      "us": 373,
      "ad": 374,
      "ĠI": 375,
      "od": 376,
      "ĠC": 377,
      "qu": 378,
      "Ġthat": 379,
      "Ġbe": 380,
      "ion": 381,
      "ain": 382,
      "Ġal": 383,
      "Ġan": 384,
      "igh": 385,
      "ch": 386,
      "ot": 387,
      "oc": 388,
      "Ġch": 389,
      "and": 390,
      "âĢ": 391,
      "Ġit": 392,
      "pl": 393,
      "ure": 394,
      "Ġle": 395,
      "Ġac": 396,
      "op": 397,
      "ist": 398,
      "iv": 399,
      "um": 400,
      "ke": 401,
      "Ġres": 402,
      "rou": 403,
      "ap": 404,
      "un": 405,
      "ies": 406,
      "Ġde": 407,
      "ud": 408,
      "iz": 409,
      "for": 410,
      "og": 411,
      "ical": 412,
      "ations": 413,
      "Ġsh": 414,
      "Ġint": 415,
      "ĠB": 416,
      "Ġus": 417,
      "tive": 418,
      "ĠP": 419,
      "gh": 420,
      "ĠM": 421,
      "ere": 422,
      "tions": 423,
      "ese": 424,
      "Ġim": 425,
      "Ġare": 426,
      "rom": 427,
      "ĠW": 428,
      "Ġsp": 429,
      "ial": 430,
      "Ġcont": 431,
      "per": 432,
      "ant": 433,
      "Ġby": 434,
      "ous": 435,
      "ance": 436,
      "Ġcomp": 437,
      "Ġad": 438,
      "----": 439,
      "ting": 440,
      "Ġsu": 441,
      "ĠE": 442,
      "ther": 443,
      "ĠF": 444,
      "Ġcan": 445,
      "Ġpr": 446,
      "'s": 447,
      "ine": 448,
      "all": 449,
      "ĠThe": 450,
      "Ġtheir": 451,
      "ome": 452,
      "out": 453,
      "ld": 454,
      "ĠH": 455,
      "ill": 456,
      "ge": 457,
      "ign": 458,
      "end": 459,
      "ual": 460,
      "iti": 461,
      "vel": 462,
      "ence": 463,
      "Ġinc": 464,
      "enti": 465,
      "Ġne": 466,
      "able": 467,
      "ore": 468,
      "Ġse": 469,
      "ard": 470,
      "ĠD": 471,
      "Ġfrom": 472,
      "Ġab": 473,
      "ated": 474,
      "Ġ(": 475,
      "Ġpl": 476,
      "est": 477,
      "Ġwe": 478,
      "ust": 479,
      "Ġat": 480,
      "ach": 481,
      "ating": 482,
      "ĠR": 483,
      "our": 484,
      "Ġun": 485,
      "Ġdis": 486,
      "Ġhe": 487,
      "ort": 488,
      "Ġyour": 489,
      "Ġwor": 490,
      "ect": 491,
      "ans": 492,
      "ight": 493,
      "are": 494,
      "ens": 495,
      "king": 496,
      "Ġapp": 497,
      "ents": 498,
      "ff": 499,
      "Ġme": 500,
      "Ġtr": 501,
      "ces": 502,
      "Ġli": 503,
      "ong": 504,
      "ell": 505,
      "Ġem": 506,
      "nder": 507,
      "Ġthis": 508,
      "uch": 509,
      "Ġstr": 510,
      "fer": 511,
      "ip": 512,
      "ves": 513,
      "ary": 514,
      "Ġpar": 515,
      "ep": 516,
      "ĠL": 517,
      "di": 518,
      "rough": 519,
      "Ġimp": 520,
      "ide": 521,
      "ile": 522,
      "duc": 523,
      "age": 524,
      "Ġ1": 525,
      "ors": 526,
      "ks": 527,
      "form": 528,
      "cess": 529,
      "Ġev": 530,
      "Ġind": 531,
      "Ġthey": 532,
      "Ġthese": 533,
      "ast": 534,
      "Ġha": 535,
      "ib": 536,
      "Ġinter": 537,
      "lec": 538,
      "ue": 539,
      "Ġinto": 540,
      "Ġcl": 541,
      "Ġunder": 542,
      "act": 543,
      "ost": 544,
      "ĠO": 545,
      "ich": 546,
      "ear": 547,
      "Ġar": 548,
      "ific": 549,
      "ĠG": 550,
      "ities": 551,
      "ie": 552,
      "ĠIn": 553,
      "low": 554,
      "ĠN": 555,
      "Ġpre": 556,
      "Ġk": 557,
      "tional": 558,
      "Ġcons": 559,
      "Ġsuch": 560,
      "uring": 561,
      "ind": 562,
      "Ġabout": 563,
      "ĠĠ": 564,
      "Ġcomm": 565,
      "ĠThis": 566,
      "Ġper": 567,
      "Ġj": 568,
      "ĠU": 569,
      "ments": 570,
      "olog": 571,
      "av": 572,
      "Ġsy": 573,
      "**": 574,
      "ould": 575,
      "ath": 576,
      "ech": 577,
      "ci": 578,
      "Ġlike": 579,
      "ress": 580,
      "ult": 581,
      "Ġthrough": 582,
      "Ġcre": 583,
      "ures": 584,
      "Ġits": 585,
      "Ġman": 586,
      "ater": 587,
      "ful": 588,
      "Ġsome": 589,
      "âĢĻ": 590,
      "ass": 591,
      "ons": 592,
      "ph": 593,
      "ire": 594,
      "âĢĶ": 595,
      "ive": 596,
      "ari": 597,
      "Ġbet": 598,
      "Ġro": 599,
      "Ġincl": 600,
      "ory": 601,
      "ose": 602,
      "Ġthem": 603,
      "he": 604,
      "Ġ2": 605,
      "ential": 606,
      "ates": 607,
      "Ġbo": 608,
      "ace": 609,
      "ish": 610,
      "one": 611,
      "ely": 612,
      "Ġhow": 613,
      "oun": 614,
      "Ġtra": 615,
      "tical": 616,
      "Ġnot": 617,
      "ang": 618,
      "Ġdes": 619,
      "Ġrec": 620,
      "over": 621,
      "ati": 622,
      "--------": 623,
      "ility": 624,
      "Ġfe": 625,
      "ood": 626,
      "ning": 627,
      "ack": 628,
      "Ġrel": 629,
      "stand": 630,
      "lic": 631,
      "Ġwhich": 632,
      "Ġexpl": 633,
      "Ġ\"": 634,
      "ys": 635,
      "ound": 636,
      "ular": 637,
      "Ġsign": 638,
      "now": 639,
      "Ġinclud": 640,
      "Ġtim": 641,
      "ings": 642,
      "Ġwas": 643,
      "Ġqu": 644,
      "we": 645,
      "les": 646,
      "Ġcol": 647,
      "stem": 648,
      "Ġour": 649,
      "ple": 650,
      "Ġspec": 651,
      "ving": 652,
      "ex": 653,
      "Ġwhen": 654,
      "ia": 655,
      "Ġhave": 656,
      "tiv": 657,
      "Ġmore": 658,
      "Ġover": 659,
      "tain": 660,
      "Ġma": 661,
      "Ġreg": 662,
      "Ġrem": 663,
      "ry": 664,
      "Ġstud": 665,
      "Ġph": 666,
      "ten": 667,
      "rib": 668,
      "tim": 669,
      "ative": 670,
      "Ġins": 671,
      "Ġhel": 672,
      "Ġexper": 673,
      "Ġinv": 674,
      "ail": 675,
      "ond": 676,
      "echn": 677,
      "Ġass": 678,
      "round": 679,
      "ms": 680,
      "velop": 681,
      "Ġout": 682,
      "ted": 683,
      "ions": 684,
      "ne": 685,
      "ild": 686,
      "Ġup": 687,
      "anc": 688,
      "Ġexp": 689,
      "ite": 690,
      "ĠJ": 691,
      "ivid": 692,
      "Ġmay": 693,
      "Ġeff": 694,
      "enc": 695,
      "ural": 696,
      "ough": 697,
      "ob": 698,
      "eng": 699,
      "Ġpers": 700,
      "Ġever": 701,
      "ase": 702,
      "Ġdif": 703,
      "Ġhelp": 704,
      "Ġsupp": 705,
      "Ġtrans": 706,
      "alth": 707,
      "ord": 708,
      "ween": 709,
      "Ġsystem": 710,
      "ric": 711,
      "Ġprov": 712,
      "Ġlear": 713,
      "yp": 714,
      "als": 715,
      "Ġmod": 716,
      "str": 717,
      "Ġbetween": 718,
      "Ġhigh": 719,
      "Ġknow": 720,
      "Ġrep": 721,
      "Ġser": 722,
      "ividual": 723,
      "ĠWh": 724,
      "Ġdevelop": 725,
      "Ġam": 726,
      "Ġtechn": 727,
      "so": 728,
      "Ġall": 729,
      "ĠCh": 730,
      "Ġwhile": 731,
      "Ġbec": 732,
      "oo": 733,
      "Ġwithin": 734,
      "Ġdo": 735,
      "ences": 736,
      "Ġpe": 737,
      "Ġso": 738,
      "ational": 739,
      "Ġdisc": 740,
      "Ġwill": 741,
      "Ġadv": 742,
      "ber": 743,
      "Ġindividual": 744,
      "ays": 745,
      "Ġhas": 746,
      "ved": 747,
      "Ġgen": 748,
      "row": 749,
      "res": 750,
      "Ġunderstand": 751,
      "Ġbut": 752,
      "pec": 753,
      "ss": 754,
      "ues": 755,
      "ub": 756,
      "Ġtime": 757,
      "Ġag": 758,
      "Ġalso": 759,
      "ized": 760,
      "ll": 761,
      "ak": 762,
      "Ġvari": 763,
      "Ġval": 764,
      "Ġcommun": 765,
      "The": 766,
      "Ġwho": 767,
      "Ġduring": 768,
      "se": 769,
      "Ġexam": 770,
      "Ġsignific": 771,
      "ased": 772,
      "Ġsoc": 773,
      "ection": 774,
      "iqu": 775,
      "ĠSt": 776,
      "Ġmo": 777,
      "Ġone": 778,
      "pt": 779,
      "ven": 780,
      "Ġwhere": 781,
      "eg": 782,
      "ĠThese": 783,
      "tern": 784,
      "Ġdec": 785,
      "Ġhealth": 786,
      "elf": 787,
      "Ġdiffer": 788,
      "Ġacc": 789,
      "Ġsc": 790,
      "ower": 791,
      "Ġresp": 792,
      "00": 793,
      "ark": 794,
      "Ġinf": 795,
      "ĠâĢ": 796,
      "Ġother": 797,
      "Ġop": 798,
      "Ġexperi": 799,
      "Ġsur": 800,
      "Ġpartic": 801,
      "ward": 802,
      "Ġob": 803,
      "ame": 804,
      "its": 805,
      "erg": 806,
      "hip": 807,
      "fic": 808,
      "Ġpos": 809,
      "Ġprac": 810,
      "ever": 811,
      "Ġwhat": 812,
      "Ġpres": 813,
      "Ġfun": 814,
      "In": 815,
      "Ġco": 816,
      "Ġnew": 817,
      "ature": 818,
      "Ġappro": 819,
      "Ġno": 820,
      "ally": 821,
      "aus": 822,
      "Ġprocess": 823,
      "art": 824,
      "ivers": 825,
      "ditional": 826,
      "Ġcomple": 827,
      "ata": 828,
      "Ġusing": 829,
      "Ġevery": 830,
      "Ġboth": 831,
      "ife": 832,
      "ice": 833,
      "Ġher": 834,
      "ness": 835,
      "ement": 836,
      "por": 837,
      "ĠIt": 838,
      "ree": 839,
      "Ġlead": 840,
      "Ġdet": 841,
      "Ġsignificant": 842,
      "Ġform": 843,
      "ople": 844,
      "ĠY": 845,
      "'t": 846,
      "Ġwere": 847,
      "ross": 848,
      "Ġhum": 849,
      "lect": 850,
      "gan": 851,
      "Ġsub": 852,
      "Ġtw": 853,
      "oy": 854,
      "ĠK": 855,
      "ize": 856,
      "Ġeng": 857,
      "Ġref": 858,
      "Ġsim": 859,
      "ering": 860,
      "Ġdist": 861,
      "Ġthere": 862,
      "old": 863,
      "ise": 864,
      "Ġchall": 865,
      "Ġwork": 866,
      "iron": 867,
      "Ġhist": 868,
      "wor": 869,
      "ene": 870,
      "Ġneed": 871,
      "ct": 872,
      "uct": 873,
      "Ġuse": 874,
      "Ġdesign": 875,
      "ĠBy": 876,
      "ily": 877,
      "Ġhis": 878,
      "Ġinvol": 879,
      "ern": 880,
      "reat": 881,
      "ability": 882,
      "ently": 883,
      "Ġeffec": 884,
      "cl": 885,
      "Ġte": 886,
      "Ġmed": 887,
      "ty": 888,
      "ange": 889,
      "ĠFor": 890,
      "Ġthan": 891,
      "erm": 892,
      "ology": 893,
      "ining": 894,
      "ically": 895,
      "ines": 896,
      "viron": 897,
      "Ġincre": 898,
      "Ġtyp": 899,
      "Ġsm": 900,
      "Ġinst": 901,
      "Ġrequ": 902,
      "Ġke": 903,
      "Ġpol": 904,
      "Ġbl": 905,
      "Ġens": 906,
      "Ġid": 907,
      "Ġworld": 908,
      "Ġpeople": 909,
      "Ġpot": 910,
      "ution": 911,
      "Ġ-": 912,
      "ied": 913,
      "ateg": 914,
      "ribut": 915,
      "Ġsa": 916,
      "wn": 917,
      "ible": 918,
      "Ġfunc": 919,
      "Ġmain": 920,
      "Ġsk": 921,
      "Ġdata": 922,
      "thing": 923,
      "Ġeven": 924,
      "ism": 925,
      "Ġprom": 926,
      "Ġfl": 927,
      "ount": 928,
      "),": 929,
      "Ġcap": 930,
      "ĠHow": 931,
      "Ġallow": 932,
      "Ġpo": 933,
      "ram": 934,
      "arm": 935,
      "led": 936,
      "ious": 937,
      "fore": 938,
      "Ġthose": 939,
      "iet": 940,
      "Ġperson": 941,
      "Ġidenti": 942,
      "Ġprovid": 943,
      "Ġset": 944,
      "Ġess": 945,
      "Ġenviron": 946,
      "Ġconf": 947,
      "Ġcult": 948,
      "Ġdel": 949,
      "Ġoften": 950,
      "irst": 951,
      "Ġproduc": 952,
      "Ġany": 953,
      "ital": 954,
      "ian": 955,
      "ics": 956,
      "arly": 957,
      "Ġbu": 958,
      "ition": 959,
      "ands": 960,
      "Ġvis": 961,
      "Ġtwo": 962,
      "ights": 963,
      "Ġchar": 964,
      "Ġif": 965,
      "ĠAs": 966,
      "Ġprot": 967,
      "Ġed": 968,
      "br": 969,
      "Ġloc": 970,
      "oring": 971,
      "Ġincluding": 972,
      "ĠâĢĵ": 973,
      "ices": 974,
      "Ġvarious": 975,
      "Ġext": 976,
      "earch": 977,
      "Ġcould": 978,
      "ext": 979,
      "Ġeach": 980,
      "ĠUn": 981,
      "Ġconn": 982,
      "ider": 983,
      "Ġcur": 984,
      "ality": 985,
      "Ġdem": 986,
      "Ġgrow": 987,
      "Ġplay": 988,
      "Ġindividuals": 989,
      "Ġcr": 990,
      "Ġacross": 991,
      "Ġresearch": 992,
      "Ġadd": 993,
      "own": 994,
      "Ġchalleng": 995,
      "ake": 996,
      "Ġinform": 997,
      "lish": 998,
      "iss": 999,
      "fter": 1000,
      "Ġsec": 1001,
      "Ġfol": 1002,
      "Ġanal": 1003,
      "ages": 1004,
      "Ġpotential": 1005,
      "Ġcare": 1006,
      "thod": 1007,
      "ĠAd": 1008,
      ").": 1009,
      "ĠV": 1010,
      "Ġgener": 1011,
      "Ġgu": 1012,
      "Ġmight": 1013,
      "##": 1014,
      "ends": 1015,
      "Ġ3": 1016,
      "ling": 1017,
      "con": 1018,
      "Ġlife": 1019,
      "Ġlet": 1020,
      "Ġsol": 1021,
      "ency": 1022,
      "Ġcall": 1023,
      "Ġessential": 1024,
      "ps": 1025,
      "Ġgl": 1026,
      "izing": 1027,
      "par": 1028,
      "ories": 1029,
      "Ġdifferent": 1030,
      "tit": 1031,
      "Ġunderstanding": 1032,
      "ols": 1033,
      "ological": 1034,
      "Ġgra": 1035,
      "Ġremain": 1036,
      "ants": 1037,
      "Ġrespons": 1038,
      "ization": 1039,
      "ocus": 1040,
      "Ġbeh": 1041,
      "ited": 1042,
      "Ġimport": 1043,
      "Ġimpro": 1044,
      "ink": 1045,
      "Ġfam": 1046,
      "Ġcomplex": 1047,
      "Ġfac": 1048,
      "Ġprog": 1049,
      "Ġused": 1050,
      "Ġcontin": 1051,
      "vely": 1052,
      "gg": 1053,
      "arg": 1054,
      "Ġmethod": 1055,
      "ĠAm": 1056,
      "Ġlearn": 1057,
      "Ġsupport": 1058,
      "ected": 1059,
      "other": 1060,
      "Ġequ": 1061,
      "int": 1062,
      "ft": 1063,
      "ared": 1064,
      "Ġenc": 1065,
      "ulti": 1066,
      "Ġorgan": 1067,
      "uth": 1068,
      "ances": 1069,
      "Ġsch": 1070,
      "ble": 1071,
      "ying": 1072,
      "Ġprof": 1073,
      "cc": 1074,
      "Ġfind": 1075,
      "ov": 1076,
      "ins": 1077,
      "tics": 1078,
      "Ġwell": 1079,
      "aging": 1080,
      "Ġdue": 1081,
      "rit": 1082,
      "Ġcent": 1083,
      "Ġback": 1084,
      "Ġwould": 1085,
      "Ġmin": 1086,
      "----------------": 1087,
      "Ġpower": 1088,
      "omm": 1089,
      "ets": 1090,
      "Ġnum": 1091,
      "Ġparticular": 1092,
      "els": 1093,
      "uss": 1094,
      "ental": 1095,
      "Ġcontribut": 1096,
      "ogn": 1097,
      "Ġperform": 1098,
      "Ġinfl": 1099,
      "ined": 1100,
      "iew": 1101,
      "Ġhuman": 1102,
      "Ġlong": 1103,
      "aw": 1104,
      "Ġreal": 1105,
      "ately": 1106,
      "Ġlearning": 1107,
      "Ġactiv": 1108,
      "ng": 1109,
      "Ġstrateg": 1110,
      "Ġfollow": 1111,
      "Ġbel": 1112,
      "Ġdep": 1113,
      "ique": 1114,
      "urther": 1115,
      "Ġmy": 1116,
      "Ġgo": 1117,
      "Ġcri": 1118,
      "Ġaround": 1119,
      "ples": 1120,
      "til": 1121,
      "ook": 1122,
      "ources": 1123,
      "urn": 1124,
      "ditions": 1125,
      "Ġfocus": 1126,
      "ici": 1127,
      "Ġliv": 1128,
      "ause": 1129,
      "Ġmany": 1130,
      "Ġav": 1131,
      "Ġown": 1132,
      "``": 1133,
      "Ġbeen": 1134,
      "Ġdevelopment": 1135,
      "tice": 1136,
      "aking": 1137,
      "ather": 1138,
      "ases": 1139,
      "Ġfound": 1140,
      "agine": 1141,
      "omes": 1142,
      "Ġ20": 1143,
      "inal": 1144,
      "agement": 1145,
      "Ġsee": 1146,
      "ĠCon": 1147,
      "roduc": 1148,
      "ru": 1149,
      "Ġread": 1150,
      "Ġlo": 1151,
      "Ġrole": 1152,
      "ember": 1153,
      "ĠThey": 1154,
      "Ġcor": 1155,
      "Ġsystems": 1156,
      "Ġenvironment": 1157,
      "Ġthough": 1158,
      "ade": 1159,
      "Ġatt": 1160,
      "Ġenh": 1161,
      "Ġmaintain": 1162,
      "ties": 1163,
      "eld": 1164,
      "ron": 1165,
      "ead": 1166,
      "usion": 1167,
      "Ġapproach": 1168,
      "Ġsocial": 1169,
      "Ġris": 1170,
      "ĠHowever": 1171,
      "ick": 1172,
      "Ġstruct": 1173,
      "Ġconc": 1174,
      "aterial": 1175,
      "ĠEx": 1176,
      "Ġoper": 1177,
      "Ġspecific": 1178,
      "vers": 1179,
      "Ġwater": 1180,
      "Ġend": 1181,
      "acter": 1182,
      "thers": 1183,
      "Ġsci": 1184,
      "Ġrepres": 1185,
      "Ġmulti": 1186,
      "line": 1187,
      "Ġoffer": 1188,
      "Ġcar": 1189,
      "Ġpub": 1190,
      "Ġiss": 1191,
      "Ġoff": 1192,
      "Ġaccess": 1193,
      "Ġgrou": 1194,
      "Ġshap": 1195,
      "Ġbr": 1196,
      "Ġ**": 1197,
      "Ġdef": 1198,
      "Ġbefore": 1199,
      "ination": 1200,
      "Ġfirst": 1201,
      "apter": 1202,
      "Ġconsider": 1203,
      "rop": 1204,
      "jec": 1205,
      "Ġbre": 1206,
      "raph": 1207,
      "Ġlevel": 1208,
      "te": 1209,
      "Ġprev": 1210,
      "Ġexample": 1211,
      "Ġcontro": 1212,
      "Ġele": 1213,
      "Ġamong": 1214,
      "ield": 1215,
      "Ġsever": 1216,
      "Th": 1217,
      "rac": 1218,
      "Ġphys": 1219,
      "Ġeduc": 1220,
      "egr": 1221,
      "Ġonly": 1222,
      "Ġcreate": 1223,
      "Ġmost": 1224,
      "Ġyear": 1225,
      "Ġchallenges": 1226,
      "cep": 1227,
      "Ġmaterial": 1228,
      "Ġtoward": 1229,
      "Ġinflu": 1230,
      "Ġsens": 1231,
      "du": 1232,
      "Ġopp": 1233,
      "Ġhad": 1234,
      "abor": 1235,
      "Ġmean": 1236,
      "Ġpat": 1237,
      "Ġcle": 1238,
      "li": 1239,
      "iness": 1240,
      "ody": 1241,
      "Ġfact": 1242,
      "Ġstudents": 1243,
      "Ġfri": 1244,
      "Ġ19": 1245,
      "Ġjust": 1246,
      "eric": 1247,
      "ave": 1248,
      "Ġexplore": 1249,
      "ually": 1250,
      "ertain": 1251,
      "Ġothers": 1252,
      "ĠAn": 1253,
      "Ġpop": 1254,
      "Ġlit": 1255,
      "Ġinclude": 1256,
      "Ġsaf": 1257,
      "Ġbuild": 1258,
      "ior": 1259,
      "Ġdivers": 1260,
      "pre": 1261,
      "Ġfeel": 1262,
      "oci": 1263,
      "Ġsuc": 1264,
      "Ġcritical": 1265,
      "ren": 1266,
      "Ġcalled": 1267,
      "itive": 1268,
      "ired": 1269,
      "Ġmem": 1270,
      "air": 1271,
      "ili": 1272,
      "Ġpersonal": 1273,
      "Ġmus": 1274,
      "Ġbeing": 1275,
      "Ġclass": 1276,
      "Ġmon": 1277,
      "ression": 1278,
      "Ġtoge": 1279,
      "Ġparticularly": 1280,
      "Ġtogether": 1281,
      "ix": 1282,
      "Ġmark": 1283,
      "Ġreduc": 1284,
      "Ġkey": 1285,
      "ser": 1286,
      "Ġdown": 1287,
      "work": 1288,
      "ergy": 1289,
      "und": 1290,
      "Ġauth": 1291,
      "Ġtoo": 1292,
      "Ġskill": 1293,
      "atural": 1294,
      "Ġunique": 1295,
      "Ġent": 1296,
      "Ġshould": 1297,
      "Ġchild": 1298,
      "ĠWe": 1299,
      "Ġbene": 1300,
      "Ġinformation": 1301,
      "less": 1302,
      "Ġinn": 1303,
      "oura": 1304,
      "Ġwithout": 1305,
      "Ġleg": 1306,
      "Ġrelations": 1307,
      "tives": 1308,
      "Ġiniti": 1309,
      "ision": 1310,
      "Ġemo": 1311,
      "ograph": 1312,
      "be": 1313,
      "Ġpractic": 1314,
      "ffor": 1315,
      "ists": 1316,
      "ĠHe": 1317,
      "Ġintegr": 1318,
      "arch": 1319,
      "Ġbi": 1320,
      "day": 1321,
      "Ġ`": 1322,
      "Ġide": 1323,
      "Ġafter": 1324,
      "ject": 1325,
      "ication": 1326,
      "Ġimm": 1327,
      "Ġmaking": 1328,
      "Ġques": 1329,
      "Ġshe": 1330,
      "Ġfunction": 1331,
      "ĠAl": 1332,
      "ars": 1333,
      "utions": 1334,
      "Ġdi": 1335,
      "Ġapplic": 1336,
      "Ġfood": 1337,
      "ral": 1338,
      "Ġdire": 1339,
      "acy": 1340,
      "Ġsomething": 1341,
      "struc": 1342,
      "Ġaff": 1343,
      "ilities": 1344,
      "Ġbro": 1345,
      "ĠTo": 1346,
      "ale": 1347,
      "atures": 1348,
      "Ġ4": 1349,
      "Ġdoes": 1350,
      "Ġmust": 1351,
      "ession": 1352,
      "Ġresul": 1353,
      "ourse": 1354,
      "ulation": 1355,
      "Ġfin": 1356,
      "Ġstand": 1357,
      "orical": 1358,
      "ength": 1359,
      "Ġ=": 1360,
      "uture": 1361,
      "Ġbased": 1362,
      "Ġsmall": 1363,
      "Ġaw": 1364,
      "ef": 1365,
      "asing": 1366,
      "Ġes": 1367,
      "Ġpur": 1368,
      "Ġpart": 1369,
      "Ġidentif": 1370,
      "Ġknown": 1371,
      "Ġshow": 1372,
      "Ġsuccess": 1373,
      "Ġmat": 1374,
      "Ġbehav": 1375,
      "Ġest": 1376,
      "Ġmet": 1377,
      "iques": 1378,
      "vices": 1379,
      "Ġfost": 1380,
      "duce": 1381,
      "Ġenab": 1382,
      "tively": 1383,
      "Ġassoci": 1384,
      "anced": 1385,
      "Ġalong": 1386,
      "ĠPro": 1387,
      "Ġdiscuss": 1388,
      "yn": 1389,
      "cept": 1390,
      "Ġlim": 1391,
      "angu": 1392,
      "Ġthen": 1393,
      "Ġarti": 1394,
      "Ġconditions": 1395,
      "Ġagain": 1396,
      "ablish": 1397,
      "Ġstudy": 1398,
      "Ġposs": 1399,
      "Ġchang": 1400,
      "Ġcomb": 1401,
      "Ġcommon": 1402,
      "ĠAmeric": 1403,
      "ploy": 1404,
      "Ġrelationship": 1405,
      "au": 1406,
      "the": 1407,
      "red": 1408,
      "Ġway": 1409,
      "ĠWhen": 1410,
      "Ġexperience": 1411,
      "ĠIm": 1412,
      "ict": 1413,
      "Ġself": 1414,
      "Ġhistory": 1415,
      "Ġfre": 1416,
      "Ġhand": 1417,
      "Ġbetter": 1418,
      "Ġrepresent": 1419,
      "Ġpromot": 1420,
      "Ġgre": 1421,
      "Ġexperiences": 1422,
      "Ġplan": 1423,
      "Wh": 1424,
      "Ġpresent": 1425,
      "Ġnatural": 1426,
      "orm": 1427,
      "ĠĠĠĠ": 1428,
      "asc": 1429,
      "Ġspecial": 1430,
      "Ġrecogn": 1431,
      "Ġenergy": 1432,
      "ening": 1433,
      "Ġocc": 1434,
      "Ġaddress": 1435,
      "Ġcount": 1436,
      "Ġdeep": 1437,
      "ered": 1438,
      "Ġjour": 1439,
      "Ġsym": 1440,
      "pite": 1441,
      "Ġmeas": 1442,
      "Ġmove": 1443,
      "bers": 1444,
      "Ġelect": 1445,
      "omen": 1446,
      "empor": 1447,
      "Ġtreat": 1448,
      "rain": 1449,
      "Ġday": 1450,
      "Ġpublic": 1451,
      "ests": 1452,
      "Ġcharacter": 1453,
      "Ġbecome": 1454,
      "Ġbelie": 1455,
      "iting": 1456,
      "Ġless": 1457,
      "Ġprin": 1458,
      ".\"": 1459,
      "Ġrele": 1460,
      "ortun": 1461,
      "Ġintern": 1462,
      "ĠWhile": 1463,
      "Ġpri": 1464,
      "eness": 1465,
      "Ġfuture": 1466,
      "clusion": 1467,
      "ĠInd": 1468,
      "Ġvalu": 1469,
      "ysis": 1470,
      "Ġpass": 1471,
      "ax": 1472,
      "equ": 1473,
      "Ġdig": 1474,
      "Ġstrong": 1475,
      "Ġpattern": 1476,
      "Ġpati": 1477,
      "Ġbus": 1478,
      "ored": 1479,
      "Ġful": 1480,
      "aring": 1481,
      "Ġproper": 1482,
      "ool": 1483,
      "Ġanother": 1484,
      "Ġresources": 1485,
      "ending": 1486,
      "up": 1487,
      "any": 1488,
      "chie": 1489,
      "Ġprim": 1490,
      "conom": 1491,
      "As": 1492,
      "Ġ5": 1493,
      "Ġcell": 1494,
      "lying": 1495,
      "Ġobser": 1496,
      "omp": 1497,
      "sel": 1498,
      "Ġtechniques": 1499,
      "Ġteach": 1500,
      "Ġcultural": 1501,
      "ether": 1502,
      "oss": 1503,
      "Ġcoll": 1504,
      "idence": 1505,
      "Ġbody": 1506,
      "Ġeffor": 1507,
      "Ġconsist": 1508,
      "her": 1509,
      "tle": 1510,
      "Ġlangu": 1511,
      ",\"": 1512,
      "St": 1513,
      "Ġpractices": 1514,
      "Ġfurther": 1515,
      "ney": 1516,
      "Ġimpact": 1517,
      "Ġseveral": 1518,
      "Ġcontrol": 1519,
      "ries": 1520,
      "Ġcho": 1521,
      "to": 1522,
      "ris": 1523,
      "Ġguid": 1524,
      "Ġret": 1525,
      "Ġestablish": 1526,
      "Ġmade": 1527,
      "Ġthree": 1528,
      "overn": 1529,
      "Ġimportant": 1530,
      "Ġopportun": 1531,
      "io": 1532,
      "ections": 1533,
      "ew": 1534,
      "Ġsuppor": 1535,
      "Ġtools": 1536,
      "Ġnon": 1537,
      "Ġachie": 1538,
      "Ġlocal": 1539,
      "alu": 1540,
      "Ġprovide": 1541,
      "ecess": 1542,
      "Ġglob": 1543,
      "Ġhapp": 1544,
      "inating": 1545,
      "Ġyears": 1546,
      "ds": 1547,
      "Ġill": 1548,
      "ensive": 1549,
      "Ġensure": 1550,
      "ilit": 1551,
      "Ġemerg": 1552,
      "ators": 1553,
      "ditionally": 1554,
      "iod": 1555,
      "oms": 1556,
      "ĠYou": 1557,
      "ledge": 1558,
      "Ġissues": 1559,
      "Ġchange": 1560,
      "Ġsociet": 1561,
      "Ġdiverse": 1562,
      "phas": 1563,
      "sts": 1564,
      "Ġmake": 1565,
      "Ġperformance": 1566,
      "Ġassociated": 1567,
      "ock": 1568,
      "Ġdiscover": 1569,
      "Ġwrit": 1570,
      "Ġcollec": 1571,
      "Ġavail": 1572,
      "Ġbroad": 1573,
      "Ġupon": 1574,
      "sy": 1575,
      "Ġbecause": 1576,
      "ended": 1577,
      "nderstand": 1578,
      "Ġdra": 1579,
      "Ġgrowth": 1580,
      "aces": 1581,
      "Ġphysical": 1582,
      "irc": 1583,
      "Now": 1584,
      "Ġright": 1585,
      "Ġinnov": 1586,
      "onstr": 1587,
      "Ġsignificantly": 1588,
      "Ġboo": 1589,
      "Ġ201": 1590,
      "Ġsit": 1591,
      "Ġel": 1592,
      "Ġstrategies": 1593,
      "Ġthroughout": 1594,
      "ĠThrough": 1595,
      "Ġmodern": 1596,
      "Ġhistorical": 1597,
      "Ġlevels": 1598,
      "emporary": 1599,
      "Ġskills": 1600,
      "fully": 1601,
      "Ġvaluable": 1602,
      "Ġbusiness": 1603,
      "Ġprofession": 1604,
      "Ġdoc": 1605,
      "Ġeffective": 1606,
      "Ġstep": 1607,
      "Section": 1608,
      "rent": 1609,
      "Ġter": 1610,
      "Ġcommunity": 1611,
      "Ġeconom": 1612,
      "Ġmultiple": 1613,
      "erc": 1614,
      "Ġgr": 1615,
      "Ġhelps": 1616,
      "atic": 1617,
      "orpor": 1618,
      "Ġnet": 1619,
      "view": 1620,
      "Ġorig": 1621,
      "Ġpolic": 1622,
      "ways": 1623,
      "Ġwhy": 1624,
      "Ġcompon": 1625,
      "Ġagainst": 1626,
      "Ġimprove": 1627,
      "ced": 1628,
      "ĠSo": 1629,
      "ĠWith": 1630,
      "Ġreflec": 1631,
      "Ġbenef": 1632,
      "Ġdid": 1633,
      "Ġindic": 1634,
      "Ġfield": 1635,
      "ĠRe": 1636,
      "Ġemphas": 1637,
      "Ġcommunities": 1638,
      "Ġsti": 1639,
      "Ġtowards": 1640,
      "olution": 1641,
      "Ġnar": 1642,
      "wh": 1643,
      "xim": 1644,
      "ape": 1645,
      "Ġrisk": 1646,
      "oid": 1647,
      "Ġinvolves": 1648,
      "Ġeffici": 1649,
      "Ġgain": 1650,
      "Ġdemonstr": 1651,
      "go": 1652,
      "jects": 1653,
      "inary": 1654,
      "Ġexploring": 1655,
      "az": 1656,
      "Ġearly": 1657,
      "Ġrest": 1658,
      "dition": 1659,
      "read": 1660,
      "ancing": 1661,
      "Ġfactors": 1662,
      "Ġallows": 1663,
      "Ġmaterials": 1664,
      "Ġtop": 1665,
      "plic": 1666,
      "ash": 1667,
      "istic": 1668,
      "ĠOn": 1669,
      "Ġregard": 1670,
      "Ġmethods": 1671,
      "stain": 1672,
      "yth": 1673,
      "Ġexc": 1674,
      "pir": 1675,
      "ĠAr": 1676,
      "lement": 1677,
      "Ġbeg": 1678,
      "Ġtraditional": 1679,
      "Ġtechnology": 1680,
      "Ġfriends": 1681,
      "ards": 1682,
      "Ġemploy": 1683,
      "echan": 1684,
      "ucial": 1685,
      "Ġact": 1686,
      "Ġperiod": 1687,
      "self": 1688,
      "Ġencoura": 1689,
      "ĠEn": 1690,
      "Ġmodel": 1691,
      "ety": 1692,
      "ĠĠĠ": 1693,
      "iver": 1694,
      "vice": 1695,
      "times": 1696,
      "Ġaim": 1697,
      "reci": 1698,
      "Ġsustain": 1699,
      "ĠThat": 1700,
      "Ġdetail": 1701,
      "Ġtal": 1702,
      "Ġliter": 1703,
      "yond": 1704,
      "Ġanim": 1705,
      "Ġrequir": 1706,
      "Ġfamily": 1707,
      "selves": 1708,
      "Ġear": 1709,
      "Ġanalysis": 1710,
      "sych": 1711,
      "Ġnecess": 1712,
      "Ġer": 1713,
      "Ġnow": 1714,
      "Ġcrucial": 1715,
      "ner": 1716,
      "ynam": 1717,
      "Ġget": 1718,
      "Ġspe": 1719,
      "by": 1720,
      "Ġgovern": 1721,
      ":**": 1722,
      "Ġpress": 1723,
      "Ġstrength": 1724,
      "Ġtransform": 1725,
      "Ġver": 1726,
      "Ġstories": 1727,
      "Ġcertain": 1728,
      "ats": 1729,
      "ĠSh": 1730,
      "Ġparticip": 1731,
      "ges": 1732,
      "ilar": 1733,
      "Ġdirect": 1734,
      "Ġadap": 1735,
      "Ġmanagement": 1736,
      "ump": 1737,
      "ĠOne": 1738,
      "Ġassess": 1739,
      "Ġinstance": 1740,
      "ibility": 1741,
      "Ġmeaning": 1742,
      "come": 1743,
      "Ġelements": 1744,
      "Ġdigital": 1745,
      "II": 1746,
      "ery": 1747,
      "Ġtake": 1748,
      "Ġwant": 1749,
      "Ġnature": 1750,
      "Ġstar": 1751,
      "nderstanding": 1752,
      "Ġpatterns": 1753,
      "Ġsugg": 1754,
      ".,": 1755,
      "Ġexist": 1756,
      "Ġcontext": 1757,
      "Ġanaly": 1758,
      "Ġve": 1759,
      "Ġappreci": 1760,
      "Ġtem": 1761,
      "Ġthings": 1762,
      "Ġinsights": 1763,
      "ration": 1764,
      "ument": 1765,
      "ĠSome": 1766,
      "ured": 1767,
      "elling": 1768,
      "Ġsomeone": 1769,
      "ĠIf": 1770,
      "Ġscienti": 1771,
      "Ġcreating": 1772,
      "de": 1773,
      "Ġdri": 1774,
      "Ġpoli": 1775,
      "app": 1776,
      "ah": 1777,
      "To": 1778,
      "avig": 1779,
      "Ġknowledge": 1780,
      "Ġfil": 1781,
      "ulations": 1782,
      "Ġonline": 1783,
      "ording": 1784,
      "Ġkeep": 1785,
      "Ġmag": 1786,
      "Ġinterac": 1787,
      "Ġbehavior": 1788,
      "Ġ6": 1789,
      "Ġtypically": 1790,
      "ĠAdditionally": 1791,
      "Ġlanguage": 1792,
      "ier": 1793,
      "atform": 1794,
      "Ġoverall": 1795,
      "Ġcontribute": 1796,
      "Ġcost": 1797,
      "aling": 1798,
      "Ġcontinu": 1799,
      "Ġminim": 1800,
      "Ġjourney": 1801,
      "kes": 1802,
      "Ġremains": 1803,
      "oph": 1804,
      "Ġ'": 1805,
      "reh": 1806,
      "Ġleading": 1807,
      "Ġevalu": 1808,
      "Ġcust": 1809,
      "tis": 1810,
      "Ġstory": 1811,
      "ream": 1812,
      "Ġhome": 1813,
      "Ġsetting": 1814,
      "light": 1815,
      "Ġways": 1816,
      "Ġlay": 1817,
      "âĢĿ": 1818,
      "Ġincorpor": 1819,
      "Ġemotional": 1820,
      "Ġpred": 1821,
      "Ġpractice": 1822,
      "```": 1823,
      "Ġcollabor": 1824,
      "aries": 1825,
      "Ġfund": 1826,
      "ĠBut": 1827,
      "Ġincreasing": 1828,
      "Ġrefer": 1829,
      "Ġopen": 1830,
      "Ġeveryone": 1831,
      "Ġdynam": 1832,
      "Ġmind": 1833,
      "Ġcal": 1834,
      "Ġvisual": 1835,
      "bs": 1836,
      "Ġdistin": 1837,
      "pos": 1838,
      "esting": 1839,
      "Ġlight": 1840,
      "ury": 1841,
      "ode": 1842,
      "Ġchanges": 1843,
      "Ġchildren": 1844,
      "Ġdesc": 1845,
      "Ġart": 1846,
      "Ġmechan": 1847,
      "Ġenvironmental": 1848,
      "Ġgroup": 1849,
      "Ġactivities": 1850,
      "Ġavailable": 1851,
      "Ġcaus": 1852,
      "Ġvalue": 1853,
      "Ġoffers": 1854,
      "ides": 1855,
      "Ġdise": 1856,
      "Ġcontain": 1857,
      "ially": 1858,
      "Ġcompreh": 1859,
      "Ġworks": 1860,
      "Ġemb": 1861,
      "Ġvalues": 1862,
      "Ġfasc": 1863,
      "ĠEm": 1864,
      "put": 1865,
      "Ġfrequ": 1866,
      "Ġconcern": 1867,
      "izations": 1868,
      "atory": 1869,
      "Ġregion": 1870,
      "Ġfollowing": 1871,
      "based": 1872,
      "Ġbal": 1873,
      "Ġindust": 1874,
      "Ġcommunication": 1875,
      "Ġglobal": 1876,
      "Ġemp": 1877,
      "Ġplatform": 1878,
      "Ġopportunities": 1879,
      "Ġdeterm": 1880,
      "ane": 1881,
      "Ġpain": 1882,
      "Ġrelig": 1883,
      "ĠâĢľ": 1884,
      "ince": 1885,
      "ĠCons": 1886,
      "Ġcirc": 1887,
      "ray": 1888,
      "ource": 1889,
      "ym": 1890,
      "arge": 1891,
      "ĠDes": 1892,
      "Ġmeans": 1893,
      "'re": 1894,
      "Ġmar": 1895,
      "tention": 1896,
      "ecting": 1897,
      "Ġconduc": 1898,
      "Ġsound": 1899,
      "ters": 1900,
      "port": 1901,
      "Ġdesigned": 1902,
      "Ġsimilar": 1903,
      "rame": 1904,
      "Ġoccur": 1905,
      "amp": 1906,
      "ender": 1907,
      "ush": 1908,
      "Ġther": 1909,
      "Ġsing": 1910,
      "Ġshare": 1911,
      "Ġareas": 1912,
      "ason": 1913,
      "Ġ200": 1914,
      "Ġharm": 1915,
      "vity": 1916,
      "Ġproble": 1917,
      "avor": 1918,
      "roduction": 1919,
      "Ġevents": 1920,
      "Ġsame": 1921,
      "Ġunit": 1922,
      "ĠLet": 1923,
      "Ġexpress": 1924,
      "ancial": 1925,
      "Ġquestions": 1926,
      "Ġaut": 1927,
      "ones": 1928,
      "Ġtoday": 1929,
      "Ġwhether": 1930,
      "Ġ$": 1931,
      "Ġsurround": 1932,
      "Ġprovides": 1933,
      "ived": 1934,
      "Ġstill": 1935,
      "Ġtri": 1936,
      "Ġoptim": 1937,
      "Ġrequire": 1938,
      "lex": 1939,
      "pects": 1940,
      "###": 1941,
      "Ġspace": 1942,
      "Ġperspec": 1943,
      "Ġthink": 1944,
      "iction": 1945,
      "Ġeducation": 1946,
      "Ġlook": 1947,
      "Step": 1948,
      "Ġlaw": 1949,
      "Ġmuch": 1950,
      "fort": 1951,
      "Ġmom": 1952,
      "ium": 1953,
      "Ġcy": 1954,
      "Ġappear": 1955,
      "Ġ10": 1956,
      "Ġbeyond": 1957,
      "ension": 1958,
      "ging": 1959,
      "sc": 1960,
      "pr": 1961,
      "ĠAt": 1962,
      "Ġair": 1963,
      "tig": 1964,
      "Ġpsych": 1965,
      "Ġlist": 1966,
      "ense": 1967,
      "Ġtypes": 1968,
      "ules": 1969,
      "Ġnarra": 1970,
      "joy": 1971,
      "atch": 1972,
      "ĠAnd": 1973,
      "iec": 1974,
      "Ġresult": 1975,
      "ciples": 1976,
      "Ġresults": 1977,
      "Ġfeatures": 1978,
      "ĠEng": 1979,
      "Ġensuring": 1980,
      "acing": 1981,
      "Ġgiv": 1982,
      "ĠPl": 1983,
      "Ġmen": 1984,
      "Ġefforts": 1985,
      "Ġtre": 1986,
      "**:": 1987,
      "Ġprevent": 1988,
      "emic": 1989,
      "Ġimplement": 1990,
      "Ġstate": 1991,
      "Ġcontemporary": 1992,
      "Ġgood": 1993,
      "Ġdon": 1994,
      "Ġremember": 1995,
      "Ġaltern": 1996,
      "Ġhold": 1997,
      "Ġinstead": 1998,
      "Ġaud": 1999,
      "eting": 2000,
      "Ġview": 2001,
      "Ġyoung": 2002,
      "care": 2003,
      "term": 2004,
      "Ġgroups": 2005,
      "Ġbegin": 2006,
      "Ġec": 2007,
      "Ġenti": 2008,
      "ores": 2009,
      "ĠUnderstanding": 2010,
      "comes": 2011,
      "akes": 2012,
      "ove": 2013,
      "Ġrather": 2014,
      "ologies": 2015,
      "eper": 2016,
      "Ġselec": 2017,
      "Ġturn": 2018,
      "Ġshif": 2019,
      "uts": 2020,
      "Ġrelationships": 2021,
      "ĠBe": 2022,
      "Ġsurf": 2023,
      "ked": 2024,
      "ware": 2025,
      "Ġpath": 2026,
      "atives": 2027,
      "Ġschool": 2028,
      "Ġshared": 2029,
      "ified": 2030,
      "den": 2031,
      "Ġbas": 2032,
      "Ġfascinating": 2033,
      "Ġtext": 2034,
      "Ġnavig": 2035,
      "Ġground": 2036,
      "Ġneeds": 2037,
      "Ġaccur": 2038,
      "Ġpost": 2039,
      "Ġconcept": 2040,
      "Ġda": 2041,
      "Ġhim": 2042,
      "enced": 2043,
      "hib": 2044,
      "Ġlands": 2045,
      "Ġfig": 2046,
      "Ġmental": 2047,
      "Ġspir": 2048,
      "ots": 2049,
      "Ġ0": 2050,
      "Ġcul": 2051,
      "Ġplace": 2052,
      "Ġbroader": 2053,
      "Im": 2054,
      "ĠAmerican": 2055,
      "Ġtarg": 2056,
      "Ġenjoy": 2057,
      "Ġsuper": 2058,
      "erous": 2059,
      "Ġfinancial": 2060,
      "ission": 2061,
      "Ġeth": 2062,
      "Ġrece": 2063,
      "pecially": 2064,
      "Ġallowing": 2065,
      "Ġprinciples": 2066,
      "Ġhy": 2067,
      "gen": 2068,
      "Ġpast": 2069,
      "Ġdeeper": 2070,
      "Ġunc": 2071,
      "Ġoutcomes": 2072,
      "Ġlarge": 2073,
      "ouse": 2074,
      "Ġtemper": 2075,
      "Ġcurrent": 2076,
      "ficial": 2077,
      "Ġcourse": 2078,
      "ems": 2079,
      "Ġtimes": 2080,
      "Ġauthor": 2081,
      "Ġaspects": 2082,
      "Ġnear": 2083,
      "rel": 2084,
      "Ġinves": 2085,
      "ids": 2086,
      "Ġchapter": 2087,
      "Ġclos": 2088,
      "Ġquality": 2089,
      "Ġimportance": 2090,
      "Ġprocesses": 2091,
      "Ġconnections": 2092,
      "Ġreach": 2093,
      "Ġapplications": 2094,
      "ute": 2095,
      "Ġcustom": 2096,
      "Ġteam": 2097,
      "icro": 2098,
      "Ġnumber": 2099,
      "get": 2100,
      "Ġculture": 2101,
      "ean": 2102,
      "ames": 2103,
      "ounter": 2104,
      "20": 2105,
      "oh": 2106,
      "Ġcome": 2107,
      "'ll": 2108,
      "Ġcomponents": 2109,
      "Ġrange": 2110,
      "Ġenhance": 2111,
      "Ġinfluence": 2112,
      "inking": 2113,
      "Ġwomen": 2114,
      "Ġcontent": 2115,
      "Ġeffectively": 2116,
      "Ġsw": 2117,
      "Ġframe": 2118,
      "istance": 2119,
      "ooking": 2120,
      "urop": 2121,
      "ints": 2122,
      "ises": 2123,
      "ee": 2124,
      "more": 2125,
      "oration": 2126,
      "der": 2127,
      "ugg": 2128,
      "Ġwar": 2129,
      "Ġflow": 2130,
      "Ġlow": 2131,
      "aps": 2132,
      "Ġdam": 2133,
      "Ġbest": 2134,
      "ĠOr": 2135,
      "ator": 2136,
      "Ġwond": 2137,
      "Ġmaintaining": 2138,
      "ened": 2139,
      "Ġattention": 2140,
      "ey": 2141,
      "erv": 2142,
      "works": 2143,
      "Ġ&": 2144,
      "ĠApp": 2145,
      "urity": 2146,
      "Ġsoft": 2147,
      "Ġeas": 2148,
      "Ġdraw": 2149,
      "oth": 2150,
      "Ġmedical": 2151,
      "Ġsingle": 2152,
      "ract": 2153,
      "atis": 2154,
      "ming": 2155,
      "isions": 2156,
      "Ġland": 2157,
      "Ġespecially": 2158,
      "ze": 2159,
      "cent": 2160,
      "izes": 2161,
      "Ġtreatment": 2162,
      "play": 2163,
      "Ġworking": 2164,
      "Ġ7": 2165,
      "ĠComm": 2166,
      "Ġyourself": 2167,
      "Ġsitu": 2168,
      "Ġrelev": 2169,
      "Ġbenefits": 2170,
      "Ġevidence": 2171,
      "edi": 2172,
      "ĠTr": 2173,
      "Ġyet": 2174,
      "Ġprefer": 2175,
      "Ġlives": 2176,
      "ython": 2177,
      "Ġvol": 2178,
      "ĠWor": 2179,
      "Ġtraining": 2180,
      "Ġpolitical": 2181,
      "ĠQ": 2182,
      "ann": 2183,
      "Ġline": 2184,
      "Ġstress": 2185,
      "urb": 2186,
      "ĠSim": 2187,
      "Ġvir": 2188,
      "though": 2189,
      "Ġhigher": 2190,
      "Ġey": 2191,
      "Ġsometimes": 2192,
      "Ġhard": 2193,
      "epend": 2194,
      "Ġprec": 2195,
      "Ġuntil": 2196,
      "Ġprogram": 2197,
      "Ġpiec": 2198,
      "One": 2199,
      "Ġsubst": 2200,
      "Ġreve": 2201,
      "Ġreduce": 2202,
      "Ġutil": 2203,
      "Ġalways": 2204,
      "ours": 2205,
      "xt": 2206,
      "ifically": 2207,
      "ope": 2208,
      "ystem": 2209,
      "ĠDe": 2210,
      "amm": 2211,
      "Ġresili": 2212,
      "Ġservices": 2213,
      "Ġsecond": 2214,
      "ĠInt": 2215,
      "Ġdeliver": 2216,
      "Ġspecies": 2217,
      "Ġenabling": 2218,
      "ĠSp": 2219,
      "Ġhaving": 2220,
      "Ġdaily": 2221,
      "Ġthought": 2222,
      "acks": 2223,
      "Ġcomput": 2224,
      "Ġge": 2225,
      "Ġproduction": 2226,
      "Ġsafety": 2227,
      "Ġfill": 2228,
      "Ġund": 2229,
      "aged": 2230,
      "pri": 2231,
      "Ġmess": 2232,
      "Ġvers": 2233,
      "Ġactivity": 2234,
      "Ġregarding": 2235,
      "ox": 2236,
      "Ġseem": 2237,
      "Ġability": 2238,
      "ĠChapter": 2239,
      "Ġliving": 2240,
      "Ġprimary": 2241,
      "Ġsty": 2242,
      "rams": 2243,
      "ches": 2244,
      "Ġmakes": 2245,
      "Ġmedia": 2246,
      "Ġcover": 2247,
      "An": 2248,
      "isms": 2249,
      "Ġalign": 2250,
      "Ġusers": 2251,
      "Ġserve": 2252,
      "ĠIs": 2253,
      "Ġpopular": 2254,
      "Ġsociety": 2255,
      "rip": 2256,
      "Ġabs": 2257,
      "anti": 2258,
      "Ġjo": 2259,
      "Ġengine": 2260,
      "Ġidentity": 2261,
      "Ġscience": 2262,
      "ĠCl": 2263,
      "Ġrequires": 2264,
      "Con": 2265,
      "cle": 2266,
      "Ġarea": 2267,
      "oming": 2268,
      "Imagine": 2269,
      "land": 2270,
      "Ġconstruc": 2271,
      "pping": 2272,
      "Ġexpos": 2273,
      "Ġlandsc": 2274,
      "enous": 2275,
      "ĠFurther": 2276,
      "Ġthemselves": 2277,
      "Ġengaging": 2278,
      "ction": 2279,
      "Ġclear": 2280,
      "Ġtype": 2281,
      "ĠCont": 2282,
      "time": 2283,
      "Ġfull": 2284,
      "me": 2285,
      "itable": 2286,
      "agn": 2287,
      "Ġplant": 2288,
      "val": 2289,
      "Ġnecessary": 2290,
      "Ġspirit": 2291,
      "Ġwa": 2292,
      "ĠEurop": 2293,
      "ĊĠĠĠ": 2294,
      "Ġcomes": 2295,
      "ltim": 2296,
      "Ġmach": 2297,
      "Ġconcerns": 2298,
      "min": 2299,
      "orn": 2300,
      "Ġloss": 2301,
      "Ġprogress": 2302,
      "Ġpowerful": 2303,
      "Ġadapt": 2304,
      "Ġdive": 2305,
      "Ġinterest": 2306,
      "Ġcontinue": 2307,
      "Ġcells": 2308,
      "Ġevent": 2309,
      "exts": 2310,
      "Ġproviding": 2311,
      "Ġfostering": 2312,
      "aster": 2313,
      "know": 2314,
      "Ġvital": 2315,
      "Ġstudies": 2316,
      "ership": 2317,
      "going": 2318,
      "Ġadj": 2319,
      "ĠAf": 2320,
      "apy": 2321,
      "tal": 2322,
      "Ġcore": 2323,
      "Ġstart": 2324,
      "Ġinvestig": 2325,
      "struct": 2326,
      "Ġenvironments": 2327,
      "Ġbelief": 2328,
      "Ġreturn": 2329,
      "Ġconsum": 2330,
      "of": 2331,
      "ring": 2332,
      "isc": 2333,
      "umm": 2334,
      "Ġfail": 2335,
      "utri": 2336,
      "ĠOver": 2337,
      "itions": 2338,
      "ustr": 2339,
      "Ġpositive": 2340,
      "Ġarch": 2341,
      "cer": 2342,
      "edic": 2343,
      "Ġinvest": 2344,
      "iversity": 2345,
      "Ġorganizations": 2346,
      "Ġtas": 2347,
      "Ġstat": 2348,
      "ables": 2349,
      "Ġeconomic": 2350,
      "Ġmodels": 2351,
      "Ġcolor": 2352,
      "cepts": 2353,
      "Ġcra": 2354,
      "Ġresponse": 2355,
      "Ġmembers": 2356,
      "ident": 2357,
      "Ġanti": 2358,
      "Ġwords": 2359,
      "Ġhealthcare": 2360,
      "Ġlarg": 2361,
      "oday": 2362,
      "Ġbehind": 2363,
      "Ġtest": 2364,
      "ĠUnited": 2365,
      "Ġphot": 2366,
      "Ġdecision": 2367,
      "ule": 2368,
      "igenous": 2369,
      "Ġreli": 2370,
      "Ġincreased": 2371,
      "ulate": 2372,
      "Ġnovel": 2373,
      "pect": 2374,
      "acters": 2375,
      "Ġcommit": 2376,
      "hold": 2377,
      "ground": 2378,
      "Ġterm": 2379,
      "Ġdiv": 2380,
      "Ġarg": 2381,
      "ighting": 2382,
      "Ġlik": 2383,
      "lice": 2384,
      "ina": 2385,
      "ising": 2386,
      "emember": 2387,
      "Ġaction": 2388,
      "Ġlove": 2389,
      "Ġoffering": 2390,
      "Ġface": 2391,
      "Ġstructures": 2392,
      "Ġrun": 2393,
      "Ġcompared": 2394,
      "jor": 2395,
      "enge": 2396,
      "outh": 2397,
      "Ġadvance": 2398,
      "oot": 2399,
      "Ġforms": 2400,
      "oreover": 2401,
      "Ġsurrounding": 2402,
      "Ġbra": 2403,
      "Ġrecord": 2404,
      "Ġsimple": 2405,
      "Ġet": 2406,
      "Ġclim": 2407,
      "tically": 2408,
      "Ġdisease": 2409,
      "Ġheart": 2410,
      "Ġappropri": 2411,
      "ously": 2412,
      "Ġclin": 2413,
      "Ġprovided": 2414,
      "Ġconflic": 2415,
      "Ġidentify": 2416,
      "Ġshort": 2417,
      "Ġinterpre": 2418,
      "Ġblood": 2419,
      "Ġbuilding": 2420,
      "Ġsources": 2421,
      "Ġrecomm": 2422,
      "Ġachieve": 2423,
      "19": 2424,
      "Ġ8": 2425,
      "like": 2426,
      "Ġmusic": 2427,
      "ĠFurthermore": 2428,
      "Ġsl": 2429,
      "Ġimagine": 2430,
      "Ġdistinct": 2431,
      "tivity": 2432,
      "Ġinstit": 2433,
      "Ġcomprehensive": 2434,
      "ĠAfter": 2435,
      "This": 2436,
      "Ġprior": 2437,
      "Ġnext": 2438,
      "Ġcentral": 2439,
      "ĠAc": 2440,
      "ĠWell": 2441,
      "ged": 2442,
      "Ġz": 2443,
      "Ġadop": 2444,
      "Ġdescrib": 2445,
      "Ġdom": 2446,
      "Ġrequired": 2447,
      "Ġfindings": 2448,
      "Ġcase": 2449,
      "Ġmonit": 2450,
      "Ġcool": 2451,
      "elcome": 2452,
      "Ġincludes": 2453,
      "ele": 2454,
      "Ġproject": 2455,
      "ised": 2456,
      "Ġcontra": 2457,
      "Ġrespect": 2458,
      "Ġstructure": 2459,
      "Ġinterven": 2460,
      "Ġkind": 2461,
      "Ġdiffic": 2462,
      "ug": 2463,
      "Ġlog": 2464,
      "esearch": 2465,
      "Ġfavor": 2466,
      "Ġuser": 2467,
      "uter": 2468,
      "Ġconvers": 2469,
      "Ġrights": 2470,
      "Ġpap": 2471,
      "Ġtrust": 2472,
      "aim": 2473,
      "pped": 2474,
      "cient": 2475,
      "ĠWhat": 2476,
      "Ġshape": 2477,
      "Ġste": 2478,
      "Ch": 2479,
      "itation": 2480,
      "Ġmix": 2481,
      "Ġexplain": 2482,
      "Ġinvolved": 2483,
      "Ġresulting": 2484,
      "Ġold": 2485,
      "Ġevol": 2486,
      "Ġregular": 2487,
      "Ġcharacters": 2488,
      "Ġgene": 2489,
      "Ġpreser": 2490,
      "Ġaway": 2491,
      "ient": 2492,
      "Ġrad": 2493,
      "Ġongoing": 2494,
      "Ġeffects": 2495,
      "Ġage": 2496,
      "Ġconst": 2497,
      "aste": 2498,
      "Ġavoid": 2499,
      "Ġ9": 2500,
      "Ġconcepts": 2501,
      "Ġplays": 2502,
      "Ġclean": 2503,
      "ltimately": 2504,
      "orts": 2505,
      "Ġmor": 2506,
      "ffici": 2507,
      "Ġhighl": 2508,
      "hood": 2509,
      "Ġacad": 2510,
      "Ġmicro": 2511,
      "Ġconven": 2512,
      "Ġrich": 2513,
      "Ġgrowing": 2514,
      "Ġresilience": 2515,
      "ank": 2516,
      "ĠPh": 2517,
      "Ġbook": 2518,
      "ective": 2519,
      "Ġbecomes": 2520,
      "Ġchallenge": 2521,
      "ĠImagine": 2522,
      "plications": 2523,
      "Ġcases": 2524,
      "areness": 2525,
      "Ġintroduc": 2526,
      "Ġengage": 2527,
      "Ġresponsible": 2528,
      "Ġquestion": 2529,
      "Ġshaping": 2530,
      "Ġstandard": 2531,
      "eti": 2532,
      "olic": 2533,
      "Ġlegal": 2534,
      "Ġsymb": 2535,
      "pro": 2536,
      "Ġbir": 2537,
      "abilities": 2538,
      "apid": 2539,
      "Ġsense": 2540,
      "Ġpressure": 2541,
      "Ġhere": 2542,
      "Ġstay": 2543,
      "ither": 2544,
      "Ġadvent": 2545,
      "Ġsince": 2546,
      "Ġexerc": 2547,
      "aving": 2548,
      "Ġtravel": 2549,
      "Ġprofessional": 2550,
      "rim": 2551,
      "Ġsympt": 2552,
      "ton": 2553,
      "ilarly": 2554,
      "Ġpossible": 2555,
      "po": 2556,
      "Ġlower": 2557,
      "Ġsal": 2558,
      "eck": 2559,
      "ements": 2560,
      "Ġnumerous": 2561,
      "agnos": 2562,
      "Ġpromoting": 2563,
      "inally": 2564,
      "ify": 2565,
      "ĠStud": 2566,
      "aced": 2567,
      "ĠCol": 2568,
      "Ġstrugg": 2569,
      "Ġadvanced": 2570,
      "Ġgreater": 2571,
      "Ġpriv": 2572,
      "?\"": 2573,
      "Ġexperim": 2574,
      "Ġengagement": 2575,
      "Ġsurface": 2576,
      "Ġvi": 2577,
      "Ġreligious": 2578,
      "Ġcompos": 2579,
      "arily": 2580,
      "zing": 2581,
      "irm": 2582,
      "ĠCan": 2583,
      "Ġfunctions": 2584,
      "Ġsun": 2585,
      "Ġreport": 2586,
      "ximately": 2587,
      "ites": 2588,
      "Ġmill": 2589,
      "Ġsharing": 2590,
      "encies": 2591,
      "Ġfacilit": 2592,
      "Ġra": 2593,
      "Ġweight": 2594,
      "oes": 2595,
      "Ġhead": 2596,
      "arth": 2597,
      "action": 2598,
      "Ġones": 2599,
      "Ġenables": 2600,
      "eds": 2601,
      "ĠToday": 2602,
      "Ġfriend": 2603,
      "Ġapproaches": 2604,
      "ography": 2605,
      "af": 2606,
      "Ġnor": 2607,
      "Ġmajor": 2608,
      "Ġresearchers": 2609,
      "utes": 2610,
      "Ġpoint": 2611,
      "Ġfundam": 2612,
      "Ġrout": 2613,
      "Ġadditional": 2614,
      "Ġensures": 2615,
      "Ġentire": 2616,
      "Ġfree": 2617,
      "Ġinvolving": 2618,
      "Ġpatients": 2619,
      "Ġconsistent": 2620,
      "Ġled": 2621,
      "Ġgame": 2622,
      "ĠNew": 2623,
      "Ġsignificance": 2624,
      "uments": 2625,
      "Ġbalance": 2626,
      "Ġserves": 2627,
      "Ġinvolve": 2628,
      "Ġmarket": 2629,
      "eration": 2630,
      "Ġfar": 2631,
      "Ġ18": 2632,
      "Ġpractical": 2633,
      "Ġrisks": 2634,
      "Ġdevices": 2635,
      "Ġdelve": 2636,
      "being": 2637,
      "Ġquick": 2638,
      "Ġconclusion": 2639,
      "Ġrapid": 2640,
      "Ġappl": 2641,
      "Ġembr": 2642,
      "Ġchallenging": 2643,
      "ronic": 2644,
      "Ġaudi": 2645,
      "ample": 2646,
      "Ġconnection": 2647,
      "Ġdocument": 2648,
      "su": 2649,
      "ects": 2650,
      "Ġsex": 2651,
      "risti": 2652,
      "Ġplatforms": 2653,
      "Ġlater": 2654,
      "Ġestablished": 2655,
      "Ġscientific": 2656,
      "Ġtarget": 2657,
      "Ġnutri": 2658,
      "asting": 2659,
      "Ġsize": 2660,
      "Ġmath": 2661,
      "Ġillustr": 2662,
      "Ġsteps": 2663,
      "Ġfunctional": 2664,
      "Ġadjust": 2665,
      "ĠInst": 2666,
      "Ġscen": 2667,
      "ĠAfric": 2668,
      "Ġbig": 2669,
      "Ġbrain": 2670,
      "ĠTheir": 2671,
      "Ġreducing": 2672,
      "Ġhab": 2673,
      "amed": 2674,
      "odies": 2675,
      "ĠThere": 2676,
      "Ġpromote": 2677,
      "ĠBl": 2678,
      "ĠYour": 2679,
      "Ġseeking": 2680,
      "Ġperspectives": 2681,
      "Ġspecifically": 2682,
      "ĠStates": 2683,
      "Ġliterature": 2684,
      "rect": 2685,
      "Ġbound": 2686,
      "Ġcondition": 2687,
      "ultural": 2688,
      "ĠZ": 2689,
      "let": 2690,
      "Ġbecame": 2691,
      "Ġsettings": 2692,
      "Ġnarratives": 2693,
      "man": 2694,
      "ror": 2695,
      "ival": 2696,
      "une": 2697,
      "Ġdeb": 2698,
      "ification": 2699,
      "Ġdeveloped": 2700,
      "Ġsolutions": 2701,
      "Ġsafe": 2702,
      "Ġinitial": 2703,
      "Ġpay": 2704,
      "Ġdr": 2705,
      "Ġmovement": 2706,
      "Ġexhib": 2707,
      "Ġnetwork": 2708,
      "Ġgovernment": 2709,
      "Ġalternative": 2710,
      "Ġfour": 2711,
      "Ġfamil": 2712,
      "ĠMan": 2713,
      "Ġvia": 2714,
      "Ġonce": 2715,
      "Ġwarm": 2716,
      "ribution": 2717,
      "Ġbreak": 2718,
      "auti": 2719,
      "ike": 2720,
      "Ġgreat": 2721,
      "Ġvo": 2722,
      "Ġhealthy": 2723,
      "Ġneg": 2724,
      "rup": 2725,
      "eral": 2726,
      "Ġrepl": 2727,
      "Ġhumans": 2728,
      "mit": 2729,
      "Ġdespite": 2730,
      "Ġtechnologies": 2731,
      "Ġcause": 2732,
      "Ġrefers": 2733,
      "ĠUnit": 2734,
      "Ġprograms": 2735,
      "Ġanimals": 2736,
      "Ġthinking": 2737,
      "ths": 2738,
      "Ġrev": 2739,
      "Ġstri": 2740,
      "Ġplants": 2741,
      "Ġlimited": 2742,
      "ĠEach": 2743,
      "Ġrob": 2744,
      "Ġfeed": 2745,
      "Ġdecisions": 2746,
      "Ġsupports": 2747,
      "Ġincreasingly": 2748,
      "Ġcode": 2749,
      "ided": 2750,
      "ĠResearch": 2751,
      "Ġactions": 2752,
      "ema": 2753,
      "Ġfew": 2754,
      "Ġproducts": 2755,
      "Ġappropriate": 2756,
      "ma": 2757,
      "Ġskin": 2758,
      "ĠDespite": 2759,
      "Ġdiet": 2760,
      "omet": 2761,
      "Ġapplication": 2762,
      "ormal": 2763,
      "ĠChristi": 2764,
      "ios": 2765,
      "Ġwid": 2766,
      "ĠShe": 2767,
      "Ġwee": 2768,
      "Ġneeded": 2769,
      "Ġcultiv": 2770,
      "Ġlif": 2771,
      "Ġlearned": 2772,
      "By": 2773,
      "ĠAcc": 2774,
      "Ġleft": 2775,
      "Ġdeveloping": 2776,
      "rant": 2777,
      "ably": 2778,
      "Ġmedic": 2779,
      "Ġreview": 2780,
      "ĠMay": 2781,
      "Ġindepend": 2782,
      "overy": 2783,
      "Ġapproximately": 2784,
      "Ġgiven": 2785,
      "Ġing": 2786,
      "Ġsepar": 2787,
      "Ġmeet": 2788,
      "--------------------------------": 2789,
      "Ġacademic": 2790,
      "Ġdamage": 2791,
      "Ġthemes": 2792,
      "Ġinj": 2793,
      "astic": 2794,
      "Ġvide": 2795,
      "athy": 2796,
      "Ġrelated": 2797,
      "lo": 2798,
      "Ġreaders": 2799,
      "Ġancient": 2800,
      "Ġoptions": 2801,
      "000": 2802,
      "Ġrelevant": 2803,
      "Ġinternational": 2804,
      "osph": 2805,
      "cipl": 2806,
      "Ex": 2807,
      "ny": 2808,
      "Ġpresence": 2809,
      "oney": 2810,
      "Ġexpand": 2811,
      "Ġcountry": 2812,
      "Ġidea": 2813,
      "Ġefficiency": 2814,
      "Ġmeaningful": 2815,
      "Ġbring": 2816,
      "elebr": 2817,
      "Ġprevious": 2818,
      "fact": 2819,
      "side": 2820,
      "ude": 2821,
      "Ġsymptoms": 2822,
      "Ġintric": 2823,
      "ĠRec": 2824,
      "ĠReg": 2825,
      "Ġposition": 2826,
      "Be": 2827,
      "Ġcreative": 2828,
      "Ġexpect": 2829,
      "Ġsecurity": 2830,
      "ips": 2831,
      "Ġparts": 2832,
      "Ġsupporting": 2833,
      "Let": 2834,
      "ole": 2835,
      "Ġtool": 2836,
      "Ġeducational": 2837,
      "itch": 2838,
      "Ġdeg": 2839,
      "Ġcountries": 2840,
      "Ġincorporating": 2841,
      "Ġchem": 2842,
      "Ġaccount": 2843,
      "iter": 2844,
      "Ġsyn": 2845,
      "lier": 2846,
      "Ġbegan": 2847,
      "ĠWar": 2848,
      "Ġroles": 2849,
      "Ġterms": 2850,
      "Ġmoment": 2851,
      "elt": 2852,
      "ĠJust": 2853,
      "Ġdiagnos": 2854,
      "sing": 2855,
      "Ġgender": 2856,
      "Ġactive": 2857,
      "ĠMoreover": 2858,
      "Ġregions": 2859,
      "Ġinternal": 2860,
      "Ġsoftware": 2861,
      "Ġbar": 2862,
      "Ġmeasure": 2863,
      "ĠOnce": 2864,
      "not": 2865,
      "acts": 2866,
      "Ġideas": 2867,
      "Ġtemperature": 2868,
      "Ġfrequently": 2869,
      "Ġproblem": 2870,
      "Ġexact": 2871,
      "Ġinsp": 2872,
      "Ġcapt": 2873,
      "Ġcentury": 2874,
      "ĠWorld": 2875,
      "Ġjus": 2876,
      "Ġcultures": 2877,
      "redi": 2878,
      "Ġinher": 2879,
      "Ġlink": 2880,
      "Ġprepar": 2881,
      "Ġbusinesses": 2882,
      "Ġinstruc": 2883,
      "Ġstra": 2884,
      "ĠSu": 2885,
      "Ġenough": 2886,
      "Ġexpression": 2887,
      "Ġwr": 2888,
      "..": 2889,
      "dom": 2890,
      "reg": 2891,
      "Ġwind": 2892,
      "Ġrein": 2893,
      "Ġappe": 2894,
      "encing": 2895,
      "Ġgenerations": 2896,
      "Ġsuccessful": 2897,
      "augh": 2898,
      "Ġname": 2899,
      "back": 2900,
      "Ġdisord": 2901,
      "So": 2902,
      "ilos": 2903,
      "ĠSe": 2904,
      "Ġinnovation": 2905,
      "ret": 2906,
      "Ġrules": 2907,
      "amet": 2908,
      "Ġtraditions": 2909,
      "Ġcapac": 2910,
      "Ġpublish": 2911,
      "Ġwriting": 2912,
      "10": 2913,
      "ply": 2914,
      "elines": 2915,
      "Ġpersist": 2916,
      "Ġenhancing": 2917,
      "Ġpolicy": 2918,
      "Ġfamilies": 2919,
      "Ġsle": 2920,
      "Ġfoster": 2921,
      "resh": 2922,
      "Ġbackground": 2923,
      "Ġstarted": 2924,
      "Ġmis": 2925,
      "Ġheat": 2926,
      "Ġdifferences": 2927,
      "Ġaccording": 2928,
      "Ġreading": 2929,
      "Ġfilled": 2930,
      "amples": 2931,
      "ivil": 2932,
      "Ġoperations": 2933,
      "Ġlittle": 2934,
      "iliar": 2935,
      "Ġaddressing": 2936,
      "Ġdim": 2937,
      "Ġlibr": 2938,
      "Ġred": 2939,
      "ĠTra": 2940,
      "Ġartists": 2941,
      "Ġpolicies": 2942,
      "Ġfundamental": 2943,
      "Ġphen": 2944,
      "Ġeverything": 2945,
      "Ġthereby": 2946,
      "Ġappreciate": 2947,
      "Ġunders": 2948,
      "Ġclinical": 2949,
      "Ġwal": 2950,
      "Ġfem": 2951,
      "Ġcreated": 2952,
      "Ġprofessionals": 2953,
      "Ġautom": 2954,
      "Ġclimate": 2955,
      "osing": 2956,
      "ounts": 2957,
      "Ġobserved": 2958,
      "Ġsumm": 2959,
      "Ġexamining": 2960,
      "Ġreduced": 2961,
      "hes": 2962,
      "Ġtaking": 2963,
      "Ġcomfort": 2964,
      "ellig": 2965,
      "cious": 2966,
      "Ġproduct": 2967,
      "Ġawareness": 2968,
      "ger": 2969,
      "ert": 2970,
      "Ġnamed": 2971,
      "rial": 2972,
      "Ġunderlying": 2973,
      "Ġflu": 2974,
      "uro": 2975,
      "Ġresistance": 2976,
      "ĠRemember": 2977,
      "Ġbooks": 2978,
      "sh": 2979,
      "ĠSc": 2980,
      "ĠEarth": 2981,
      "For": 2982,
      "istics": 2983,
      "Ġgreen": 2984,
      "Ġsocietal": 2985,
      "Ġfall": 2986,
      "set": 2987,
      "Ġthreat": 2988,
      "Ġouts": 2989,
      "Ġconsequ": 2990,
      "Ġcollaboration": 2991,
      "oman": 2992,
      "Ġmeasures": 2993,
      "Ġcontrast": 2994,
      "Ġartic": 2995,
      "urg": 2996,
      "Ġnational": 2997,
      "ĠSimilarly": 2998,
      "rig": 2999,
      "Ġfa": 3000,
      "Ġheav": 3001,
      "Ġmanaging": 3002,
      "Ġoriginal": 3003,
      "ĠTim": 3004,
      "Ġcelebr": 3005,
      "Ġreflect": 3006,
      "Ġspiritual": 3007,
      "Ġprote": 3008,
      "Ġsustainable": 3009,
      "Ġcalc": 3010,
      "Ġpaper": 3011,
      "Ġside": 3012,
      "ĠPar": 3013,
      "Ġimproved": 3014,
      "Ġissue": 3015,
      "Ġexploration": 3016,
      "Ġproced": 3017,
      "Ġcompany": 3018,
      "Ġexposure": 3019,
      "ished": 3020,
      "ativity": 3021,
      "Ġsequ": 3022,
      "Ġdirectly": 3023,
      "itle": 3024,
      "use": 3025,
      "Ġtrue": 3026,
      "Ġinside": 3027,
      "Ġplaying": 3028,
      "ĠInstead": 3029,
      "Ġfeature": 3030,
      "Ġinformed": 3031,
      "ulated": 3032,
      "yl": 3033,
      "Ġguidance": 3034,
      "Ġdynamic": 3035,
      "ĠHist": 3036,
      "onom": 3037,
      "ĠAlthough": 3038,
      "Ġdetails": 3039,
      "Ġtasks": 3040,
      "Ġder": 3041,
      "Ġdays": 3042,
      "life": 3043,
      "such": 3044,
      "ĠFrom": 3045,
      "iety": 3046,
      "Ġmatter": 3047,
      "Ġimag": 3048,
      "Ġhelping": 3049,
      "ternal": 3050,
      "Ġextra": 3051,
      "Ġlessons": 3052,
      "making": 3053,
      "Ġep": 3054,
      "Ġbreath": 3055,
      "Have": 3056,
      "Ġbeauti": 3057,
      "Ġtry": 3058,
      "Ġdifficult": 3059,
      "ools": 3060,
      "itiz": 3061,
      "Ġfaced": 3062,
      "Ġearlier": 3063,
      "ults": 3064,
      "ĠRes": 3065,
      "Ġrecent": 3066,
      "Ġdial": 3067,
      "Ġhours": 3068,
      "Ġunivers": 3069,
      "anging": 3070,
      "Ġguide": 3071,
      "Conclusion": 3072,
      "onal": 3073,
      "Ġcity": 3074,
      "reen": 3075,
      "Int": 3076,
      "Ġindustry": 3077,
      "Ġfarm": 3078,
      "Ġlines": 3079,
      "Ġclaim": 3080,
      "Ġinteractions": 3081,
      "Ġdynamics": 3082,
      "Ġundersc": 3083,
      "Ġtail": 3084,
      "Ġrates": 3085,
      "ĠComp": 3086,
      "Ġrepresents": 3087,
      "Ġfeelings": 3088,
      "ding": 3089,
      "iors": 3090,
      "Ġitself": 3091,
      "Ġadvoc": 3092,
      "Ġprotect": 3093,
      "ĠExpl": 3094,
      "Ġ*": 3095,
      "atively": 3096,
      "ony": 3097,
      "Ġsure": 3098,
      "Ġservice": 3099,
      "Ġpatient": 3100,
      "ervation": 3101,
      "Ġdat": 3102,
      "Ġlab": 3103,
      "ooth": 3104,
      "Ġtopics": 3105,
      "'ve": 3106,
      "Ġadvant": 3107,
      "Ġgoals": 3108,
      "ilitary": 3109,
      "ilt": 3110,
      "rag": 3111,
      "ĠCom": 3112,
      "Ġsurv": 3113,
      "Ġplanning": 3114,
      "dle": 3115,
      "sw": 3116,
      "inated": 3117,
      "ster": 3118,
      "iles": 3119,
      "Ġseries": 3120,
      "Ġrespond": 3121,
      "ilosoph": 3122,
      "oles": 3123,
      "Ġeither": 3124,
      "Ġdevice": 3125,
      "Ġcross": 3126,
      "ingu": 3127,
      "ĠNor": 3128,
      "fficient": 3129,
      "ls": 3130,
      "Ġ+": 3131,
      "Ġbeliefs": 3132,
      "ĠTechn": 3133,
      "Ġisn": 3134,
      "Ġcompan": 3135,
      "ĠNow": 3136,
      "Ġinspir": 3137,
      "ufact": 3138,
      "Ġpotentially": 3139,
      "Ġinterpret": 3140,
      "Ġcateg": 3141,
      "ĠAll": 3142,
      "ĠPre": 3143,
      "Ġperf": 3144,
      "Ġcapable": 3145,
      "Ġpoints": 3146,
      "Ġemotions": 3147,
      "Ġarchit": 3148,
      "ĠChristian": 3149,
      "Ġport": 3150,
      "Ġinstall": 3151,
      "rug": 3152,
      "Ġvery": 3153,
      "Ġexisting": 3154,
      "Ġlabor": 3155,
      "Ġfocused": 3156,
      "ians": 3157,
      "uries": 3158,
      "ĠHis": 3159,
      "Ġmanage": 3160,
      "iation": 3161,
      "Ġmass": 3162,
      "Ġobjec": 3163,
      "Ġgoing": 3164,
      "Ġtherapy": 3165,
      "ceed": 3166,
      "Ġinnovative": 3167,
      "Ġexch": 3168,
      "Ġlandscape": 3169,
      "Ġsay": 3170,
      "ĠNo": 3171,
      "Ġsoil": 3172,
      "Ġaimed": 3173,
      "nal": 3174,
      "Ġbur": 3175,
      "Ġaspect": 3176,
      "Ġsearch": 3177,
      "Ġmechanisms": 3178,
      "Ġframework": 3179,
      "Ġtell": 3180,
      "Ġwild": 3181,
      "Ġprojects": 3182,
      "Ġpossess": 3183,
      "ird": 3184,
      "Ġprep": 3185,
      "Ġlikely": 3186,
      "bo": 3187,
      "Ġvib": 3188,
      "Ġjob": 3189,
      "ĠUniversity": 3190,
      "Ġconsidered": 3191,
      "uel": 3192,
      "Ġcogn": 3193,
      "Ġalg": 3194,
      "Ġdemand": 3195,
      "Ġnavigate": 3196,
      "wide": 3197,
      "ĠSch": 3198,
      "exp": 3199,
      "Ġadmin": 3200,
      "Ġexamine": 3201,
      "Ġreveal": 3202,
      "Ġincrease": 3203,
      "Ġimmedi": 3204,
      "uration": 3205,
      "ops": 3206,
      "ume": 3207,
      "Ġtransport": 3208,
      "Ġresid": 3209,
      "Ġcarefully": 3210,
      "Ġcancer": 3211,
      "Ġdest": 3212,
      "Ġhands": 3213,
      "usive": 3214,
      "Ġobserv": 3215,
      "Bob": 3216,
      "Ġfair": 3217,
      "Ġbond": 3218,
      "Ġ15": 3219,
      "Ġarr": 3220,
      "Ġnetworks": 3221,
      "Ġfavorite": 3222,
      "ĠX": 3223,
      "Ġspread": 3224,
      "Ġcontributing": 3225,
      "hic": 3226,
      "python": 3227,
      "When": 3228,
      "Ġingredi": 3229,
      "Ġproduce": 3230,
      "Ġpoly": 3231,
      "Ġschol": 3232,
      "ik": 3233,
      "force": 3234,
      "Ġseen": 3235,
      "Ġdoing": 3236,
      "Ġcontroll": 3237,
      "Ġlimit": 3238,
      "Ġcontinued": 3239,
      "Ġconducted": 3240,
      "Ġsource": 3241,
      "Ġcut": 3242,
      "atter": 3243,
      "Ġtotal": 3244,
      "Ġnotable": 3245,
      "Ġdiscussions": 3246,
      "How": 3247,
      "Ġvary": 3248,
      "Ġanx": 3249,
      "Ġfully": 3250,
      "Ġfit": 3251,
      "Ġcommunic": 3252,
      "Ġobjects": 3253,
      "âĢĵ": 3254,
      "Ġcomputer": 3255,
      "Ġparents": 3256,
      "tr": 3257,
      "Ġmob": 3258,
      "Ġlies": 3259,
      "Ġexec": 3260,
      "tiveness": 3261,
      "Ġupd": 3262,
      "Ġstrategy": 3263,
      "Ġlive": 3264,
      "Ġviol": 3265,
      "Ġquickly": 3266,
      "ĠAss": 3267,
      "Ġmemory": 3268,
      "ĊĠĠĠĠ": 3269,
      "Ġforward": 3270,
      "ĠCent": 3271,
      "Ġdisplay": 3272,
      "ensions": 3273,
      "Ġprimarily": 3274,
      "eed": 3275,
      "pose": 3276,
      "esis": 3277,
      "Ġcard": 3278,
      "Ġann": 3279,
      "Ġimage": 3280,
      "Ġincredi": 3281,
      "On": 3282,
      "Ġdecided": 3283,
      "Ġprotection": 3284,
      "Ġproblems": 3285,
      "Ġinstitutions": 3286,
      "Ġslow": 3287,
      "orith": 3288,
      "ching": 3289,
      "Ġheard": 3290,
      "Ġimproving": 3291,
      "Ġcompeti": 3292,
      "Ġcommonly": 3293,
      "Ġoutside": 3294,
      "Ġdedic": 3295,
      "Ġforces": 3296,
      "Ġwhite": 3297,
      "Ġintellig": 3298,
      "illing": 3299,
      "Ġnever": 3300,
      "Ġmovements": 3301,
      "Ġlarger": 3302,
      "ote": 3303,
      "Ġresource": 3304,
      "Ġroot": 3305,
      "Ġvalid": 3306,
      "Ġsleep": 3307,
      "Ġconsequences": 3308,
      "Ġmilitary": 3309,
      "uck": 3310,
      "Ġitems": 3311,
      "ector": 3312,
      "Ġhighly": 3313,
      "What": 3314,
      "ĠPe": 3315,
      "ĠDuring": 3316,
      "Ġcomplete": 3317,
      "Ġchoices": 3318,
      "Ġshift": 3319,
      "Ġcapacity": 3320,
      "()": 3321,
      "Ġfinal": 3322,
      "ĠCourse": 3323,
      "ibilities": 3324,
      "Ġgraph": 3325,
      "Ġpopulation": 3326,
      "aff": 3327,
      "Ġcreativity": 3328,
      "Ġdistribution": 3329,
      "Ġdeeply": 3330,
      "inate": 3331,
      "urance": 3332,
      "vey": 3333,
      "Ġgive": 3334,
      "Ġdeath": 3335,
      "ĠFr": 3336,
      "Ġexperienced": 3337,
      "Ġcosts": 3338,
      "Ġoptimal": 3339,
      "Ġmachine": 3340,
      "Ġwidely": 3341,
      "mission": 3342,
      "Ġmanufact": 3343,
      "Ġprocessing": 3344,
      "Ġbehaviors": 3345,
      "spec": 3346,
      "ĠSci": 3347,
      "ĠMod": 3348,
      "Ġequip": 3349,
      "Ġproperties": 3350,
      "Ġappreciation": 3351,
      "iny": 3352,
      "Ġpict": 3353,
      "Ġclose": 3354,
      "Ġpercent": 3355,
      "Ġencounter": 3356,
      "umption": 3357,
      "iosity": 3358,
      "IV": 3359,
      "ded": 3360,
      "eth": 3361,
      "aly": 3362,
      "Ġstates": 3363,
      "rich": 3364,
      "Ġmoney": 3365,
      "Ġhar": 3366,
      "ensity": 3367,
      "ounds": 3368,
      "Ġnumbers": 3369,
      "Ġsubstanti": 3370,
      "Ġwebs": 3371,
      "Ġagre": 3372,
      "Ġphenomen": 3373,
      "Ġmid": 3374,
      "Ġstor": 3375,
      "ades": 3376,
      "Ġinterests": 3377,
      "Ġmaxim": 3378,
      "Ġcoord": 3379,
      "Ġdiversity": 3380,
      "azing": 3381,
      "Ġhouse": 3382,
      "ĠĠĊ": 3383,
      "Ġstrategic": 3384,
      "Ġeffort": 3385,
      "ev": 3386,
      "Ġcat": 3387,
      "Ġcamp": 3388,
      "Ġfive": 3389,
      "acc": 3390,
      "Ġsolid": 3391,
      "Ġauthors": 3392,
      "Ġarchitect": 3393,
      "Ġenable": 3394,
      "umb": 3395,
      "Ġschools": 3396,
      "Ġthoughts": 3397,
      "Ġvehic": 3398,
      "Ġbeautiful": 3399,
      "Ġsection": 3400,
      "Ġrh": 3401,
      "related": 3402,
      "uly": 3403,
      "Ã©": 3404,
      "lear": 3405,
      "actions": 3406,
      "sequ": 3407,
      "Ġfigures": 3408,
      "Ġx": 3409,
      "Ġrate": 3410,
      "Ġword": 3411,
      "ront": 3412,
      "Ġartis": 3413,
      "Ġtiss": 3414,
      "ont": 3415,
      "ales": 3416,
      "oud": 3417,
      "eless": 3418,
      "ellow": 3419,
      "Ġqual": 3420,
      "Ġintegration": 3421,
      "ĠAccording": 3422,
      "Ġcivil": 3423,
      "Ġflex": 3424,
      "ĠGod": 3425,
      "Ġstudent": 3426,
      "Ġexactly": 3427,
      "Ġfiction": 3428,
      "ĠHealth": 3429,
      "Ġboundaries": 3430,
      "But": 3431,
      "Ġpopulations": 3432,
      "Ġsus": 3433,
      "Ġfish": 3434,
      "Ġmut": 3435,
      "lev": 3436,
      "Ġleads": 3437,
      "Ġexcess": 3438,
      "uty": 3439,
      "osystem": 3440,
      "Ġuses": 3441,
      "Another": 3442,
      "Ġintricate": 3443,
      "Ġtakes": 3444,
      "Ġfoot": 3445,
      "Ġpack": 3446,
      "Ġansw": 3447,
      "Ġconstit": 3448,
      "Ġprofound": 3449,
      "Ġteaching": 3450,
      "Ġpropos": 3451,
      "Ġvast": 3452,
      "Ġcontact": 3453,
      "Ġestim": 3454,
      "Ġethical": 3455,
      "Ġalgorith": 3456,
      "):": 3457,
      "Ġasked": 3458,
      "ĠHer": 3459,
      "Ġimages": 3460,
      "ĠRep": 3461,
      "Ġtalk": 3462,
      "Ġempathy": 3463,
      "Ġfear": 3464,
      "urs": 3465,
      "Ġunf": 3466,
      "Ġphilosoph": 3467,
      "Ġdialog": 3468,
      "sp": 3469,
      "Ġcreation": 3470,
      "Ġpublished": 3471,
      "Alice": 3472,
      "bon": 3473,
      "Ġreality": 3474,
      "Ġtechnological": 3475,
      "Ġhid": 3476,
      "ĠGu": 3477,
      "ancy": 3478,
      "Ġsimply": 3479,
      "Ġsmooth": 3480,
      "Ġoil": 3481,
      "Ġla": 3482,
      "ung": 3483,
      "ĠMany": 3484,
      "ieties": 3485,
      "Ġcolle": 3486,
      "Ġstandards": 3487,
      "urban": 3488,
      "alf": 3489,
      "emp": 3490,
      "pper": 3491,
      "Ġvisit": 3492,
      "pread": 3493,
      "Ġhyd": 3494,
      "Ġapplied": 3495,
      "my": 3496,
      "ĠCre": 3497,
      "ains": 3498,
      "Ġevolution": 3499,
      "Ġassign": 3500,
      "Ġsil": 3501,
      "Ġgames": 3502,
      "Ġacknow": 3503,
      "Ġemerging": 3504,
      "Ġrecovery": 3505,
      "Ġfinding": 3506,
      "ai": 3507,
      "asts": 3508,
      "Ġelectric": 3509,
      "Ġdetailed": 3510,
      "Ġperfect": 3511,
      "tif": 3512,
      "iving": 3513,
      "Ġsuitable": 3514,
      "ĠStr": 3515,
      "Ġcuriosity": 3516,
      "Ġsuggest": 3517,
      "Ġvirt": 3518,
      "Ġfer": 3519,
      "Ġfru": 3520,
      "Ġorder": 3521,
      "Ġlived": 3522,
      "Ġir": 3523,
      "Ġsqu": 3524,
      "Ġfresh": 3525,
      "Ġbodies": 3526,
      "Ġcareful": 3527,
      "Ġjustice": 3528,
      "aves": 3529,
      "Ġcame": 3530,
      "urt": 3531,
      "Ġmonths": 3532,
      "Ġvideo": 3533,
      "Ġdedicated": 3534,
      "Ġox": 3535,
      "Ġfelt": 3536,
      "Ġinput": 3537,
      "Ġcompar": 3538,
      "Ġrequirements": 3539,
      "Ġecosystem": 3540,
      "entic": 3541,
      "ĠAI": 3542,
      "Ġshar": 3543,
      "Ġphase": 3544,
      "ributions": 3545,
      "Ġinsight": 3546,
      "Ġsecure": 3547,
      "very": 3548,
      "Ġmonitoring": 3549,
      "Ġsexual": 3550,
      "Ġspaces": 3551,
      "ographic": 3552,
      "eli": 3553,
      "Ġexternal": 3554,
      "Ġeyes": 3555,
      "!\"": 3556,
      "Ġapply": 3557,
      "Ġexamples": 3558,
      "Ġdiscovered": 3559,
      "Ġcollective": 3560,
      "Ġaccurate": 3561,
      "Ġadvancements": 3562,
      "com": 3563,
      "ler": 3564,
      "acking": 3565,
      "Ġlack": 3566,
      "Ġgather": 3567,
      "ads": 3568,
      "Ġdev": 3569,
      "Ġcrim": 3570,
      "Ġorganization": 3571,
      "ĠIts": 3572,
      "wards": 3573,
      "Ġrecognize": 3574,
      "Ġlate": 3575,
      "ĠKe": 3576,
      "Ġdelic": 3577,
      "Ġdepending": 3578,
      "Ġalongside": 3579,
      "Ġemerged": 3580,
      "Ġscenari": 3581,
      "Ġultimately": 3582,
      "appy": 3583,
      "Ġpiece": 3584,
      "ued": 3585,
      "Ġhon": 3586,
      "emb": 3587,
      "Ġparticipants": 3588,
      "Ġpsychological": 3589,
      "uild": 3590,
      "Ġdrug": 3591,
      "Ġhope": 3592,
      "verage": 3593,
      "Ġclar": 3594,
      "Ġcontinues": 3595,
      "Ġinitiatives": 3596,
      "Ġcraf": 3597,
      "way": 3598,
      "Ġtable": 3599,
      "osp": 3600,
      "ĠPer": 3601,
      "Ġcomplexity": 3602,
      "Ġfoundation": 3603,
      "Ġconcent": 3604,
      "Ġap": 3605,
      "akers": 3606,
      "Ġscientists": 3607,
      "ĠEv": 3608,
      "issions": 3609,
      "Ġsolution": 3610,
      "Ġanimal": 3611,
      "Ġrequiring": 3612,
      "Ġfigure": 3613,
      "Ġrobust": 3614,
      "bal": 3615,
      "ees": 3616,
      "ĠMed": 3617,
      "ĠAmerica": 3618,
      "Ġelse": 3619,
      "where": 3620,
      "Ġsituations": 3621,
      "ticip": 3622,
      "Ġimplications": 3623,
      "fication": 3624,
      "Ġshows": 3625,
      "Ġreason": 3626,
      "Ġheight": 3627,
      "Ġinfra": 3628,
      "Ġpartn": 3629,
      "Ġcharacteristics": 3630,
      "Ġpieces": 3631,
      "Ġonto": 3632,
      "ighb": 3633,
      "Ġfoundational": 3634,
      "Ġdrawing": 3635,
      "ellect": 3636,
      "ifying": 3637,
      "ĠInter": 3638,
      "clud": 3639,
      "Ġreflects": 3640,
      "Ġfields": 3641,
      "mental": 3642,
      "Ġrecommended": 3643,
      "50": 3644,
      "ull": 3645,
      "Ġstability": 3646,
      "ript": 3647,
      "Ġtechnical": 3648,
      "Ġlocation": 3649,
      "idespread": 3650,
      "Ġfaith": 3651,
      "bre": 3652,
      "orough": 3653,
      "Ġwidespread": 3654,
      "ĠSer": 3655,
      "Ġworldwide": 3656,
      "Ġconnect": 3657,
      "Ġgoal": 3658,
      "ĠEuropean": 3659,
      "Ġcognitive": 3660,
      "zz": 3661,
      "Ġang": 3662,
      "Ġadvers": 3663,
      "Ġconfig": 3664,
      "Ġveget": 3665,
      "Ġlayer": 3666,
      "Ġincredible": 3667,
      "onic": 3668,
      "Ġcam": 3669,
      "Ġnormal": 3670,
      "rief": 3671,
      "Ġdoesn": 3672,
      "Ġgas": 3673,
      "Ġefficient": 3674,
      "inter": 3675,
      "Ġgard": 3676,
      "Ġchemical": 3677,
      "ĠUS": 3678,
      "Ġcolors": 3679,
      "aken": 3680,
      "ĠEnglish": 3681,
      "Ġmathema": 3682,
      "Ġartistic": 3683,
      "ulner": 3684,
      "Ġtrying": 3685,
      "Ġhowever": 3686,
      "ĠDevelop": 3687,
      "structure": 3688,
      "Ġexpectations": 3689,
      "Ġtheory": 3690,
      "ott": 3691,
      "Ġtrends": 3692,
      "Ġingredients": 3693,
      "Ġurban": 3694,
      "ĠCo": 3695,
      "ĠEven": 3696,
      "Ġrecip": 3697,
      "Ġformation": 3698,
      "Ġpursu": 3699,
      "Ġwide": 3700,
      "unch": 3701,
      "Ġstudying": 3702,
      "Ġtechnique": 3703,
      "Ġplayed": 3704,
      "Ġenhances": 3705,
      "Ġidentifying": 3706,
      "Ġcomponent": 3707,
      "Ġcommitment": 3708,
      "Introduction": 3709,
      "Ġfile": 3710,
      "ulating": 3711,
      "ĠNational": 3712,
      "ulture": 3713,
      "Ġcontributes": 3714,
      "Ġ199": 3715,
      "Ġrecognition": 3716,
      "Ġgained": 3717,
      "Ġstorage": 3718,
      "ae": 3719,
      "oor": 3720,
      "Ġreson": 3721,
      "Ġseason": 3722,
      "Ġparamet": 3723,
      "Ġrepresentation": 3724,
      "Ġrecognized": 3725,
      "Ġcounter": 3726,
      "Ġrig": 3727,
      "ĠPrac": 3728,
      "ĠMe": 3729,
      "resp": 3730,
      "Ġgrad": 3731,
      "Ġdefined": 3732,
      "ĠLe": 3733,
      "Ġourselves": 3734,
      "Ġamazing": 3735,
      "telling": 3736,
      "ister": 3737,
      "ĠSec": 3738,
      "ĠCar": 3739,
      "Ġspecialized": 3740,
      "Ġchoose": 3741,
      "ohn": 3742,
      "Ġlinked": 3743,
      "Ġsn": 3744,
      "ĠThink": 3745,
      "Ġamid": 3746,
      "ooks": 3747,
      "cing": 3748,
      "ĠGerm": 3749,
      "ultane": 3750,
      "Ġdemonstrated": 3751,
      "Ġvulner": 3752,
      "Ġassessment": 3753,
      "Ġgenetic": 3754,
      "Ġdream": 3755,
      "Ġconver": 3756,
      "Ġforce": 3757,
      "Ġcannot": 3758,
      "Ġworry": 3759,
      "head": 3760,
      "Ġsevere": 3761,
      "ception": 3762,
      "ĠEurope": 3763,
      "erate": 3764,
      "Ġtown": 3765,
      "ĠHappy": 3766,
      "Ġju": 3767,
      "ĠKey": 3768,
      "Ġlonger": 3769,
      "Ġguidelines": 3770,
      "Ġsounds": 3771,
      "ritis": 3772,
      "ogether": 3773,
      "Ġgenerate": 3774,
      "Ġshapes": 3775,
      "NA": 3776,
      "Ġrac": 3777,
      "Ġacqu": 3778,
      "Ġincluded": 3779,
      "Ġperiods": 3780,
      "ows": 3781,
      "otyp": 3782,
      "andom": 3783,
      "Ġextre": 3784,
      "Ġaccessible": 3785,
      "Ġaffect": 3786,
      "ready": 3787,
      "Ġperspective": 3788,
      "rical": 3789,
      "Ġbacter": 3790,
      "Ġhyp": 3791,
      "Ġrise": 3792,
      "ĠSoc": 3793,
      "Ġneighb": 3794,
      "Ġtrig": 3795,
      "Ġ12": 3796,
      "Ġroom": 3797,
      "ĠTrans": 3798,
      "Ġstatus": 3799,
      "Ġnegative": 3800,
      "Before": 3801,
      "Ġcooking": 3802,
      "Ġstream": 3803,
      "ĠId": 3804,
      "ĠDis": 3805,
      "Ġtransl": 3806,
      "Ġelev": 3807,
      "med": 3808,
      "arah": 3809,
      "rad": 3810,
      "---": 3811,
      "Ġcolon": 3812,
      "Ġresponses": 3813,
      "Ġfollowed": 3814,
      "Ġconflict": 3815,
      "ok": 3816,
      "Ġwaste": 3817,
      "Ġcontexts": 3818,
      "ĠDr": 3819,
      "ĠRuss": 3820,
      "ĠIns": 3821,
      "Ġsignal": 3822,
      "Ġcorrect": 3823,
      "Ġbasic": 3824,
      "Ġequipment": 3825,
      "First": 3826,
      "Ġpresented": 3827,
      "Ġtransformation": 3828,
      "Ġexercise": 3829,
      "Ġtesting": 3830,
      "Ġdry": 3831,
      "oll": 3832,
      "Ġpeace": 3833,
      "Ġcurr": 3834,
      "Ġminutes": 3835,
      "ĠAfrican": 3836,
      "Ġtexts": 3837,
      "Ġwhose": 3838,
      "Ġarri": 3839,
      "Ġmotiv": 3840,
      "Ġclosely": 3841,
      "Ġembracing": 3842,
      "cles": 3843,
      "Ġalready": 3844,
      "Ġleast": 3845,
      "Ġidentified": 3846,
      "ĠIndigenous": 3847,
      "Ġadminist": 3848,
      "Ġwis": 3849,
      "Ġdark": 3850,
      "Ġbase": 3851,
      "ille": 3852,
      "thern": 3853,
      "itig": 3854,
      "Ġneuro": 3855,
      "Ġ16": 3856,
      "Ġleaders": 3857,
      "atisf": 3858,
      "Ġinstr": 3859,
      "Ġagric": 3860,
      "Ġcharacterized": 3861,
      "itage": 3862,
      "ĠFirst": 3863,
      "ĠChina": 3864,
      "Ġproperty": 3865,
      "Ġpreserving": 3866,
      "Ġsubstantial": 3867,
      "owers": 3868,
      "Ġintellect": 3869,
      "ĠHave": 3870,
      "Ġabilities": 3871,
      "Ġeffectiveness": 3872,
      "Ġglass": 3873,
      "Ġnarrative": 3874,
      "Ġeye": 3875,
      "Ġcompanies": 3876,
      "ĠNot": 3877,
      "Ġbenefit": 3878,
      "Ġlaws": 3879,
      "Ġwood": 3880,
      "Ġyield": 3881,
      "arian": 3882,
      "Ġrestric": 3883,
      "Ġcontinuous": 3884,
      "Ġpredic": 3885,
      "Ġpreferences": 3886,
      "Ġinfrastructure": 3887,
      "At": 3888,
      "mon": 3889,
      "met": 3890,
      "Ġthorough": 3891,
      "Ġdiss": 3892,
      "ffic": 3893,
      "Ġwritten": 3894,
      "Ġconventional": 3895,
      "roll": 3896,
      "ĠTitle": 3897,
      "Ġconsumption": 3898,
      "world": 3899,
      "Ġtook": 3900,
      "Ġempower": 3901,
      "Ġfib": 3902,
      "ĠSouth": 3903,
      "ĠPython": 3904,
      "Ġperce": 3905,
      "Ġsigns": 3906,
      "Ġsubsequ": 3907,
      "Ġsmart": 3908,
      "Ġpromin": 3909,
      "Ġcaptiv": 3910,
      "Ġstructural": 3911,
      "Ġauthentic": 3912,
      "Ġabsor": 3913,
      "Ġreported": 3914,
      "rol": 3915,
      "Ġspect": 3916,
      "alls": 3917,
      "Ġremind": 3918,
      "ourage": 3919,
      "Ġencourages": 3920,
      "Ġput": 3921,
      "Ġplot": 3922,
      "Ġoutput": 3923,
      "Ġhidden": 3924,
      "room": 3925,
      "Ġhost": 3926,
      "Ġanxiety": 3927,
      "Ġcer": 3928,
      "Ġcop": 3929,
      "Ġfrag": 3930,
      "ĠAb": 3931,
      "Ġkne": 3932,
      "ĠJohn": 3933,
      "Ġevaluation": 3934,
      "tition": 3935,
      "Ġstage": 3936,
      "Ġpresents": 3937,
      "Ġadventure": 3938,
      "Ġintelligence": 3939,
      "eign": 3940,
      "Ġpor": 3941,
      "Ġwatch": 3942,
      "urning": 3943,
      "Ġisol": 3944,
      "Ġalter": 3945,
      "Ġtransfer": 3946,
      "Ġbecoming": 3947,
      "Ġchanging": 3948,
      "mosph": 3949,
      "anks": 3950,
      "urrent": 3951,
      "ĠSystem": 3952,
      "Ġmarked": 3953,
      "Ġsuggests": 3954,
      "Ġcausing": 3955,
      "ĠIntroduction": 3956,
      "Ġintervention": 3957,
      "ĠCanad": 3958,
      "Ġdisrup": 3959,
      "Ġtrade": 3960,
      "Ġsmaller": 3961,
      "Ġwanted": 3962,
      "expected": 3963,
      "ias": 3964,
      "tor": 3965,
      "Ġstatis": 3966,
      "Ġprob": 3967,
      "pers": 3968,
      "Ġsite": 3969,
      "Ġcitiz": 3970,
      "ĠAmong": 3971,
      "Ġhighlighting": 3972,
      "Ġbarri": 3973,
      "cip": 3974,
      "olving": 3975,
      "apes": 3976,
      "Ġintro": 3977,
      "Ġadults": 3978,
      "Ġdepth": 3979,
      "Ġdetermine": 3980,
      "Ġbrand": 3981,
      "Ġ\\": 3982,
      "Ġmer": 3983,
      "Ġjud": 3984,
      "Ġlocated": 3985,
      "Ġfreed": 3986,
      "ĠKeep": 3987,
      "ocks": 3988,
      "Ġacid": 3989,
      "ills": 3990,
      "Ġweak": 3991,
      "Ġrepe": 3992,
      "ompass": 3993,
      "Ġemphasizing": 3994,
      "Ġlayers": 3995,
      "ĠAlex": 3996,
      "que": 3997,
      "ĠOur": 3998,
      "Ġobject": 3999,
      "Ġgeneral": 4000,
      "rench": 4001,
      "Ġwonder": 4002,
      "alle": 4003,
      "Ġregional": 4004,
      "Ġhabit": 4005,
      "Ġ|": 4006,
      "ager": 4007,
      "Ġinterf": 4008,
      "Ġuncertain": 4009,
      "aks": 4010,
      "word": 4011,
      "Ġsou": 4012,
      "Ġcoun": 4013,
      "Ġfix": 4014,
      "odes": 4015,
      "ĠWelcome": 4016,
      "ublic": 4017,
      "thetic": 4018,
      "Ġengineering": 4019,
      "Ġdisorders": 4020,
      "ĠSpec": 4021,
      "Ġheritage": 4022,
      "Ġfeeling": 4023,
      "ĠCommun": 4024,
      "Ġlibrary": 4025,
      "Ġtailored": 4026,
      "respond": 4027,
      "Des": 4028,
      "Ġhor": 4029,
      "ils": 4030,
      "apan": 4031,
      "udden": 4032,
      "Ġvision": 4033,
      "Ġloved": 4034,
      "Ġemployed": 4035,
      "Ġsimultane": 4036,
      "Ġdiseases": 4037,
      "Ġvibrant": 4038,
      "rix": 4039,
      "Ġabove": 4040,
      "ĠAdv": 4041,
      "Ġfactor": 4042,
      "ĠConsider": 4043,
      "Ġstyles": 4044,
      "auty": 4045,
      "Ġsatisf": 4046,
      "oli": 4047,
      "Ġable": 4048,
      "Ġten": 4049,
      "Ġtree": 4050,
      "estern": 4051,
      "ĠAust": 4052,
      "ĠSuch": 4053,
      "Ġexpected": 4054,
      "Ġtransition": 4055,
      "Ġwhole": 4056,
      "Ġsched": 4057,
      "ĠEnc": 4058,
      "Ġanalyzing": 4059,
      "ctions": 4060,
      "utic": 4061,
      "Ġthri": 4062,
      "Ġden": 4063,
      "Ġpoll": 4064,
      "Ġreliable": 4065,
      "aign": 4066,
      "ned": 4067,
      "ino": 4068,
      "orting": 4069,
      "Ġpan": 4070,
      "Ġindigenous": 4071,
      "Ġ30": 4072,
      "Ġcollection": 4073,
      "Ġcircum": 4074,
      "Ġevolving": 4075,
      "12": 4076,
      "tial": 4077,
      "Ġimpacts": 4078,
      "Ġcapital": 4079,
      "Ġgenerally": 4080,
      "conn": 4081,
      "Ġcarry": 4082,
      "ĠIdenti": 4083,
      "uman": 4084,
      "Ġconstant": 4085,
      "yle": 4086,
      "Ġnu": 4087,
      "osis": 4088,
      "Ġleaving": 4089,
      "Ġatmosph": 4090,
      "Ġdesired": 4091,
      "Ġmaybe": 4092,
      "Ġfocusing": 4093,
      "$$": 4094,
      "Ġdog": 4095,
      "Ġnight": 4096,
      "Ġsole": 4097,
      "Ġaffected": 4098,
      "ingly": 4099,
      "aturing": 4100,
      "Ġsuff": 4101,
      "Ġ14": 4102,
      "Ġbuilt": 4103,
      "Ġrealm": 4104,
      "Ġindicating": 4105,
      "Ġstorytelling": 4106,
      "Ġfant": 4107,
      "Ġamb": 4108,
      "Ġdesigns": 4109,
      "Ġelim": 4110,
      "Ġfilm": 4111,
      "Ġfeedback": 4112,
      "ison": 4113,
      "Ġweather": 4114,
      "Ġsaid": 4115,
      "Ġconnected": 4116,
      "Ġdemands": 4117,
      "Ġattribut": 4118,
      "ĠIndia": 4119,
      "ĠNorth": 4120,
      "iding": 4121,
      "ĠEduc": 4122,
      "Ġdiscipl": 4123,
      "Ġmolec": 4124,
      "Ġblock": 4125,
      "Ġbiological": 4126,
      "Ġanalyze": 4127,
      "Ġaccuracy": 4128,
      "Ġdescribed": 4129,
      "ĊĠĠĠĠĠĠĠ": 4130,
      "Ġoffic": 4131,
      "Ġofficial": 4132,
      "Ġsports": 4133,
      "Ġunexpected": 4134,
      "Ġdiscrim": 4135,
      "vention": 4136,
      "Ġconfidence": 4137,
      "Ġoperational": 4138,
      "Ġmention": 4139,
      "Ġmessage": 4140,
      "Ġprocedures": 4141,
      "Ġacknowled": 4142,
      "18": 4143,
      "ĠMy": 4144,
      "Ġplans": 4145,
      "enses": 4146,
      "ĠGen": 4147,
      "Ġrelease": 4148,
      "Ġconstruction": 4149,
      "Ġinherent": 4150,
      "Ġvirtual": 4151,
      "Ġchann": 4152,
      "Ġcapabilities": 4153,
      "Ġfamiliar": 4154,
      "Ġpurpose": 4155,
      "Ġvoice": 4156,
      "Ġtit": 4157,
      "Ġhot": 4158,
      "Ġrespec": 4159,
      "ĠJapan": 4160,
      "Ġinvestment": 4161,
      "Ġexperiment": 4162,
      "Ġsix": 4163,
      "Ġmarg": 4164,
      "ires": 4165,
      "Ġinters": 4166,
      "Ġusually": 4167,
      "Ġcorrespond": 4168,
      "Ġshowc": 4169,
      "Ġdidn": 4170,
      "Ġdialogue": 4171,
      "ried": 4172,
      "Ġtruly": 4173,
      "Ġexplored": 4174,
      "Ġpurch": 4175,
      "Ġindustrial": 4176,
      "Ġappearance": 4177,
      "Ġeasy": 4178,
      "Ġintroduced": 4179,
      "Ġfat": 4180,
      "Ġnations": 4181,
      "Ġalike": 4182,
      "Ġplayers": 4183,
      "Ġcarbon": 4184,
      "Ġemphasizes": 4185,
      "apeutic": 4186,
      "Ġactually": 4187,
      "Ġhighlights": 4188,
      "ID": 4189,
      "bility": 4190,
      "Ġcook": 4191,
      "Ġpen": 4192,
      "ĠII": 4193,
      "Ġbeauty": 4194,
      "ought": 4195,
      "Ġsurg": 4196,
      "Ġlearners": 4197,
      "gar": 4198,
      "inant": 4199,
      "Ġcry": 4200,
      "Ġexpans": 4201,
      "Ġcurious": 4202,
      "Ġmuscle": 4203,
      "Ġreflecting": 4204,
      "Ġselection": 4205,
      "Ġpreviously": 4206,
      "BT": 4207,
      "inning": 4208,
      "Ġpush": 4209,
      "att": 4210,
      "Ġhalf": 4211,
      "Ġhighlight": 4212,
      "Ġintegrating": 4213,
      "Ad": 4214,
      "ĠĊ": 4215,
      "Ġhous": 4216,
      "ference": 4217,
      "netic": 4218,
      "Ġeffect": 4219,
      "Ġresponsibility": 4220,
      "Ġbelong": 4221,
      "ero": 4222,
      "tise": 4223,
      "Ġask": 4224,
      "Ġcontributions": 4225,
      "ĠDec": 4226,
      "III": 4227,
      "Ġstyle": 4228,
      "inations": 4229,
      "Ġtou": 4230,
      "Ġcand": 4231,
      "orous": 4232,
      "Ġfab": 4233,
      "enew": 4234,
      "Ġencompass": 4235,
      "Ġadvantages": 4236,
      "Ġexchange": 4237,
      "rand": 4238,
      "tenance": 4239,
      "Ġoutl": 4240,
      "Ġblack": 4241,
      "Ġcaused": 4242,
      "Â°": 4243,
      "Ġaccept": 4244,
      "Ġfeet": 4245,
      "hips": 4246,
      "Ġcombined": 4247,
      "Ġspeed": 4248,
      "Chapter": 4249,
      "ipped": 4250,
      "pe": 4251,
      "orial": 4252,
      "Ġbud": 4253,
      "Ġrandom": 4254,
      "Ġmoments": 4255,
      "Ġarrang": 4256,
      "iance": 4257,
      "ups": 4258,
      "Ġthr": 4259,
      "Ġsent": 4260,
      "ĠSarah": 4261,
      "arding": 4262,
      "Ġhair": 4263,
      "ishing": 4264,
      "Ġseek": 4265,
      "Ġreferred": 4266,
      "Ġmessages": 4267,
      "Ġweek": 4268,
      "Ġderived": 4269,
      "Ġlength": 4270,
      "Ġlooking": 4271,
      "essions": 4272,
      "quality": 4273,
      "Ġknows": 4274,
      "Ġfoods": 4275,
      "Ġinterventions": 4276,
      "lor": 4277,
      "Ġfuel": 4278,
      "asons": 4279,
      "ĠUsing": 4280,
      "Ġdiscussion": 4281,
      "ĠConsequ": 4282,
      "Ġreceive": 4283,
      "Ġcampaign": 4284,
      "Ġintellectual": 4285,
      "Ġrom": 4286,
      "Ġthous": 4287,
      "active": 4288,
      "ĠTw": 4289,
      "ulatory": 4290,
      "Ġord": 4291,
      "ĠIntern": 4292,
      "Ġplanet": 4293,
      "Ġsituation": 4294,
      "ollow": 4295,
      "Ġplaces": 4296,
      "Ġhealing": 4297,
      "Ġinterconn": 4298,
      "Ġassist": 4299,
      "rown": 4300,
      "Ġenhanced": 4301,
      "Through": 4302,
      "Ġintegrity": 4303,
      "Ġintegrated": 4304,
      "Ġtax": 4305,
      "Ġmitig": 4306,
      "empl": 4307,
      "ift": 4308,
      "ĠDisc": 4309,
      "Ġfeaturing": 4310,
      "Ġoccurs": 4311,
      "Ġrecords": 4312,
      "Ġaudience": 4313,
      "mar": 4314,
      "ountain": 4315,
      "Ġfocuses": 4316,
      "Ġaffecting": 4317,
      "Ġbelieve": 4318,
      "fl": 4319,
      "ented": 4320,
      "Ġnp": 4321,
      "Ġregulations": 4322,
      "Ġformal": 4323,
      "Ġteachers": 4324,
      "Ġaudiences": 4325,
      "Ġcitizens": 4326,
      "hab": 4327,
      "Ġreally": 4328,
      "ffective": 4329,
      "Ġserving": 4330,
      "raw": 4331,
      "Ġexamination": 4332,
      "Ġoperating": 4333,
      "Ġmagn": 4334,
      "Ġcauses": 4335,
      "Ġamidst": 4336,
      "ck": 4337,
      "oon": 4338,
      "Ġchronic": 4339,
      "Ġcompass": 4340,
      "Ġtransc": 4341,
      "Ġhappens": 4342,
      "Ġmast": 4343,
      "asion": 4344,
      "iling": 4345,
      "Ġgar": 4346,
      "plot": 4347,
      "avors": 4348,
      "Ġterrit": 4349,
      "Ġstarting": 4350,
      "Ac": 4351,
      "uing": 4352,
      "ĠCal": 4353,
      "Ġmov": 4354,
      "Ġimmune": 4355,
      "Ġcombining": 4356,
      "Ġillness": 4357,
      "antic": 4358,
      "Ġprol": 4359,
      "ading": 4360,
      "rought": 4361,
      "ritish": 4362,
      "inc": 4363,
      "ula": 4364,
      "Ġcheck": 4365,
      "ogen": 4366,
      "Ġrelax": 4367,
      "Ġexpertise": 4368,
      "Ġago": 4369,
      "Ġinteraction": 4370,
      "Ġsymbol": 4371,
      "Ġprivate": 4372,
      "tt": 4373,
      "Ġtend": 4374,
      "Ġfire": 4375,
      "Ġalone": 4376,
      "Ġconsid": 4377,
      "Ġheld": 4378,
      "Ġconsistently": 4379,
      "Ġincorporate": 4380,
      "Ġwondered": 4381,
      "Ġrapidly": 4382,
      "Finally": 4383,
      "ĠOp": 4384,
      "Ġincreases": 4385,
      "Ġtreatments": 4386,
      "Ġprincip": 4387,
      "Ġopportunity": 4388,
      "Ġtherapeutic": 4389,
      "Ġsimultaneously": 4390,
      "nam": 4391,
      "Ġcompl": 4392,
      "ĠPres": 4393,
      "Ġenduring": 4394,
      "Ġtrees": 4395,
      "Ġconversations": 4396,
      "yd": 4397,
      "Ġswe": 4398,
      "Ġstore": 4399,
      "Ġarray": 4400,
      "Ġremark": 4401,
      "Ġadding": 4402,
      "Ġinfluences": 4403,
      "Ġenth": 4404,
      "Ġhandling": 4405,
      "Ġnavigating": 4406,
      "Ġtemperatures": 4407,
      "rics": 4408,
      "Ġshaped": 4409,
      "Ġdefin": 4410,
      "Ġstronger": 4411,
      "Ġdemonstrate": 4412,
      "Ġstraight": 4413,
      "iological": 4414,
      "ressive": 4415,
      "ĠJew": 4416,
      "Ġimmers": 4417,
      "Ġevaluate": 4418,
      "co": 4419,
      "acement": 4420,
      "cean": 4421,
      "Ġready": 4422,
      "raction": 4423,
      "Ġactual": 4424,
      "Ġminimize": 4425,
      "Ġholds": 4426,
      "Ġmedicine": 4427,
      "uilding": 4428,
      "AS": 4429,
      "bit": 4430,
      "oke": 4431,
      "Ġrely": 4432,
      "ĠAg": 4433,
      "ĠBritish": 4434,
      "Ġsignals": 4435,
      "Ġpassion": 4436,
      "Ġmillion": 4437,
      "Ġlimitations": 4438,
      "Ġmil": 4439,
      "amin": 4440,
      "ively": 4441,
      "Ġcomprom": 4442,
      "Ġtrack": 4443,
      "Ġdetection": 4444,
      "Ġformat": 4445,
      "Ġdefine": 4446,
      "Ġdiscussing": 4447,
      "while": 4448,
      "Ġconflicts": 4449,
      "ĠTogether": 4450,
      "formation": 4451,
      "Ġaren": 4452,
      "Ġknowing": 4453,
      "Ġfacing": 4454,
      "Ġwellbeing": 4455,
      "Ġreduces": 4456,
      "Ġmetab": 4457,
      "Ġcontaining": 4458,
      "Ġembark": 4459,
      "Ġreinfor": 4460,
      "Ġdang": 4461,
      "used": 4462,
      "ocal": 4463,
      "itivity": 4464,
      "Ġ17": 4465,
      "Ġconfirm": 4466,
      "Ġsupported": 4467,
      "Ġequal": 4468,
      "Ġminor": 4469,
      "Ġdepend": 4470,
      "Ġenter": 4471,
      "While": 4472,
      "Ġexciting": 4473,
      "gment": 4474,
      "Ġenrich": 4475,
      "ĠBoth": 4476,
      "ĠHigh": 4477,
      "Ġmanip": 4478,
      "Ġdifference": 4479,
      "Ġelectro": 4480,
      "Ġliterary": 4481,
      "Ġfreedom": 4482,
      "Despite": 4483,
      "rors": 4484,
      "ĠSm": 4485,
      "Ġinten": 4486,
      "ĠOb": 4487,
      "Ġinner": 4488,
      "Ġachieving": 4489,
      "Ġencourage": 4490,
      "Ġrunning": 4491,
      "Ġmoral": 4492,
      "otic": 4493,
      "Ġtaken": 4494,
      "Ġpu": 4495,
      "Ġhom": 4496,
      "ĠDep": 4497,
      "Ġsocieties": 4498,
      "Ġrealized": 4499,
      "Ġeasily": 4500,
      "Welcome": 4501,
      "haps": 4502,
      "Ġfast": 4503,
      "ĠPers": 4504,
      "Ġimpl": 4505,
      "Ġfamous": 4506,
      "elihood": 4507,
      "200": 4508,
      "Ġsong": 4509,
      "Ġstim": 4510,
      "esson": 4511,
      "Ġleadership": 4512,
      "Ġfrequency": 4513,
      "Ġtissue": 4514,
      "ifies": 4515,
      "Ġmoving": 4516,
      "Ġidentities": 4517,
      "Ġcouldn": 4518,
      "Ġinflamm": 4519,
      "Ġprecise": 4520,
      "Ġenthus": 4521,
      "Ġaes": 4522,
      "Ġcommerc": 4523,
      "Ġmoist": 4524,
      "Ġera": 4525,
      "Ġfacilitate": 4526,
      "ĠPeople": 4527,
      "Ġtap": 4528,
      "amb": 4529,
      "Ġ13": 4530,
      "Ġremo": 4531,
      "icians": 4532,
      "Ġinfluenced": 4533,
      "Ġrecommend": 4534,
      "ĠConsequently": 4535,
      "ran": 4536,
      "raft": 4537,
      "ief": 4538,
      "Ġcenter": 4539,
      "Ġsustainability": 4540,
      "Ġminimal": 4541,
      "Ġreceived": 4542,
      "pris": 4543,
      "Ġlasting": 4544,
      "Ġintended": 4545,
      "ĠLear": 4546,
      "ĠGree": 4547,
      "Ġconsult": 4548,
      "hether": 4549,
      "Ġdevelopments": 4550,
      "Ġbelieved": 4551,
      "Ġ50": 4552,
      "Ġindicate": 4553,
      "Ġindicates": 4554,
      "Ġframeworks": 4555,
      "Ġweeks": 4556,
      "Ġmentioned": 4557,
      "acies": 4558,
      "ĠBob": 4559,
      "Ġhelped": 4560,
      "Ġdistribut": 4561,
      "Ġcareer": 4562,
      "Ġoperation": 4563,
      "Ġdatas": 4564,
      "Ġprominent": 4565,
      "utional": 4566,
      "ork": 4567,
      "Ġrenew": 4568,
      "rome": 4569,
      "Ġproviders": 4570,
      "Ġimprovement": 4571,
      "Ġlandscapes": 4572,
      "holders": 4573,
      "ĠMon": 4574,
      "ĠMar": 4575,
      "Ġdispl": 4576,
      "Ġhear": 4577,
      "ĠWho": 4578,
      "Ġrecognizing": 4579,
      "Ġselecting": 4580,
      "known": 4581,
      "Ġprotein": 4582,
      "Ġsubsequent": 4583,
      "Ġice": 4584,
      "enn": 4585,
      "Ġsessions": 4586,
      "osition": 4587,
      "otal": 4588,
      "ĠEast": 4589,
      "Ġanyone": 4590,
      "ĠMaybe": 4591,
      "Ġinspired": 4592,
      "Ġfemale": 4593,
      "Ġwisdom": 4594,
      "rogen": 4595,
      "aph": 4596,
      "Ġseam": 4597,
      "ourt": 4598,
      "Ġroll": 4599,
      "Ġsets": 4600,
      "Ġremained": 4601,
      "Ġmetal": 4602,
      "ĠDesign": 4603,
      "==": 4604,
      "wise": 4605,
      "asp": 4606,
      "Ġsea": 4607,
      "Ġstructured": 4608,
      "ĠExamples": 4609,
      "airs": 4610,
      "Ġlanguages": 4611,
      "Ġpainting": 4612,
      "ĠQu": 4613,
      "ĠSupp": 4614,
      "dit": 4615,
      "dis": 4616,
      "Ġath": 4617,
      "Ġ100": 4618,
      "Ġeveryday": 4619,
      "Ġelement": 4620,
      "Ġinspiration": 4621,
      "15": 4622,
      "can": 4623,
      "Ġstands": 4624,
      "ĠMr": 4625,
      "ĠFe": 4626,
      "Ġnote": 4627,
      "Ġmaintenance": 4628,
      "Ġregardless": 4629,
      "Ġcutting": 4630,
      "Ġcompassion": 4631,
      "Ġconsidering": 4632,
      "water": 4633,
      "Ġpul": 4634,
      "Ġmig": 4635,
      "Ġhors": 4636,
      "omfort": 4637,
      "Ġlast": 4638,
      "ives": 4639,
      "Ġaddition": 4640,
      "Ġnearly": 4641,
      "aching": 4642,
      "Ġsites": 4643,
      "poses": 4644,
      "Ġscholars": 4645,
      "atically": 4646,
      "right": 4647,
      "etry": 4648,
      "Ġstake": 4649,
      "Ġinteresting": 4650,
      "Ġcold": 4651,
      "Ġcenturies": 4652,
      "There": 4653,
      "Ġeducators": 4654,
      "Ġachieved": 4655,
      "Ġexplained": 4656,
      "Ġseparate": 4657,
      "Ġimmediate": 4658,
      "Ġmutual": 4659,
      "Ġmarginal": 4660,
      "Ġsac": 4661,
      "Ġnation": 4662,
      "Ġnuc": 4663,
      "Ġranging": 4664,
      "Ġforeign": 4665,
      "Ġleaves": 4666,
      "ĠUse": 4667,
      "Ġcreates": 4668,
      "Ġideal": 4669,
      "Ġshifts": 4670,
      "Ġwrite": 4671,
      "Ġur": 4672,
      "Ġmale": 4673,
      "ĠAlice": 4674,
      "ĠPr": 4675,
      "order": 4676,
      "Ġserved": 4677,
      "Ġbran": 4678,
      "Ġliqu": 4679,
      "Ġparties": 4680,
      "ĠGo": 4681,
      "Ġtraffic": 4682,
      "Ġharmful": 4683,
      "Ġimplementation": 4684,
      "Ġfailure": 4685,
      "Ġnorms": 4686,
      "Ġexhibit": 4687,
      "Ġcircumst": 4688,
      "It": 4689,
      "Key": 4690,
      "inks": 4691,
      "Ġtiny": 4692,
      "Ġslight": 4693,
      "Ġcompelling": 4694,
      "ĠDon": 4695,
      "ĠRel": 4696,
      "Ġcreatures": 4697,
      "Ġroots": 4698,
      "Ġreduction": 4699,
      "ĠSometimes": 4700,
      "Ġlabel": 4701,
      "Ġcaptivating": 4702,
      "Ġinterconnected": 4703,
      "ients": 4704,
      "lies": 4705,
      "uk": 4706,
      "eline": 4707,
      "ĠInc": 4708,
      "ails": 4709,
      "Ġhistor": 4710,
      "Ġadded": 4711,
      "Ġpurposes": 4712,
      "Ġexcell": 4713,
      "Ġkeeping": 4714,
      "Ġbeginning": 4715,
      "Ġhabits": 4716,
      "Ġinspire": 4717,
      "Ġthreats": 4718,
      "anning": 4719,
      "udes": 4720,
      "ĠMus": 4721,
      "oretical": 4722,
      "ĠGe": 4723,
      "Ġoverl": 4724,
      "Ġpredict": 4725,
      "Ġreligion": 4726,
      "Ġpersistent": 4727,
      "Ġarticle": 4728,
      "Ġexcessive": 4729,
      "Ġscenarios": 4730,
      "erge": 4731,
      "Ġfellow": 4732,
      "Ġhomes": 4733,
      "Ġgir": 4734,
      "ĠSet": 4735,
      "fulness": 4736,
      "Ġmarketing": 4737,
      "Ġencouraging": 4738,
      "Ġsuggesting": 4739,
      "Ġexpressions": 4740,
      "Ġremarkable": 4741,
      "Ġsav": 4742,
      "enth": 4743,
      "Ġtranspar": 4744,
      "Ġmarkets": 4745,
      "Ġpatience": 4746,
      "Ġcomposition": 4747,
      "Ġhun": 4748,
      "ĠFam": 4749,
      "ĠNe": 4750,
      "Ġcorpor": 4751,
      "Ġauthority": 4752,
      "Ġprepared": 4753,
      "tors": 4754,
      "ĠChar": 4755,
      "Ġsubject": 4756,
      "Ġgetting": 4757,
      "However": 4758,
      "Ġsusp": 4759,
      "lim": 4760,
      "tile": 4761,
      "Ġtherm": 4762,
      "ĠBen": 4763,
      "ressing": 4764,
      "Ġwasn": 4765,
      "Ġextract": 4766,
      "ĠAdd": 4767,
      "Ġchoice": 4768,
      "whel": 4769,
      "Ġthousands": 4770,
      "OS": 4771,
      "uit": 4772,
      "Ġmiss": 4773,
      "Ġbul": 4774,
      "Ġhol": 4775,
      "eter": 4776,
      "Ġpros": 4777,
      "ĠFin": 4778,
      "Ġkids": 4779,
      "Ġhumanity": 4780,
      "Ġfosters": 4781,
      "Ġdemonstrating": 4782,
      "Example": 4783,
      "Ġmobile": 4784,
      "ĠAustral": 4785,
      "Ġdiscrimination": 4786,
      "rist": 4787,
      "ĠTe": 4788,
      "ticism": 4789,
      "ĠDef": 4790,
      "Ġobst": 4791,
      "Ġcontributed": 4792,
      "Ġattemp": 4793,
      "Ġmatters": 4794,
      "Ġgiving": 4795,
      "Ġcloser": 4796,
      "ription": 4797,
      "oint": 4798,
      "Ġthird": 4799,
      "Ġcou": 4800,
      "ĠMin": 4801,
      "Ġamount": 4802,
      "Ġspeech": 4803,
      "Ġlistening": 4804,
      "Ġeventually": 4805,
      "alysis": 4806,
      "Ġmist": 4807,
      "Ġprop": 4808,
      "umn": 4809,
      "Ġsaw": 4810,
      "Ġconcer": 4811,
      "Ġefficiently": 4812,
      "Ġnearby": 4813,
      "Ġpreparation": 4814,
      "Ġsolely": 4815,
      "Ġ/": 4816,
      "ederal": 4817,
      "urch": 4818,
      "osen": 4819,
      "Ġsupply": 4820,
      "Ġprotoc": 4821,
      "Ġaims": 4822,
      "ĠCommon": 4823,
      "Ġdelivery": 4824,
      "nic": 4825,
      "Ġhorm": 4826,
      "Ġconscious": 4827,
      "Ġsoon": 4828,
      "Ġinitially": 4829,
      "Ġsuccessfully": 4830,
      "Ġcycle": 4831,
      "Ġrevealed": 4832,
      ".âĢĿ": 4833,
      "Ġsudden": 4834,
      "Ġquanti": 4835,
      "taining": 4836,
      "Ġreflection": 4837,
      "Ġbirth": 4838,
      "Ġtransportation": 4839,
      "Ġcircumstances": 4840,
      "aming": 4841,
      "Ġtraum": 4842,
      "Ġsimpl": 4843,
      "Ġdistance": 4844,
      "Ġextended": 4845,
      "Ġcurric": 4846,
      "Ġecological": 4847,
      "Ġrelevance": 4848,
      "Ġolder": 4849,
      "Ġindependent": 4850,
      "Ġrule": 4851,
      "Ġextensive": 4852,
      "Ġparticipate": 4853,
      "Ġcomputers": 4854,
      "Ġexercises": 4855,
      "Here": 4856,
      "unction": 4857,
      "------------": 4858,
      "Ġserious": 4859,
      "Ġgenu": 4860,
      "egu": 4861,
      "Ġproduced": 4862,
      "Ġbelow": 4863,
      "Ġsensitive": 4864,
      "ascular": 4865,
      "Ġoccup": 4866,
      "Ġhappened": 4867,
      "Ġvirus": 4868,
      "Ġcommercial": 4869,
      "Ġtension": 4870,
      "ley": 4871,
      "Ġintrig": 4872,
      "Ġinclusive": 4873,
      "venile": 4874,
      "Ġpracticing": 4875,
      "Ġartificial": 4876,
      "Ġobjectives": 4877,
      "Ġcardi": 4878,
      "rees": 4879,
      "icit": 4880,
      "Ġsystemic": 4881,
      "Ġworkers": 4882,
      "Ġorganiz": 4883,
      "Ġminimizing": 4884,
      "scale": 4885,
      "Ġseamless": 4886,
      "ctive": 4887,
      "iant": 4888,
      "uge": 4889,
      "ams": 4890,
      "Ġexperts": 4891,
      "Ġinternet": 4892,
      "Ġstrengthen": 4893,
      "Ġcontains": 4894,
      "Ġappeal": 4895,
      "Ġdimensions": 4896,
      "Ġfluid": 4897,
      "Ġextreme": 4898,
      "Ġbarriers": 4899,
      "coming": 4900,
      "Ġ[": 4901,
      "Ġthick": 4902,
      "Ġasking": 4903,
      "Ġusage": 4904,
      "itively": 4905,
      "aches": 4906,
      "Ġtruth": 4907,
      "Ġconservation": 4908,
      "Ġtradition": 4909,
      "Ġnoise": 4910,
      "ĠProg": 4911,
      "30": 4912,
      "60": 4913,
      "Ġtheoretical": 4914,
      "Ġexcep": 4915,
      "Ġapplying": 4916,
      "ordinary": 4917,
      "Ġvariables": 4918,
      "Ġgeneration": 4919,
      "Once": 4920,
      "Ġrooted": 4921,
      "Ġcities": 4922,
      "rep": 4923,
      "Ġdivid": 4924,
      "Ġmal": 4925,
      "omed": 4926,
      "theless": 4927,
      "iven": 4928,
      "Ġassistance": 4929,
      "Ġaccum": 4930,
      "Ġoption": 4931,
      "Ġobstac": 4932,
      "py": 4933,
      "Ġaverage": 4934,
      "Ġlost": 4935,
      "iled": 4936,
      "Ġconvey": 4937,
      "Ġexcl": 4938,
      "ĠFrench": 4939,
      "ĠData": 4940,
      "ĠUp": 4941,
      "Ġnotes": 4942,
      "Ġesc": 4943,
      "ĠBlack": 4944,
      "Ġdietary": 4945,
      "titioners": 4946,
      "house": 4947,
      "Ġactively": 4948,
      "ĠUltimately": 4949,
      "Ġagg": 4950,
      "Ġdecades": 4951,
      "Ġdepression": 4952,
      "Ġmyster": 4953,
      "Ġavailability": 4954,
      "Ġreference": 4955,
      "Ġsurvival": 4956,
      "Ġcommunicate": 4957,
      "We": 4958,
      "och": 4959,
      "stood": 4960,
      "Ġnative": 4961,
      "Ġrace": 4962,
      "Ġmeals": 4963,
      "Ġmotion": 4964,
      "Ġdecl": 4965,
      "Ġallowed": 4966,
      "Ġcris": 4967,
      "Ġnaturally": 4968,
      "Ġteacher": 4969,
      "Ġlinear": 4970,
      "Ġflexibility": 4971,
      "Ġproposed": 4972,
      "Ġecosystems": 4973,
      "ĠGreek": 4974,
      "inese": 4975,
      "Ġmission": 4976,
      "Ġlens": 4977,
      "Ġgold": 4978,
      "antum": 4979,
      "Ġnotic": 4980,
      "Ġengaged": 4981,
      "Ġbuy": 4982,
      "ĠProt": 4983,
      "Ġmagical": 4984,
      ",âĢĿ": 4985,
      "Ġdispar": 4986,
      "Ġmanif": 4987,
      "Ġmanaged": 4988,
      "Ġpoor": 4989,
      "Ġearth": 4990,
      "Ġdriving": 4991,
      "Ġvolume": 4992,
      "Ġseemingly": 4993,
      "Ġsequence": 4994,
      "Ġwebsite": 4995,
      "GBT": 4996,
      "Ġtaste": 4997,
      "Ġovers": 4998,
      "Ġmul": 4999,
      "Ġoffered": 5000,
      "Ġconsiderations": 5001,
      "Ġsafegu": 5002,
      "Ġartist": 5003,
      "Ġrevolution": 5004,
      "Lesson": 5005,
      "mic": 5006,
      "tes": 5007,
      "erve": 5008,
      "Ġbrought": 5009,
      "anges": 5010,
      "Ġadvancing": 5011,
      "These": 5012,
      "Ġdriven": 5013,
      "Ġcustomer": 5014,
      "Ġfabric": 5015,
      "na": 5016,
      "Ġax": 5017,
      "Ġsample": 5018,
      "Ġaspir": 5019,
      "Ġregulatory": 5020,
      "Ġoutd": 5021,
      "Ġnews": 5022,
      "ĠManagement": 5023,
      "aught": 5024,
      "Ġextraordinary": 5025,
      "Ġintroduce": 5026,
      "dim": 5027,
      "Ġhosp": 5028,
      "asive": 5029,
      "eted": 5030,
      "Ġclo": 5031,
      "ĠGl": 5032,
      "Ġfeels": 5033,
      "Ġwhenever": 5034,
      "Ġcoast": 5035,
      "mitted": 5036,
      "...": 5037,
      "ĠHistorical": 5038,
      "Ġpicture": 5039,
      "Ġarchitecture": 5040,
      "Ġshown": 5041,
      "Ġweb": 5042,
      "Ġvariations": 5043,
      "Ġentertain": 5044,
      "prise": 5045,
      "Ġmachines": 5046,
      "PA": 5047,
      "gn": 5048,
      "Ġmaster": 5049,
      "Ġstem": 5050,
      "Ġresol": 5051,
      "Ġplaced": 5052,
      "ectors": 5053,
      "Ġinsurance": 5054,
      "Ġpromp": 5055,
      "Ġlocations": 5056,
      "Ġcomplexities": 5057,
      "Ġfollows": 5058,
      "Ġnecessit": 5059,
      "Ġstruggle": 5060,
      "Ġcultivate": 5061,
      "Ġbonds": 5062,
      "Ġknew": 5063,
      "Throughout": 5064,
      "rid": 5065,
      "uff": 5066,
      "level": 5067,
      "Ġforest": 5068,
      "agon": 5069,
      "riend": 5070,
      "ĠMid": 5071,
      "Ġturned": 5072,
      "Ġuncover": 5073,
      "Ġteams": 5074,
      "Ġeasier": 5075,
      "Ġprogramming": 5076,
      "Ġtrigg": 5077,
      "Ġperceived": 5078,
      "Ġpiv": 5079,
      "Ġwit": 5080,
      "idents": 5081,
      "rative": 5082,
      "Ġvit": 5083,
      "Ġvent": 5084,
      "ĠHar": 5085,
      "ĠRed": 5086,
      "Ġrecon": 5087,
      "Ġforming": 5088,
      "Ġshowed": 5089,
      "Ġtargeted": 5090,
      "Ġfunctionality": 5091,
      "mer": 5092,
      "oe": 5093,
      "tra": 5094,
      "uis": 5095,
      "Ġic": 5096,
      "ĠFinally": 5097,
      "Ġtransmission": 5098,
      "Ġgenerated": 5099,
      "ĠArt": 5100,
      "ĠAfrica": 5101,
      "ĠEducation": 5102,
      "son": 5103,
      "uary": 5104,
      "Ġdou": 5105,
      "Ġresolution": 5106,
      "Ġadult": 5107,
      "Ġexplo": 5108,
      "ĠChinese": 5109,
      "Ġcoop": 5110,
      "Ġpossibilities": 5111,
      "Ġversion": 5112,
      "Ġstakeholders": 5113,
      "mark": 5114,
      "Ġstages": 5115,
      "Ġclients": 5116,
      "Ġoverwhel": 5117,
      "Ġmedium": 5118,
      "Ġpolitics": 5119,
      "Ġbalanced": 5120,
      "Ġpreserve": 5121,
      "Ġstruggles": 5122,
      "ĠTherefore": 5123,
      "Ġinterpretation": 5124,
      "Ġalgorithms": 5125,
      "17": 5126,
      "Ġeating": 5127,
      "Ġsugar": 5128,
      "Ġcenters": 5129,
      "Ġlegacy": 5130,
      "fford": 5131,
      "Ġconsistency": 5132,
      "Ġcollaborative": 5133,
      "flow": 5134,
      "Ġthus": 5135,
      "ĠCoun": 5136,
      "Ġbrings": 5137,
      "Ġclearly": 5138,
      "Ġgrasp": 5139,
      "Ġ11": 5140,
      "ibl": 5141,
      "Ġinteract": 5142,
      "Ġvariety": 5143,
      "ĠAmericans": 5144,
      "Ġparticipation": 5145,
      "Ġimplementing": 5146,
      "Ġroutine": 5147,
      "Ġinstruction": 5148,
      "Ġunderscores": 5149,
      "Ġexpansion": 5150,
      "SD": 5151,
      "aur": 5152,
      "Ġdur": 5153,
      "ĠCO": 5154,
      "Ġanything": 5155,
      "Ġinjury": 5156,
      "Ġcontrolled": 5157,
      "Ġmathematical": 5158,
      "otypes": 5159,
      "cest": 5160,
      "coh": 5161,
      "aters": 5162,
      "Ġwave": 5163,
      "ara": 5164,
      "rab": 5165,
      "Ġunits": 5166,
      "lection": 5167,
      "ifications": 5168,
      "ĠProf": 5169,
      "Ġexcit": 5170,
      "ĠEmp": 5171,
      "Ġantib": 5172,
      "Ġatmosphere": 5173,
      "Ġconcerning": 5174,
      "ygen": 5175,
      "Ġpun": 5176,
      "ament": 5177,
      "ĠEvery": 5178,
      "Ġattit": 5179,
      "Ġdishes": 5180,
      "ĠJour": 5181,
      "Ġscale": 5182,
      "Ġ198": 5183,
      "Ġimprovements": 5184,
      "Ġerror": 5185,
      "Ġgovernments": 5186,
      "Ġcomputing": 5187,
      "Ġlifest": 5188,
      "ĠExploring": 5189,
      "discipl": 5190,
      "Ġtests": 5191,
      "Ġrain": 5192,
      "Ġstere": 5193,
      "ĠPower": 5194,
      "Ġbox": 5195,
      "Ġblue": 5196,
      "Ġdocuments": 5197,
      "Ġpivotal": 5198,
      "off": 5199,
      "rate": 5200,
      "Ġdance": 5201,
      "urd": 5202,
      "osed": 5203,
      "ĠRef": 5204,
      "Ġworth": 5205,
      "Ġjoy": 5206,
      "artment": 5207,
      "Ġbeneficial": 5208,
      "Ġdemonstrates": 5209,
      "Ġexistence": 5210,
      "Ġcapture": 5211,
      "Ġvehicles": 5212,
      "Ġparameters": 5213,
      "âĪ": 5214,
      "Ġmir": 5215,
      "ĠThen": 5216,
      "Ġmeeting": 5217,
      "Ġtraits": 5218,
      "Ġphone": 5219,
      "Ġsolar": 5220,
      "Ġattach": 5221,
      "Ġbrid": 5222,
      "Ġcountless": 5223,
      "Ġprecision": 5224,
      "Ġprivacy": 5225,
      "Ġmaximum": 5226,
      "Ġgradually": 5227,
      "ky": 5228,
      "Ġahead": 5229,
      "isl": 5230,
      "iment": 5231,
      "Ġgenre": 5232,
      "Ġaccomp": 5233,
      "Ġinstances": 5234,
      "Ġflavor": 5235,
      "Ġconnecting": 5236,
      "Ġhandle": 5237,
      "Ġrepresenting": 5238,
      "Why": 5239,
      "Ġnovels": 5240,
      "Ġheavy": 5241,
      "Ġviolence": 5242,
      "Ġnoticed": 5243,
      "ndrome": 5244,
      "Ġmel": 5245,
      "omy": 5246,
      "Ġlingu": 5247,
      "Ġgently": 5248,
      "Ġgets": 5249,
      "ĠSw": 5250,
      "place": 5251,
      "ells": 5252,
      "astly": 5253,
      "Ġperception": 5254,
      "ĠStep": 5255,
      "Ġpractitioners": 5256,
      "Ġclassroom": 5257,
      "Ġqualities": 5258,
      "Ġcamer": 5259,
      "AC": 5260,
      "Ġtum": 5261,
      "Ġsem": 5262,
      "Ġegg": 5263,
      "Ġreactions": 5264,
      "Ġrare": 5265,
      "Ġlever": 5266,
      "Ġadequ": 5267,
      "Ġcollect": 5268,
      "Ġopening": 5269,
      "Ġconsideration": 5270,
      "Ġindustries": 5271,
      "Ġreturns": 5272,
      "iology": 5273,
      "Ġbow": 5274,
      "urr": 5275,
      "Ġacts": 5276,
      "ĠLily": 5277,
      "ĠConn": 5278,
      "ĠExper": 5279,
      "Ġmemories": 5280,
      "Ġmatrix": 5281,
      "Ġwriters": 5282,
      "Ġpressing": 5283,
      "Ġpreventing": 5284,
      "Ġregularly": 5285,
      "ĠModern": 5286,
      "))": 5287,
      "ipp": 5288,
      "ners": 5289,
      "state": 5290,
      "ĠAre": 5291,
      "Ġanticip": 5292,
      "Ġche": 5293,
      "Ġintense": 5294,
      "ĠGreat": 5295,
      "Ġreput": 5296,
      "Ġscreen": 5297,
      "Ġnotice": 5298,
      "Ġsecre": 5299,
      "Ġpassed": 5300,
      "Ġorigins": 5301,
      "eanwhile": 5302,
      "ĠRegular": 5303,
      "()`": 5304,
      "PS": 5305,
      "Ġdram": 5306,
      "Ġmember": 5307,
      "Ġchosen": 5308,
      "ums": 5309,
      "Ġprice": 5310,
      "Ġliver": 5311,
      "ologists": 5312,
      "Ġorganic": 5313,
      "rupt": 5314,
      "ĠAnother": 5315,
      "Ġbeneath": 5316,
      "Ġcombination": 5317,
      "Ġelectrical": 5318,
      "Ġeconomy": 5319,
      "Ġorigin": 5320,
      "Ġencouraged": 5321,
      "Ġabsorb": 5322,
      "oly": 5323,
      "ycl": 5324,
      "till": 5325,
      "Ġvacc": 5326,
      "istry": 5327,
      "Ġvariable": 5328,
      "Ġdecre": 5329,
      "ĠKing": 5330,
      "ommod": 5331,
      "Ġ40": 5332,
      "ĠRev": 5333,
      "Ġtherap": 5334,
      "Ġappears": 5335,
      "Ġlisten": 5336,
      "Ġinvestigation": 5337,
      "Ġvarying": 5338,
      "aid": 5339,
      "gi": 5340,
      "ption": 5341,
      "Ġske": 5342,
      "Ġreasons": 5343,
      "Ġdeploy": 5344,
      "anted": 5345,
      "Ġlooked": 5346,
      "Ġwaves": 5347,
      "Ġrhyth": 5348,
      "Ġracial": 5349,
      "ĠCanada": 5350,
      "Ġwent": 5351,
      "Ġmouth": 5352,
      "plt": 5353,
      "ivity": 5354,
      "onged": 5355,
      "Ġ25": 5356,
      "Ġexplicit": 5357,
      "Ġworked": 5358,
      "Ġbuildings": 5359,
      "ĠIndian": 5360,
      "ensional": 5361,
      "Ġimplemented": 5362,
      "Ġvoices": 5363,
      "book": 5364,
      "hand": 5365,
      "Ġsand": 5366,
      "ĠWestern": 5367,
      "ĠLife": 5368,
      "Ġunderstood": 5369,
      "Ġformed": 5370,
      "Ġsubjects": 5371,
      "Ġinteractive": 5372,
      "Ġmechanism": 5373,
      "Ġembed": 5374,
      "Ġculinary": 5375,
      "Ġjoin": 5376,
      "Ġlikelihood": 5377,
      "Ġhoriz": 5378,
      "Ġexceptional": 5379,
      "Ġfaster": 5380,
      "Ġregulation": 5381,
      "Ġprotective": 5382,
      "Ġtopic": 5383,
      "Ġmixed": 5384,
      "Ġphenomenon": 5385,
      "Ġrigorous": 5386,
      "Ġmoisture": 5387,
      "Ġthing": 5388,
      "Ġtox": 5389,
      "roph": 5390,
      "Ġalloc": 5391,
      "Ġinfections": 5392,
      "Ġdistingu": 5393,
      "Ġprotecting": 5394,
      "raints": 5395,
      "Ġdiscovery": 5396,
      "Ġfiles": 5397,
      "Ġpreparing": 5398,
      "AT": 5399,
      "itual": 5400,
      "Ġfirm": 5401,
      "Ġincome": 5402,
      "Ġseeds": 5403,
      "ĠLeg": 5404,
      "Ġrot": 5405,
      "Ġexplores": 5406,
      "ĠCho": 5407,
      "Ġopin": 5408,
      "Ġalternatives": 5409,
      "Ġsurfaces": 5410,
      "Ġcustomers": 5411,
      "ĠSocial": 5412,
      "And": 5413,
      "Ġple": 5414,
      "Ġlic": 5415,
      "ĠAng": 5416,
      "ĠSub": 5417,
      "Ġyouth": 5418,
      "ĠBar": 5419,
      "Ġparalle": 5420,
      "Ġrock": 5421,
      "Ġscript": 5422,
      "Ġremaining": 5423,
      "Ġdrawn": 5424,
      "Ġwait": 5425,
      "Ġstaying": 5426,
      "ĠTimmy": 5427,
      "Ġclarity": 5428,
      "ux": 5429,
      "Ġi": 5430,
      "Ġtour": 5431,
      "erative": 5432,
      "Ġmot": 5433,
      "Ġbott": 5434,
      "ask": 5435,
      "Ġul": 5436,
      "Ġstre": 5437,
      "Ġstop": 5438,
      "ratic": 5439,
      "Ġancest": 5440,
      "Ġarise": 5441,
      "Ġdesigning": 5442,
      "herence": 5443,
      "Ġtexture": 5444,
      "Ġphenomena": 5445,
      "Ġuncertainty": 5446,
      "ĠInternational": 5447,
      "Ġobstacles": 5448,
      "des": 5449,
      "Ġspl": 5450,
      "Ġoral": 5451,
      "ĠPol": 5452,
      "fici": 5453,
      "Ġflat": 5454,
      "Ġelectronic": 5455,
      "Ġbegins": 5456,
      "Ġmechanical": 5457,
      "Ġsymbols": 5458,
      "Ġhousehold": 5459,
      "ĠIdentif": 5460,
      "Ġprinciple": 5461,
      "Ġslightly": 5462,
      "Ġstrict": 5463,
      "Ġparticles": 5464,
      "Ġpositively": 5465,
      "Ġgrand": 5466,
      "Ġcorrel": 5467,
      "Ġ197": 5468,
      "Ġshowing": 5469,
      "Ġmagic": 5470,
      "Ġdetermination": 5471,
      "ĠApplic": 5472,
      "Ġmonitor": 5473,
      "load": 5474,
      "Ġchannels": 5475,
      "__": 5476,
      "down": 5477,
      "rum": 5478,
      "Ġsat": 5479,
      "Ġneural": 5480,
      "ĠRoman": 5481,
      "Ġparty": 5482,
      "Ġequipped": 5483,
      "pred": 5484,
      "Ġtales": 5485,
      "ĠScience": 5486,
      "Ġexcitement": 5487,
      "leg": 5488,
      "agers": 5489,
      "ĠSur": 5490,
      "Ġarts": 5491,
      "Ġ24": 5492,
      "Ġinfection": 5493,
      "Ġcriter": 5494,
      "Ġestablishing": 5495,
      "ĠReal": 5496,
      "Ġemphasize": 5497,
      "Ġconduct": 5498,
      "Ġconsumer": 5499,
      "Ġreliability": 5500,
      "Ġbirds": 5501,
      "Ġheavily": 5502,
      "Ġpuzz": 5503,
      "GBTQ": 5504,
      "Ġtrend": 5505,
      "ounting": 5506,
      "ĠChrist": 5507,
      "Ġagents": 5508,
      "ashion": 5509,
      "Ġgoods": 5510,
      "Ġhyper": 5511,
      "Ġdegrees": 5512,
      "Ġmanufacturing": 5513,
      "Ġvehicle": 5514,
      "Ġdelicious": 5515,
      "EM": 5516,
      "Ġ#": 5517,
      "asy": 5518,
      "ĠThus": 5519,
      "ocking": 5520,
      "Ġquite": 5521,
      "Ġvisible": 5522,
      "Ġdepends": 5523,
      "Ġradiation": 5524,
      "Ġsummary": 5525,
      "ĠInstit": 5526,
      ".'": 5527,
      "friend": 5528,
      "rops": 5529,
      "Ġnames": 5530,
      "Ġliber": 5531,
      "exic": 5532,
      "Ġremove": 5533,
      "neys": 5534,
      "ype": 5535,
      "Ġamounts": 5536,
      "Ġletter": 5537,
      "Ġsolve": 5538,
      "Ġmyth": 5539,
      "ceptions": 5540,
      "Ġsustained": 5541,
      "Ġerrors": 5542,
      "ĠOrgan": 5543,
      "Ġconversation": 5544,
      "ĠStudents": 5545,
      "Ġcomfortable": 5546,
      "def": 5547,
      "Ġtub": 5548,
      "tious": 5549,
      "Ġmort": 5550,
      "Ġmountain": 5551,
      "Ġwhe": 5552,
      "key": 5553,
      "Ġunderm": 5554,
      "Ġaccommod": 5555,
      "Ġequality": 5556,
      "ĠEnviron": 5557,
      "Ġselected": 5558,
      "Ġsales": 5559,
      "Ġsunlight": 5560,
      "Ġdebates": 5561,
      "Ġdatab": 5562,
      "Ġfruits": 5563,
      "Ġvegetables": 5564,
      "Ġorganizational": 5565,
      "Next": 5566,
      "opping": 5567,
      "Ġpage": 5568,
      "Ġspent": 5569,
      "Ġperhaps": 5570,
      "Ġtrain": 5571,
      "ulties": 5572,
      "Ġcentered": 5573,
      "Ġemployees": 5574,
      "Ġwaiting": 5575,
      "Ġconstraints": 5576,
      "Ġbackgrounds": 5577,
      "Ġproteins": 5578,
      "Ġcategories": 5579,
      "Ġoxygen": 5580,
      "Ġpartnership": 5581,
      "ĠTwo": 5582,
      "With": 5583,
      "dri": 5584,
      "Ġafford": 5585,
      "itor": 5586,
      "Ġfr": 5587,
      "Ġlat": 5588,
      "Ġstaff": 5589,
      "ags": 5590,
      "Ġselect": 5591,
      "Ġwhereas": 5592,
      "Ġdelves": 5593,
      "Ġdemoc": 5594,
      "Ġpreval": 5595,
      "Ġaffects": 5596,
      "Ġlimits": 5597,
      "ĠImp": 5598,
      "Ġpromotes": 5599,
      "Ġinnovations": 5600,
      "Ġhimself": 5601,
      "Ġethnic": 5602,
      "Ġevolved": 5603,
      "ipping": 5604,
      "lands": 5605,
      "Ġpand": 5606,
      "Ġmood": 5607,
      "Ġbit": 5608,
      "igure": 5609,
      "Ġintensity": 5610,
      "ĠMedic": 5611,
      "ĠDNA": 5612,
      "Ġwealth": 5613,
      "Ġpregn": 5614,
      "Ġscr": 5615,
      "Ġdetect": 5616,
      "cont": 5617,
      "Ġbreast": 5618,
      "Ġimmig": 5619,
      "arsh": 5620,
      "Ġdirection": 5621,
      "Ġstanding": 5622,
      "Ġgeomet": 5623,
      "Ġmedications": 5624,
      "Ġcompetition": 5625,
      "cohol": 5626,
      "11": 5627,
      "ville": 5628,
      "edge": 5629,
      "Ġwon": 5630,
      "Ġvess": 5631,
      "ĠPri": 5632,
      "Ġwear": 5633,
      "Ġparent": 5634,
      "inding": 5635,
      "Ġsubtle": 5636,
      "Ġlesson": 5637,
      "Ġminds": 5638,
      "Ġabsence": 5639,
      "Ġentirely": 5640,
      "Ġinflammation": 5641,
      "ER": 5642,
      "Ġsought": 5643,
      "Ġbrief": 5644,
      "rog": 5645,
      "Ġstable": 5646,
      "ĠSol": 5647,
      "Ġhumor": 5648,
      "Ġdepic": 5649,
      "ierarch": 5650,
      "board": 5651,
      "Ġphilosophy": 5652,
      "ĠJewish": 5653,
      "Ġaccompan": 5654,
      "Ġtac": 5655,
      "ulum": 5656,
      "Ġvill": 5657,
      "Ġleave": 5658,
      "itis": 5659,
      "Ġphr": 5660,
      "Ġaccel": 5661,
      "Ġsensitivity": 5662,
      "Ġcritically": 5663,
      "Ġmatch": 5664,
      "Ġspeak": 5665,
      "Ġmagnetic": 5666,
      "Ġadventures": 5667,
      "forcement": 5668,
      "uisine": 5669,
      "AR": 5670,
      "fit": 5671,
      "Ġpip": 5672,
      "Ġded": 5673,
      "Ġraw": 5674,
      "Ġcomplic": 5675,
      "Ġunw": 5676,
      "Ġunity": 5677,
      "Ġboard": 5678,
      "Ġquantum": 5679,
      "Ġampl": 5680,
      "Ġscre": 5681,
      "Ġobtain": 5682,
      "ographical": 5683,
      "tism": 5684,
      "Ġdisorder": 5685,
      "Ġclaims": 5686,
      "Ġsharp": 5687,
      "Ġgarden": 5688,
      "Ġcurrently": 5689,
      "Ġliquid": 5690,
      "?**": 5691,
      "attle": 5692,
      "Ġnurt": 5693,
      "ĠCare": 5694,
      "Ġcompet": 5695,
      "Ġplastic": 5696,
      "ested": 5697,
      "Ġemail": 5698,
      "ĠLGBTQ": 5699,
      "Ġinven": 5700,
      "Ġsurve": 5701,
      "Ġinitiative": 5702,
      "Ġcleaning": 5703,
      "cluding": 5704,
      "Ġagricultural": 5705,
      "disciplinary": 5706,
      "Ġfront": 5707,
      "Ġmap": 5708,
      "entle": 5709,
      "Ġgot": 5710,
      "ĠOf": 5711,
      "Ġkn": 5712,
      "Ġ202": 5713,
      "ĠConclusion": 5714,
      "Ġdistinctive": 5715,
      "Ġcoverage": 5716,
      "Ġimmediately": 5717,
      "Ġmerely": 5718,
      "ollowing": 5719,
      "Is": 5720,
      "ball": 5721,
      "Ġpages": 5722,
      "ana": 5723,
      "Ġtom": 5724,
      "Ġgast": 5725,
      "vertis": 5726,
      "Ġalthough": 5727,
      "illed": 5728,
      "ĠDel": 5729,
      "ĠJam": 5730,
      "Ġadvances": 5731,
      "Ġdecline": 5732,
      "Ġgrapp": 5733,
      "Ġperforming": 5734,
      "Ġfulf": 5735,
      "Ġcustoms": 5736,
      "point": 5737,
      "Ġfruit": 5738,
      "Ġnuanced": 5739,
      "14": 5740,
      "Ġdental": 5741,
      "Ġmys": 5742,
      "lements": 5743,
      "ĠCurrent": 5744,
      "quir": 5745,
      "ibly": 5746,
      "Ġcloud": 5747,
      "Ġcommand": 5748,
      "Ġconfid": 5749,
      "Ġemphasized": 5750,
      "goti": 5751,
      "Ġstrengths": 5752,
      "Ġcraft": 5753,
      "Ġmillions": 5754,
      "Ġpictures": 5755,
      "Ġfertil": 5756,
      "AP": 5757,
      "mod": 5758,
      "Ġintim": 5759,
      "Ġbed": 5760,
      "ĠCor": 5761,
      "umes": 5762,
      "ĠFl": 5763,
      "Ġexplan": 5764,
      "Ġidentification": 5765,
      "Ġextend": 5766,
      "ĠVis": 5767,
      "Ġpersonalized": 5768,
      "Ġimmun": 5769,
      "Ġtalking": 5770,
      "Ġpsychology": 5771,
      "Ġwalking": 5772,
      "ĠSchool": 5773,
      "ĠStrateg": 5774,
      "Ġconfiguration": 5775,
      "Ġtouch": 5776,
      "dimensional": 5777,
      "bl": 5778,
      "Ġpowers": 5779,
      "step": 5780,
      "ĠMexic": 5781,
      "ĠEd": 5782,
      "Ġadvice": 5783,
      "Ġproducing": 5784,
      "Ġoperate": 5785,
      "Ġhappen": 5786,
      "Ġdrive": 5787,
      "Ġentities": 5788,
      "Ġconsumers": 5789,
      "Ġaccordingly": 5790,
      "Ġprepare": 5791,
      "Ġmiddle": 5792,
      "ĠSecond": 5793,
      "Ġrepeated": 5794,
      "Ġgenuine": 5795,
      "Ġclothing": 5796,
      "Remember": 5797,
      "Ġsamples": 5798,
      "Ġinhab": 5799,
      "Ġrati": 5800,
      "ĠAv": 5801,
      "abet": 5802,
      "unning": 5803,
      "Ġdifferently": 5804,
      "Ġpromising": 5805,
      "Ġedge": 5806,
      "Ġmusical": 5807,
      "Ġdetermined": 5808,
      "Ġphotograph": 5809,
      "Ġgraphic": 5810,
      "Ġbacteria": 5811,
      "Ġattitudes": 5812,
      "lam": 5813,
      "rations": 5814,
      "ĠÎ": 5815,
      "Ġball": 5816,
      "roc": 5817,
      "Ġren": 5818,
      "ĠAct": 5819,
      "ĠSam": 5820,
      "Ġmother": 5821,
      "oyal": 5822,
      "Ġbright": 5823,
      "Ġjoint": 5824,
      "Ġdiving": 5825,
      "Ġargue": 5826,
      "Ġprolonged": 5827,
      "zy": 5828,
      "Ġstic": 5829,
      "Ġfine": 5830,
      "Ġbone": 5831,
      "Ġlaugh": 5832,
      "Ġcomplications": 5833,
      "iform": 5834,
      "ĠSince": 5835,
      "ĠPort": 5836,
      "Ġnegoti": 5837,
      "Ġexperiencing": 5838,
      "Ġblocks": 5839,
      "Ġsolving": 5840,
      "Ġperformed": 5841,
      "Ġoccurred": 5842,
      "Ġsubstances": 5843,
      "ĠIsra": 5844,
      "Ġwrong": 5845,
      "onomic": 5846,
      "ĠPractice": 5847,
      "ĠRussia": 5848,
      "',": 5849,
      "MS": 5850,
      "ww": 5851,
      "Ġsad": 5852,
      "rec": 5853,
      "Ġocean": 5854,
      "Ġdomes": 5855,
      "Ġbill": 5856,
      "irms": 5857,
      "rie": 5858,
      "Ġspot": 5859,
      "Ġspati": 5860,
      "ishes": 5861,
      "ĠState": 5862,
      "ĠUnlike": 5863,
      "Ġgoes": 5864,
      "Ġjournal": 5865,
      "Ġnarrow": 5866,
      "Ġdifficulties": 5867,
      "Ġillustrate": 5868,
      "log": 5869,
      "ture": 5870,
      "zed": 5871,
      "Ġturning": 5872,
      "Ġsession": 5873,
      "inger": 5874,
      "Ġimaging": 5875,
      "Ġnoted": 5876,
      "Ġaccounts": 5877,
      "ĠYork": 5878,
      "Ġinfluencing": 5879,
      "Ġgovernance": 5880,
      "ĠEmbr": 5881,
      "Ġadaptation": 5882,
      "Ġexpanding": 5883,
      "Ġinstructions": 5884,
      "atric": 5885,
      "Ġduration": 5886,
      "throp": 5887,
      "Ġexists": 5888,
      "ĠWhether": 5889,
      "Ġsufficient": 5890,
      "Ġemissions": 5891,
      "oster": 5892,
      "Ġrelative": 5893,
      "Ġscene": 5894,
      "Ġflavors": 5895,
      "Ġgrounded": 5896,
      "Ġavoiding": 5897,
      "Ġinjuries": 5898,
      "Ġuniverse": 5899,
      "gra": 5900,
      "utive": 5901,
      "Ġsoph": 5902,
      "Ġsizes": 5903,
      "Ġsector": 5904,
      "eling": 5905,
      "stream": 5906,
      "Ġbeings": 5907,
      "ĠPart": 5908,
      "ĠMain": 5909,
      "Ġimper": 5910,
      "Ġpharm": 5911,
      "Ġsecret": 5912,
      "Ġhappy": 5913,
      "Ġemployment": 5914,
      "Ġexpressed": 5915,
      "Ġdiagnosis": 5916,
      "Ġlibraries": 5917,
      "onomy": 5918,
      "Ġinstrument": 5919,
      "Ġtitled": 5920,
      "Al": 5921,
      "ha": 5922,
      "year": 5923,
      "eding": 5924,
      "Ġnan": 5925,
      "Ġproceed": 5926,
      "Ġchain": 5927,
      "Ġoutcome": 5928,
      "titude": 5929,
      "Ġlegisl": 5930,
      "Ġoccasion": 5931,
      "Ġtransformative": 5932,
      "Ġaccurately": 5933,
      "Ġvolun": 5934,
      "Ġtask": 5935,
      "Ġwildlife": 5936,
      "Ġvulnerable": 5937,
      "Ġneighbor": 5938,
      "Ġcandid": 5939,
      "Ġcoming": 5940,
      "Ġalcohol": 5941,
      "Ġcompati": 5942,
      "Ġseven": 5943,
      "Ġmeal": 5944,
      "Ġreproduc": 5945,
      "Ġresponsibilities": 5946,
      "ĠĠĠĠĠĠĠĠ": 5947,
      "Ġproperly": 5948,
      "Ġfilter": 5949,
      "Ġreferences": 5950,
      "Ġmarine": 5951,
      "Ġelectricity": 5952,
      "Activity": 5953,
      "ES": 5954,
      "Ġign": 5955,
      "Ġpal": 5956,
      "Ġfederal": 5957,
      "Ġdil": 5958,
      "Ġband": 5959,
      "Ġtow": 5960,
      "omb": 5961,
      "stery": 5962,
      "Ġreform": 5963,
      "Ġresist": 5964,
      "Ġpositions": 5965,
      "Ġpreferred": 5966,
      "ĠTime": 5967,
      "Ġwebsites": 5968,
      "Ġheightened": 5969,
      "Ġexcellent": 5970,
      "Ġtrauma": 5971,
      "Ġlinguistic": 5972,
      "friendly": 5973,
      "kin": 5974,
      "lers": 5975,
      "Ġwoman": 5976,
      "Ġinduc": 5977,
      "ĠLook": 5978,
      "Ġhaz": 5979,
      "Ġregression": 5980,
      "orders": 5981,
      "resent": 5982,
      "Ġuseful": 5983,
      "Ġetc": 5984,
      "Ġcounsel": 5985,
      "Ġhousing": 5986,
      "Ġmarginalized": 5987,
      "Ġsophistic": 5988,
      "Ġcater": 5989,
      "orrow": 5990,
      "anish": 5991,
      "arr": 5992,
      "eterm": 5993,
      "agues": 5994,
      "ĠHuman": 5995,
      "ĠLaw": 5996,
      "ĠGiven": 5997,
      "ĠExp": 5998,
      "Ġphysiological": 5999,
      "ashing": 6000,
      "Ġcomprehension": 6001,
      "Ġthrive": 6002,
      "Ġcorresponding": 6003,
      "Pro": 6004,
      "Understanding": 6005,
      "etic": 6006,
      "oin": 6007,
      "Ġshel": 6008,
      "Ġadvertis": 6009,
      "lecting": 6010,
      "Ġdiscourse": 6011,
      "Ġattend": 6012,
      "Ġmodeling": 6013,
      "Ġevaluating": 6014,
      "Ġalignment": 6015,
      "Ġkindness": 6016,
      "Ġcollege": 6017,
      "Ġcriteria": 6018,
      "ED": 6019,
      "oys": 6020,
      "top": 6021,
      "inity": 6022,
      "ste": 6023,
      "Ġrul": 6024,
      "Ġneut": 6025,
      "Ġemerge": 6026,
      "Ġregim": 6027,
      "Ġfacial": 6028,
      "Ġsafely": 6029,
      "Ġguiding": 6030,
      "Ġharmony": 6031,
      "Ġdivine": 6032,
      "Ġembrace": 6033,
      "Ġindependence": 6034,
      "Ġdiagnostic": 6035,
      "Ġobservations": 6036,
      "olitical": 6037,
      "Ġprotocols": 6038,
      "Ġcrisis": 6039,
      "ĠMiddle": 6040,
      "*:": 6041,
      "`,": 6042,
      "lig": 6043,
      "Ġtang": 6044,
      "Ġdate": 6045,
      "Ġexempl": 6046,
      "izz": 6047,
      "ogle": 6048,
      "ĠBra": 6049,
      "ĠMake": 6050,
      "ĠMax": 6051,
      "Ġspark": 6052,
      "Ġprices": 6053,
      "Ġdism": 6054,
      "asty": 6055,
      "Ġexplor": 6056,
      "Ġremote": 6057,
      "Ġassets": 6058,
      "Ġsubs": 6059,
      "Ġplayer": 6060,
      "racts": 6061,
      "Ġdiscoveries": 6062,
      "Ġtreating": 6063,
      "Ġswitch": 6064,
      "ĠStudies": 6065,
      "Ġadvantage": 6066,
      "ĠGermany": 6067,
      "Ġaid": 6068,
      "essor": 6069,
      "usivity": 6070,
      "otes": 6071,
      "Ġroad": 6072,
      "ĠYet": 6073,
      "Ġteeth": 6074,
      "Ġsett": 6075,
      "Ġmonth": 6076,
      "Ġskilled": 6077,
      "Ġviews": 6078,
      "Ġcompetitive": 6079,
      "Ġharness": 6080,
      "Ġjuvenile": 6081,
      "Ġcolonial": 6082,
      "vision": 6083,
      "uction": 6084,
      "abil": 6085,
      "ighter": 6086,
      "Ġrecently": 6087,
      "Ġovercome": 6088,
      "Ġsupportive": 6089,
      "Ġutilizing": 6090,
      "Ġadopt": 6091,
      "Ġdescribe": 6092,
      "Ġaccountability": 6093,
      "Ġsquare": 6094,
      "Ġnuclear": 6095,
      "Ġlifestyle": 6096,
      "oses": 6097,
      "Ġuns": 6098,
      "ĠLiter": 6099,
      "Ġinterview": 6100,
      "ĠNever": 6101,
      "Ġorganized": 6102,
      "Ġrepresentations": 6103,
      "Ġteachings": 6104,
      "ĠTechniques": 6105,
      "ĠCenter": 6106,
      "Ġmanufactur": 6107,
      "Ġsatisfaction": 6108,
      "Ġrecommendations": 6109,
      "Ġcurriculum": 6110,
      "If": 6111,
      "OU": 6112,
      "free": 6113,
      "Ġcourt": 6114,
      "atin": 6115,
      "ros": 6116,
      "rooms": 6117,
      "Ġhierarch": 6118,
      "asure": 6119,
      "Ġgentle": 6120,
      "Ġintake": 6121,
      "ĠEarly": 6122,
      "Ġstrange": 6123,
      "Ġperp": 6124,
      "Ġexpert": 6125,
      "Ġdiscomfort": 6126,
      "Ġhealthier": 6127,
      "Ġthanks": 6128,
      "Ġprompt": 6129,
      "Ġoperates": 6130,
      "Ġillum": 6131,
      "ĠThroughout": 6132,
      "Ġdoctors": 6133,
      "Ġemphasis": 6134,
      "Ġhardware": 6135,
      "Ġlargely": 6136,
      "Ġmicrob": 6137,
      "You": 6138,
      "mas": 6139,
      "Ġrelying": 6140,
      "ĠSaf": 6141,
      "using": 6142,
      "ĠHere": 6143,
      "ĠUs": 6144,
      "overning": 6145,
      "Ġletters": 6146,
      "Ġownership": 6147,
      "ĠPlus": 6148,
      "ĠBefore": 6149,
      "Ġreached": 6150,
      "Ġversati": 6151,
      "Ġcovered": 6152,
      "Ġengineers": 6153,
      "Ġdomain": 6154,
      "Ġfarmers": 6155,
      "Ġportray": 6156,
      "ĠJapanese": 6157,
      "Ġspatial": 6158,
      "//": 6159,
      "Ġtall": 6160,
      "Ġtack": 6161,
      "Ġthin": 6162,
      "arc": 6163,
      "uls": 6164,
      "Ġchec": 6165,
      "ĠBal": 6166,
      "ĠPsych": 6167,
      "ĠMark": 6168,
      "ĠEg": 6169,
      "ĠRob": 6170,
      "Ġfacilities": 6171,
      "Ġcars": 6172,
      "Ġbrush": 6173,
      "Ġchoosing": 6174,
      "Ġgrass": 6175,
      "Ġassessments": 6176,
      "ourses": 6177,
      "Ġscenes": 6178,
      "Ġsummer": 6179,
      "Ġelevated": 6180,
      "Ġadequate": 6181,
      "Ġdomestic": 6182,
      "Ġpick": 6183,
      "Ġhind": 6184,
      "iring": 6185,
      "Ġunl": 6186,
      "Ġimpair": 6187,
      "ĠNum": 6188,
      "ysical": 6189,
      "Ġgenes": 6190,
      "Ġequitable": 6191,
      "Ġ60": 6192,
      "Ġdelivering": 6193,
      "Ġadaptability": 6194,
      "Ġexperimental": 6195,
      "Ġexpanded": 6196,
      "Ġobjective": 6197,
      "Ġdelicate": 6198,
      "ĠGerman": 6199,
      "words": 6200,
      "Ġpollution": 6201,
      "Ġmolecular": 6202,
      "Ġhorse": 6203,
      "uce": 6204,
      "Ġthread": 6205,
      "rays": 6206,
      "Ġdecide": 6207,
      "ĠKnow": 6208,
      "ĠAnalysis": 6209,
      "Ġharmon": 6210,
      "Ġbird": 6211,
      "Ġcrafting": 6212,
      "driven": 6213,
      "fac": 6214,
      "ius": 6215,
      "Ġinequ": 6216,
      "ĠST": 6217,
      "Ġcompounds": 6218,
      "ĠFre": 6219,
      "Ġweap": 6220,
      "ĠRead": 6221,
      "ears": 6222,
      "Ġtheme": 6223,
      "Ġsocio": 6224,
      "Ġcalls": 6225,
      "Ġgrab": 6226,
      "ĠConf": 6227,
      "Ġcollected": 6228,
      "Ġminimum": 6229,
      "Ġreveals": 6230,
      "Ġphotos": 6231,
      "Ġinstruments": 6232,
      "col": 6233,
      "Ġtight": 6234,
      "esus": 6235,
      "Ġsides": 6236,
      "Ġment": 6237,
      "Ġmere": 6238,
      "oding": 6239,
      "ĠDire": 6240,
      "Ġdish": 6241,
      "Ġquiet": 6242,
      "Ġguess": 6243,
      "Ġaccessibility": 6244,
      "Ġarguments": 6245,
      "Ġadoption": 6246,
      "Ġfacilitating": 6247,
      "Ġraised": 6248,
      "Ġmeasurement": 6249,
      "Ġobservation": 6250,
      "ĠEgyp": 6251,
      "16": 6252,
      "bles": 6253,
      "arant": 6254,
      "Ġgoverning": 6255,
      "ĠAD": 6256,
      "mented": 6257,
      "ĠBre": 6258,
      "Ġadm": 6259,
      "ĠFood": 6260,
      "alleng": 6261,
      "ĠNative": 6262,
      "Ġsyndrome": 6263,
      "portion": 6264,
      "Ġpromise": 6265,
      "umptions": 6266,
      "Ġtrials": 6267,
      "Ġsubstance": 6268,
      "Ġdocumented": 6269,
      "Ġnutrients": 6270,
      "Ġdegree": 6271,
      "Ġanswers": 6272,
      "')": 6273,
      "ault": 6274,
      "Ġcos": 6275,
      "Ġinhib": 6276,
      "Ġdone": 6277,
      "Ġprint": 6278,
      "obal": 6279,
      "Ġagencies": 6280,
      "Ġmeditation": 6281,
      "Ġattacks": 6282,
      "Ġaudio": 6283,
      "Ġdominant": 6284,
      "Ġexecution": 6285,
      "Ġannual": 6286,
      "Ġslowly": 6287,
      "ĠDevelopment": 6288,
      "Ġmetabolic": 6289,
      "Ġwitness": 6290,
      "Ġcooperation": 6291,
      "RI": 6292,
      "Ġpet": 6293,
      "Ġtoys": 6294,
      "usc": 6295,
      "roup": 6296,
      "ĠBo": 6297,
      "ĠWill": 6298,
      "Ġhearing": 6299,
      "Ġspeaking": 6300,
      "Ġfunding": 6301,
      "Ġrevealing": 6302,
      "Ġseemed": 6303,
      "Ġprioriti": 6304,
      "Ġradio": 6305,
      "Ġinvolvement": 6306,
      "Ġdrugs": 6307,
      "Ġfixed": 6308,
      "Ġdisciplines": 6309,
      "abetes": 6310,
      "EC": 6311,
      "bra": 6312,
      "gue": 6313,
      "import": 6314,
      "eta": 6315,
      "Ġchance": 6316,
      "Ġdealing": 6317,
      "Ġboost": 6318,
      "Ġsupplement": 6319,
      "Ġpresc": 6320,
      "Ġprofile": 6321,
      "Ġcombat": 6322,
      "Ġliteracy": 6323,
      "ĠHistory": 6324,
      "Ġdogs": 6325,
      "Ġbudget": 6326,
      "Ġenthusi": 6327,
      "Ġtransparency": 6328,
      "After": 6329,
      "oning": 6330,
      "repr": 6331,
      "Ġinquir": 6332,
      "Ġconv": 6333,
      "Ġasser": 6334,
      "Ġassumptions": 6335,
      "Ġsave": 6336,
      "Ġfacts": 6337,
      "Ġsensors": 6338,
      "Ġmemor": 6339,
      "Ġmeasuring": 6340,
      "Ġobserve": 6341,
      "Ġembedded": 6342,
      "Ġmotor": 6343,
      "jected": 6344,
      "ken": 6345,
      "Ġpair": 6346,
      "Ġdys": 6347,
      "Ġble": 6348,
      "ĠDem": 6349,
      "Ġmeat": 6350,
      "Ġcream": 6351,
      "Ġformats": 6352,
      "Ġpoetry": 6353,
      "Ġclassification": 6354,
      "Ġdirec": 6355,
      "Ġreceiving": 6356,
      "Ġutilize": 6357,
      "Ġupdates": 6358,
      "Ġshares": 6359,
      "Ġadverse": 6360,
      "ĠLearning": 6361,
      "Ġthermal": 6362,
      "reprene": 6363,
      "rated": 6364,
      "Ġcuisine": 6365,
      "Ġwinter": 6366,
      "Ġfashion": 6367,
      "ĠCase": 6368,
      "udd": 6369,
      "Ġintu": 6370,
      "ĠDi": 6371,
      "Ġmeant": 6372,
      "ept": 6373,
      "ĠLike": 6374,
      "Ġconsists": 6375,
      "Ġcredit": 6376,
      "Ġessence": 6377,
      "Ġworksh": 6378,
      "ĠTechnology": 6379,
      "Ġinspiring": 6380,
      "Ġanswer": 6381,
      "Ġlaunch": 6382,
      "Ġcampaigns": 6383,
      "Ġdedication": 6384,
      "Ġtrou": 6385,
      "Ġtempor": 6386,
      "Ġwall": 6387,
      "Ġbad": 6388,
      "Ġreb": 6389,
      "ĠTur": 6390,
      "Ġaccep": 6391,
      "ĠBel": 6392,
      "ĠBas": 6393,
      "ĠRo": 6394,
      "Ġempir": 6395,
      "Ġinsu": 6396,
      "Ġload": 6397,
      "Ġmuscles": 6398,
      "Ġtooth": 6399,
      "Ġbehavioral": 6400,
      "Ġoptimization": 6401,
      "Ġvolt": 6402,
      "ĠColl": 6403,
      "Ġadjustments": 6404,
      "itchen": 6405,
      "Ġconcentration": 6406,
      "ĠEncourage": 6407,
      "Ġconsciousness": 6408,
      "Sh": 6409,
      "ience": 6410,
      "nel": 6411,
      "wood": 6412,
      "Ġcatch": 6413,
      "elp": 6414,
      "thesis": 6415,
      "iforn": 6416,
      "Ġprevention": 6417,
      "ĠUtil": 6418,
      "Ġrow": 6419,
      "exist": 6420,
      "Ġdesignated": 6421,
      "Ġextends": 6422,
      "Ġfaces": 6423,
      "Ġreaching": 6424,
      "Ġcomputational": 6425,
      "Ġadvancement": 6426,
      "Ġintroducing": 6427,
      "Ġcultivating": 6428,
      "Ġvideos": 6429,
      "specific": 6430,
      "Ġflexible": 6431,
      "Ġhypoth": 6432,
      "Ġfantastic": 6433,
      "Ġsurgery": 6434,
      "ker": 6435,
      "estiv": 6436,
      "Ġeager": 6437,
      "enty": 6438,
      "Ġrend": 6439,
      "emia": 6440,
      "ĠArab": 6441,
      "uted": 6442,
      "ĠHIV": 6443,
      "ĠIniti": 6444,
      "ĠNet": 6445,
      "yses": 6446,
      "Ġhelpful": 6447,
      "Ġdistress": 6448,
      "Ġworlds": 6449,
      "Ġgrew": 6450,
      "ĠIntegr": 6451,
      "Ġcommitted": 6452,
      "Ġwalk": 6453,
      "Ġalgorithm": 6454,
      "ĠGoogle": 6455,
      "omeday": 6456,
      "Ġtoxic": 6457,
      "Ġtut": 6458,
      "Ġtrib": 6459,
      "Ġaf": 6460,
      "Ġsomeday": 6461,
      "omic": 6462,
      "Ġstored": 6463,
      "Ġforec": 6464,
      "Ġpark": 6465,
      "Ġinclusivity": 6466,
      "Ġreporting": 6467,
      "ĠAsian": 6468,
      "ractions": 6469,
      "Ġinfluential": 6470,
      "Ġcombines": 6471,
      "Ġsurroundings": 6472,
      "ĠSpanish": 6473,
      "ĠRecogn": 6474,
      "ĠAssoci": 6475,
      "Ġpartners": 6476,
      "Ġagriculture": 6477,
      "Ġthrilling": 6478,
      "Moreover": 6479,
      "Ph": 6480,
      "most": 6481,
      "Ġdu": 6482,
      "Ġben": 6483,
      "Ġbatter": 6484,
      "lets": 6485,
      "Ġretain": 6486,
      "Ġreaction": 6487,
      "Ġupper": 6488,
      "Ġvac": 6489,
      "opy": 6490,
      "ĠMeanwhile": 6491,
      "Ġcolumn": 6492,
      "ĠJesus": 6493,
      "Ġcalm": 6494,
      "Ġinterested": 6495,
      "Ġcooling": 6496,
      "ĠStudy": 6497,
      "Ġinterface": 6498,
      "Ġstereotypes": 6499,
      "ait": 6500,
      "oples": 6501,
      "taking": 6502,
      "Ġeight": 6503,
      "idity": 6504,
      "ulates": 6505,
      "Ġritual": 6506,
      "usions": 6507,
      "Ġcontract": 6508,
      "ĠFocus": 6509,
      "ĠNavig": 6510,
      "Ġtrained": 6511,
      "Ġdevelopers": 6512,
      "Ġflour": 6513,
      "Ġprogression": 6514,
      "uthor": 6515,
      "Ġclasses": 6516,
      "Ġpresentation": 6517,
      "Ġexpressing": 6518,
      "Ġzero": 6519,
      "Ġcolleagues": 6520,
      "Ġhabitats": 6521,
      "ĠCaliforn": 6522,
      "Ġcompliance": 6523,
      "Ġsweet": 6524,
      "DF": 6525,
      "SA": 6526,
      "Un": 6527,
      "solving": 6528,
      "unc": 6529,
      "ĠFound": 6530,
      "ĠDraw": 6531,
      "Ġabuse": 6532,
      "Ġassemb": 6533,
      "Ġmodule": 6534,
      "Ġreports": 6535,
      "Ġdisturb": 6536,
      "Ġorganisms": 6537,
      "Ġsensory": 6538,
      "anguage": 6539,
      "Ġpaths": 6540,
      "Ġdimin": 6541,
      "ĠSystems": 6542,
      "Ġmitigate": 6543,
      "Ġreinforcing": 6544,
      "Ġmanifest": 6545,
      "13": 6546,
      "backs": 6547,
      "Ġking": 6548,
      "Ġaer": 6549,
      "Ġtheories": 6550,
      "Ġdensity": 6551,
      "ĠIP": 6552,
      "ords": 6553,
      "Ġhighest": 6554,
      "Ġtypical": 6555,
      "Ġsky": 6556,
      "Ġequity": 6557,
      "Ġfinally": 6558,
      "Ġaware": 6559,
      "Ġobserving": 6560,
      "print": 6561,
      "Ġargument": 6562,
      "Ġadopting": 6563,
      "letes": 6564,
      "Ġscholarly": 6565,
      "ĠCreate": 6566,
      "ĠBenny": 6567,
      "aul": 6568,
      "gal": 6569,
      "uous": 6570,
      "erb": 6571,
      "oma": 6572,
      "tices": 6573,
      "mentary": 6574,
      "aint": 6575,
      "Ġabstr": 6576,
      "Ġunn": 6577,
      "Ġwors": 6578,
      "Ġsurpris": 6579,
      "Ġcharge": 6580,
      "Ġattract": 6581,
      "Ġclassic": 6582,
      "Ġassessing": 6583,
      "ĠClass": 6584,
      "points": 6585,
      "Ġexperiments": 6586,
      "Ġconstitutes": 6587,
      "Ġsuffering": 6588,
      "Ġrelaxation": 6589,
      "Ġhospital": 6590,
      "rest": 6591,
      "tely": 6592,
      "Ġurg": 6593,
      "inates": 6594,
      "anes": 6595,
      "acific": 6596,
      "asures": 6597,
      "ogy": 6598,
      "ĠPat": 6599,
      "estry": 6600,
      "Ġcloth": 6601,
      "ishment": 6602,
      "Ġpeers": 6603,
      "venue": 6604,
      "Ġdistances": 6605,
      "Ġelectron": 6606,
      "Ġactors": 6607,
      "ĠEngland": 6608,
      "Ġholding": 6609,
      "Ġapart": 6610,
      "Ġmastering": 6611,
      "ĠImpact": 6612,
      "faceted": 6613,
      "ĠCalifornia": 6614,
      "aj": 6615,
      "Ġiron": 6616,
      "Ġcues": 6617,
      "rete": 6618,
      "arity": 6619,
      "Ġchrom": 6620,
      "Ġshed": 6621,
      "ĠMo": 6622,
      "Ġtracking": 6623,
      "athering": 6624,
      "ĠWhy": 6625,
      "ĠWhite": 6626,
      "ĠChild": 6627,
      "Ġotherwise": 6628,
      "Ġblend": 6629,
      "Ġdelib": 6630,
      "ovascular": 6631,
      "Ġexcited": 6632,
      "ĠShare": 6633,
      "apping": 6634,
      "Ġfunds": 6635,
      "ĠIslam": 6636,
      "Ġacknowledging": 6637,
      "Ġaesthetic": 6638,
      "Ġdataset": 6639,
      "Ġsecrets": 6640,
      "Ġpra": 6641,
      "Ġpray": 6642,
      "Ġbab": 6643,
      "Ġhop": 6644,
      "stablish": 6645,
      "irt": 6646,
      "emy": 6647,
      "ĠSign": 6648,
      "iveness": 6649,
      "ĠLib": 6650,
      "Ġcredi": 6651,
      "Ġsurprise": 6652,
      "Ġnewly": 6653,
      "Ġsections": 6654,
      "Ġdefining": 6655,
      "Ġparticipating": 6656,
      "Ġ$$": 6657,
      "Ġpathways": 6658,
      "Ġadopted": 6659,
      "Ġdomains": 6660,
      "Ġintroduces": 6661,
      "Ġfriendly": 6662,
      "Ġroutines": 6663,
      "Ġcalculate": 6664,
      "Ġfarming": 6665,
      "Ġsaying": 6666,
      "Ġrecipes": 6667,
      "Ġarrived": 6668,
      "Ġintentional": 6669,
      "ficiency": 6670,
      "oking": 6671,
      "ompl": 6672,
      "Ġuph": 6673,
      "Ġstems": 6674,
      "aper": 6675,
      "ĠFuture": 6676,
      "Ġclub": 6677,
      "ĠOff": 6678,
      "Ġprem": 6679,
      "ĠUnder": 6680,
      "Ġdesire": 6681,
      "Ġwouldn": 6682,
      "Ġemergency": 6683,
      "Ġfrequent": 6684,
      "Ġdetermining": 6685,
      "Ġsuperior": 6686,
      "Ġflowers": 6687,
      "Ġutility": 6688,
      "Ġrecorded": 6689,
      "Ġresidents": 6690,
      "Ġadversity": 6691,
      ",'": 6692,
      "40": 6693,
      "ML": 6694,
      "eenth": 6695,
      "normal": 6696,
      "otional": 6697,
      "erce": 6698,
      "Ġtoy": 6699,
      "ecurity": 6700,
      "Ġstars": 6701,
      "pling": 6702,
      "ĠGra": 6703,
      "phones": 6704,
      "alse": 6705,
      "Ġproductivity": 6706,
      "Ġprotagon": 6707,
      "Ġpopularity": 6708,
      "ien": 6709,
      "nom": 6710,
      "Ġped": 6711,
      "itors": 6712,
      "itarian": 6713,
      "Ġdual": 6714,
      "Ġtoler": 6715,
      "tery": 6716,
      "Ġvic": 6717,
      "osa": 6718,
      "umin": 6719,
      "Ġuniform": 6720,
      "ĠYOU": 6721,
      "Ġdevelopmental": 6722,
      "Ġbiology": 6723,
      "Ġdiabetes": 6724,
      "struction": 6725,
      "Ġpartner": 6726,
      "Ġhappiness": 6727,
      "Ġ2014": 6728,
      "Ġpolicym": 6729,
      "Ġanalytical": 6730,
      "Ġmindfulness": 6731,
      "ĠChristianity": 6732,
      "levi": 6733,
      "Ġsmoothly": 6734,
      "Ġdreams": 6735,
      "Ġmovie": 6736,
      "CE": 6737,
      "tification": 6738,
      "Ġcourage": 6739,
      "Ġpump": 6740,
      "urring": 6741,
      "Ġnod": 6742,
      "forward": 6743,
      "allow": 6744,
      "Ġdisput": 6745,
      "Ġstring": 6746,
      "Ġarises": 6747,
      "Ġpret": 6748,
      "Ġperman": 6749,
      "Ġcreators": 6750,
      "ounced": 6751,
      "ĠStand": 6752,
      "Ġvisually": 6753,
      "Ġdiscussed": 6754,
      "Ġcombine": 6755,
      "Ġdeepen": 6756,
      "Ġemergence": 6757,
      "Ġstriking": 6758,
      "Ġmotivation": 6759,
      "Ġpandemic": 6760,
      "Ġvolunte": 6761,
      "Ġsophisticated": 6762,
      "from": 6763,
      "ycle": 6764,
      "zym": 6765,
      "Ġtun": 6766,
      "onents": 6767,
      "organ": 6768,
      "alities": 6769,
      "Ġwaters": 6770,
      "Ġdin": 6771,
      "Ġtold": 6772,
      "igital": 6773,
      "Ġexceed": 6774,
      "Ġvector": 6775,
      "ĠBuilding": 6776,
      "ĠWater": 6777,
      "Ġtimely": 6778,
      "Ġwash": 6779,
      "Ġexpenses": 6780,
      "Ġtransactions": 6781,
      "Ġscal": 6782,
      "Ġanalyses": 6783,
      "Ġgenerating": 6784,
      "ĠConvers": 6785,
      "Ġ2018": 6786,
      "Ġtrip": 6787,
      "Ġtreated": 6788,
      "ĠTrends": 6789,
      "Ġstatement": 6790,
      "ĠCentral": 6791,
      "Ġportion": 6792,
      "Ġintriguing": 6793,
      "ĠJournal": 6794,
      "allenges": 6795,
      "Ġinsufficient": 6796,
      "fare": 6797,
      "lib": 6798,
      "Ġsell": 6799,
      "outs": 6800,
      "Ġech": 6801,
      "Ġhers": 6802,
      "ĠSE": 6803,
      "rian": 6804,
      "Ġdead": 6805,
      "Ġinterplay": 6806,
      "Ġexamined": 6807,
      "olds": 6808,
      "Ġvisibility": 6809,
      "riting": 6810,
      "Ġlots": 6811,
      "Ġentreprene": 6812,
      "Ġfemin": 6813,
      "Ġbreathing": 6814,
      "Ġadvocating": 6815,
      "Ġtells": 6816,
      "ĠFrance": 6817,
      "Ġagreement": 6818,
      "tified": 6819,
      "Ġhighlighted": 6820,
      "ĠApplications": 6821,
      "CO": 6822,
      "Re": 6823,
      "`.": 6824,
      "oved": 6825,
      "Ġfurn": 6826,
      "Ġease": 6827,
      "Ġconstruct": 6828,
      "Ġvs": 6829,
      "ĠCity": 6830,
      "Ġallevi": 6831,
      "Ġadoles": 6832,
      "ĠElect": 6833,
      "ĠDav": 6834,
      "Ġcreations": 6835,
      "Ġinclusion": 6836,
      "Ġrelatively": 6837,
      "Ġmode": 6838,
      "uctu": 6839,
      "Ġmystery": 6840,
      "Ġmeasured": 6841,
      "Ġcircuit": 6842,
      "Ġauthorities": 6843,
      "Ġmassive": 6844,
      "Ġtissues": 6845,
      "Ġsurgical": 6846,
      "Ġcorporate": 6847,
      "Ġentertainment": 6848,
      "ĠNevertheless": 6849,
      "Am": 6850,
      "Tr": 6851,
      "uh": 6852,
      "Ġtips": 6853,
      "Ġod": 6854,
      "Ġbol": 6855,
      "roid": 6856,
      "ulf": 6857,
      "ustling": 6858,
      "Ġarm": 6859,
      "Ġaccompl": 6860,
      "Ġpersonality": 6861,
      "Ġdelay": 6862,
      "iances": 6863,
      "Ġequally": 6864,
      "oval": 6865,
      "ĠProv": 6866,
      "Ġglobally": 6867,
      "Ġhappening": 6868,
      "Ġpaint": 6869,
      "fortun": 6870,
      "Ġinvestigate": 6871,
      "Ġindependently": 6872,
      "Ġmeasurements": 6873,
      "Ġwindow": 6874,
      "âĪĴ": 6875,
      "Ġleveraging": 6876,
      "Ġneighborhood": 6877,
      "ham": 6878,
      "Ġwire": 6879,
      "Ġwalls": 6880,
      "Ġborn": 6881,
      "Ġstation": 6882,
      "Ġadh": 6883,
      "ĠHol": 6884,
      "ĠDif": 6885,
      "ffee": 6886,
      "Ġundergo": 6887,
      "ĠGreen": 6888,
      "weight": 6889,
      "Ġmultifaceted": 6890,
      "Ġclassified": 6891,
      "ĠProper": 6892,
      "Ġguided": 6893,
      "Ġcycles": 6894,
      "Ġsecondary": 6895,
      "Ġversions": 6896,
      "ĠProgram": 6897,
      "ĠEmpire": 6898,
      "ST": 6899,
      "Ġsum": 6900,
      "Ġlighting": 6901,
      "Ġstro": 6902,
      "ĠThom": 6903,
      "ione": 6904,
      "Ġcher": 6905,
      "ĠMat": 6906,
      "ĠEqu": 6907,
      "Ġmanual": 6908,
      "Ġpreservation": 6909,
      "Ġcompletely": 6910,
      "Ġconfront": 6911,
      "Ġtransformed": 6912,
      "Ġtrial": 6913,
      "Ġturns": 6914,
      "Ġcovering": 6915,
      "Ġphilosophical": 6916,
      "Ġassigned": 6917,
      "Ġbacterial": 6918,
      "Ġmortality": 6919,
      "ĠJamie": 6920,
      "Em": 6921,
      "dy": 6922,
      "power": 6923,
      "Ġtemporary": 6924,
      "itting": 6925,
      "Ġdoll": 6926,
      "Ġhour": 6927,
      "Ġnich": 6928,
      "emical": 6929,
      "oting": 6930,
      "Ġintens": 6931,
      "ĠMicro": 6932,
      "ĠWest": 6933,
      "Ġpron": 6934,
      "plement": 6935,
      "Ġformer": 6936,
      "brid": 6937,
      "owned": 6938,
      "Ġmaintained": 6939,
      "Ġrising": 6940,
      "Ġtargeting": 6941,
      "ĠContemporary": 6942,
      "Ġachievements": 6943,
      "Ġprocedure": 6944,
      "Ġcrime": 6945,
      "Ġresonate": 6946,
      "ĠEnvironmental": 6947,
      "Ġperpet": 6948,
      "rite": 6949,
      "inet": 6950,
      "org": 6951,
      "ĠSl": 6952,
      "usiness": 6953,
      "ĠPal": 6954,
      "Ġspending": 6955,
      "ĠEth": 6956,
      "Ġdisabilities": 6957,
      "Ġindex": 6958,
      "ieval": 6959,
      "Ġprecious": 6960,
      "Ġrelies": 6961,
      "Ġrelief": 6962,
      "Ġtelev": 6963,
      "Ġseeing": 6964,
      "Ġrepresented": 6965,
      "ĠWithin": 6966,
      "ĠEngine": 6967,
      "Ġdestr": 6968,
      "Ġadministration": 6969,
      "Ġfiber": 6970,
      "Ġwatching": 6971,
      "Ġstatistical": 6972,
      "ĠSpecifically": 6973,
      "Ġpurchase": 6974,
      "Ġterritories": 6975,
      "ĠInstitute": 6976,
      "25": 6977,
      "Ġtaught": 6978,
      "Ġcourses": 6979,
      "eles": 6980,
      "Ġreward": 6981,
      "ama": 6982,
      "ched": 6983,
      "Ġchick": 6984,
      "ĠPublic": 6985,
      "onsist": 6986,
      "Ġsupplies": 6987,
      "Ġtransitions": 6988,
      "Ġpeoples": 6989,
      "fiction": 6990,
      "Ġvisiting": 6991,
      "Ġnumer": 6992,
      "Ġaddresses": 6993,
      "Ġzones": 6994,
      "Ġraising": 6995,
      "Ġuniversal": 6996,
      "ĠScienti": 6997,
      "breaking": 6998,
      "Ġcopy": 6999,
      "Ġweakness": 7000,
      "Ġmilk": 7001,
      "Ġathletes": 7002,
      "],": 7003,
      "Ġast": 7004,
      "Ġsnow": 7005,
      "lean": 7006,
      "igm": 7007,
      "Ġstead": 7008,
      "Ġstrain": 7009,
      "Ġorient": 7010,
      "ĠSee": 7011,
      "Ġvoc": 7012,
      "entia": 7013,
      "Ġabund": 7014,
      "atigue": 7015,
      "Ġspecified": 7016,
      "ailing": 7017,
      "Ġoptical": 7018,
      "working": 7019,
      "Ġfluctu": 7020,
      "Ġcorner": 7021,
      "Ġbiod": 7022,
      "Ġfilms": 7023,
      "Ġwarning": 7024,
      "Ġmixture": 7025,
      "Ġfeeding": 7026,
      "Ġfewer": 7027,
      "Ġexplicitly": 7028,
      "Ġvoltage": 7029,
      "Cl": 7030,
      "During": 7031,
      "VID": 7032,
      "vent": 7033,
      "Ġ<": 7034,
      "Ġcup": 7035,
      "edia": 7036,
      "Ġbrow": 7037,
      "Ġgaps": 7038,
      "Ġvig": 7039,
      "ĠMich": 7040,
      "ĠRole": 7041,
      "Ġdisapp": 7042,
      "Ġkil": 7043,
      "overty": 7044,
      "Ġgenres": 7045,
      "Ġdecor": 7046,
      "Ġmedication": 7047,
      "ounters": 7048,
      "ĠAsia": 7049,
      "ĠUnion": 7050,
      "Ġcareg": 7051,
      "undred": 7052,
      "Ġexposed": 7053,
      "ĠAccess": 7054,
      "Ġdistributed": 7055,
      "Ġcomplicated": 7056,
      "://": 7057,
      "CA": 7058,
      "vis": 7059,
      "ester": 7060,
      "Ġcas": 7061,
      "Ġmiles": 7062,
      "economic": 7063,
      "through": 7064,
      "Ġconcl": 7065,
      "uli": 7066,
      "Ġrough": 7067,
      "ĠMc": 7068,
      "Ġadherence": 7069,
      "Ġappar": 7070,
      "ĠOct": 7071,
      "Ġrepeti": 7072,
      "worth": 7073,
      "Ġconfusion": 7074,
      "####": 7075,
      "Ġorganizing": 7076,
      "Ġfunctioning": 7077,
      "Ġyounger": 7078,
      "ĠAppro": 7079,
      "Ġholistic": 7080,
      "Ġoverwhelming": 7081,
      "dep": 7082,
      "lines": 7083,
      "rants": 7084,
      "ena": 7085,
      "Ġca": 7086,
      "Ġfle": 7087,
      "arter": 7088,
      "Ġharsh": 7089,
      "ectional": 7090,
      "Ġstret": 7091,
      "uting": 7092,
      "ocol": 7093,
      "ĠMost": 7094,
      "Ġseed": 7095,
      "Ġexamines": 7096,
      "Ġrespir": 7097,
      "Ġimmense": 7098,
      "ircraft": 7099,
      "Ġinstitutional": 7100,
      "Ġ90": 7101,
      "Ġsunny": 7102,
      "Ġnutrient": 7103,
      "Ġdebate": 7104,
      "ĠRussian": 7105,
      "Ġcryst": 7106,
      "Ġdangerous": 7107,
      "ĠDepartment": 7108,
      "Pl": 7109,
      "found": 7110,
      "hav": 7111,
      "tiqu": 7112,
      "Ġwise": 7113,
      "Ġlon": 7114,
      "ette": 7115,
      "Ġcompens": 7116,
      "ĠOut": 7117,
      "Ġ21": 7118,
      "ividuals": 7119,
      "ĠSte": 7120,
      "Ġsurvey": 7121,
      "Ġteen": 7122,
      "Ġflo": 7123,
      "Ġguarant": 7124,
      "Ġbias": 7125,
      "ĠAlways": 7126,
      "Ġcollecting": 7127,
      "Ġstarts": 7128,
      "ependent": 7129,
      "Ġraises": 7130,
      "Ġnutrition": 7131,
      "Ġreplied": 7132,
      "Ġstrive": 7133,
      "Ġhonest": 7134,
      "Ġparameter": 7135,
      "Ġpushing": 7136,
      "Ġpregnancy": 7137,
      "Ġherself": 7138,
      "VI": 7139,
      "rific": 7140,
      "Ġwants": 7141,
      "Ġdro": 7142,
      "Ġmand": 7143,
      "Ġmaps": 7144,
      "Ġvivid": 7145,
      "ĠPacific": 7146,
      "Ġsegment": 7147,
      "ĠDay": 7148,
      "Ġagency": 7149,
      "Ġleader": 7150,
      "Ġfolk": 7151,
      "Ġcarried": 7152,
      "Ġcontrols": 7153,
      "Ġgrid": 7154,
      "pril": 7155,
      "Ġaligned": 7156,
      "Ġcelebrate": 7157,
      "Ġdisparities": 7158,
      "iblical": 7159,
      "\")": 7160,
      "70": 7161,
      "jud": 7162,
      "ĠÃ": 7163,
      "Ġpil": 7164,
      "atal": 7165,
      "uccess": 7166,
      "ĠPolic": 7167,
      "Ġspend": 7168,
      "estinal": 7169,
      "Ġpersever": 7170,
      "Ġrepair": 7171,
      "Ġpeak": 7172,
      "Ġcoffee": 7173,
      "Ġsubt": 7174,
      "Ġdesigners": 7175,
      "Ġflight": 7176,
      "Ġbreaking": 7177,
      "Ġreliance": 7178,
      "Ġexplaining": 7179,
      "Ġraise": 7180,
      "Ġjobs": 7181,
      "Ġagreed": 7182,
      "ĠPresident": 7183,
      "Ġsongs": 7184,
      "Ġmigration": 7185,
      "ĠAustralia": 7186,
      "Rec": 7187,
      "aired": 7188,
      "bing": 7189,
      "cil": 7190,
      "Ã¡": 7191,
      "Ġtale": 7192,
      "Ġturb": 7193,
      "erated": 7194,
      "oral": 7195,
      "iture": 7196,
      "Ġbustling": 7197,
      "ĠPC": 7198,
      "Ġpric": 7199,
      "Ġseg": 7200,
      "ressed": 7201,
      "Ġtraject": 7202,
      "Ġrefuge": 7203,
      "Ġequation": 7204,
      "Ġbeloved": 7205,
      "Ġattack": 7206,
      "Ġissued": 7207,
      "Ġapplicable": 7208,
      "ĠWork": 7209,
      "Ġcolorful": 7210,
      "Ġdifficulty": 7211,
      "Ġagreements": 7212,
      "Ġscenario": 7213,
      "Ġmathematics": 7214,
      "Ġisolation": 7215,
      "Ġromantic": 7216,
      "ogenic": 7217,
      "Ġimmersive": 7218,
      "Ġcardiovascular": 7219,
      "Ġdouble": 7220,
      "Ġbottom": 7221,
      "Ġreproductive": 7222,
      "Ġaqu": 7223,
      "eries": 7224,
      "Ġsick": 7225,
      "itory": 7226,
      "Ġfight": 7227,
      "road": 7228,
      "Ġrevers": 7229,
      "Ġloyal": 7230,
      "ĠTV": 7231,
      "osion": 7232,
      "Ġplacing": 7233,
      "Ġunus": 7234,
      "Ġkitchen": 7235,
      "aria": 7236,
      "egin": 7237,
      "Ġcompleted": 7238,
      "ĠForm": 7239,
      "otherapy": 7240,
      "Ġende": 7241,
      "Ġphysically": 7242,
      "lessly": 7243,
      "ĠAltern": 7244,
      "Ġreleased": 7245,
      "Ġtransforming": 7246,
      "Ġmarks": 7247,
      "Ġconducting": 7248,
      "Ġshifting": 7249,
      "Ġwarmth": 7250,
      "Ġmaximize": 7251,
      "Ġschedul": 7252,
      "Ġacceptance": 7253,
      "Ġremoving": 7254,
      "ĠRevolution": 7255,
      "Ġparallel": 7256,
      "Ġpartnerships": 7257,
      "ĠCollabor": 7258,
      "Py": 7259,
      "fers": 7260,
      "Ġtensions": 7261,
      "Ġburn": 7262,
      "entral": 7263,
      "Ġlot": 7264,
      "ĠSk": 7265,
      "Ġlemon": 7266,
      "Ġheating": 7267,
      "pha": 7268,
      "Ġpeer": 7269,
      "Ġagent": 7270,
      "Ġcohes": 7271,
      "Ġadds": 7272,
      "Ġequival": 7273,
      "Ġprofiles": 7274,
      "Ġmetaph": 7275,
      "Ġrestoration": 7276,
      "Ġbasics": 7277,
      "Ġtargets": 7278,
      "ripts": 7279,
      "trans": 7280,
      "Ġmobility": 7281,
      "Ġencountered": 7282,
      "Ġprobability": 7283,
      "Ġarrangements": 7284,
      "ĠChoose": 7285,
      "predict": 7286,
      "Ġnurturing": 7287,
      "ĠÂ": 7288,
      "Ġpose": 7289,
      "Ġfatigue": 7290,
      "Ġborders": 7291,
      "ĠSun": 7292,
      "Ġenzym": 7293,
      "ĠPark": 7294,
      "ĠEl": 7295,
      "Ġevident": 7296,
      "Ġoverview": 7297,
      "ober": 7298,
      "Ġedges": 7299,
      "Ġchildhood": 7300,
      "Ġstrengthens": 7301,
      "Ġembod": 7302,
      "Ġenjoying": 7303,
      "Ġsalt": 7304,
      "Ġcriminal": 7305,
      "Ġrestrictions": 7306,
      "Ġcoastal": 7307,
      "Ġinvention": 7308,
      "Ġpolicymakers": 7309,
      "80": 7310,
      "AA": 7311,
      "gets": 7312,
      "Ġtone": 7313,
      "Ġhes": 7314,
      "osc": 7315,
      "Ġshad": 7316,
      "Ġintr": 7317,
      "Ġsport": 7318,
      "ĠOh": 7319,
      "ĠGre": 7320,
      "Ġconsent": 7321,
      "Ġinvent": 7322,
      "Ġmoves": 7323,
      "Ġdelight": 7324,
      "Ġpresenting": 7325,
      "Ġpassing": 7326,
      "Ġpassage": 7327,
      "Ġevaluated": 7328,
      "Ġdescrip": 7329,
      "Ġphotography": 7330,
      "Ġ80": 7331,
      "Ġcategory": 7332,
      "cluded": 7333,
      "Ġcamera": 7334,
      "giene": 7335,
      "Ġratio": 7336,
      "Ġprioritize": 7337,
      "cultural": 7338,
      "mates": 7339,
      "Ġbrown": 7340,
      "Ġhundred": 7341,
      "Ġnit": 7342,
      "Ġgest": 7343,
      "rap": 7344,
      "Ġexac": 7345,
      "amine": 7346,
      "ĠMore": 7347,
      "ĠLit": 7348,
      "Ġperm": 7349,
      "ologist": 7350,
      "Ġroof": 7351,
      "Ġdeter": 7352,
      "olding": 7353,
      "Ġsafer": 7354,
      "Ġsoldi": 7355,
      "Ġdefense": 7356,
      "Ġenabled": 7357,
      "Ġchanged": 7358,
      "Ġcellular": 7359,
      "Ġguides": 7360,
      "Ġ2011": 7361,
      "Ġindicators": 7362,
      "Ġenjoyable": 7363,
      "Ġreviews": 7364,
      "Ġimagery": 7365,
      "Ġcategor": 7366,
      "Ġcrafts": 7367,
      "Ġcorrectly": 7368,
      "Ġspectrum": 7369,
      "Ġrenewable": 7370,
      "Ġdisplays": 7371,
      "Ġvitamin": 7372,
      "Ġdurability": 7373,
      "fortunately": 7374,
      "En": 7375,
      "PC": 7376,
      "Â²": 7377,
      "erves": 7378,
      "Ġsour": 7379,
      "Ġpoverty": 7380,
      "Ġwet": 7381,
      "isition": 7382,
      "icking": 7383,
      "Ġeat": 7384,
      "stone": 7385,
      "Ġlights": 7386,
      "Ġgod": 7387,
      "Ġran": 7388,
      "Ġrural": 7389,
      "abel": 7390,
      "Ġbear": 7391,
      "Ġintroduction": 7392,
      "ĠNon": 7393,
      "ypes": 7394,
      "Ġallerg": 7395,
      "Ġprotected": 7396,
      "Ġschem": 7397,
      "cepti": 7398,
      "Ġmetrics": 7399,
      "ecessary": 7400,
      "Ġgeographical": 7401,
      "Ġlogic": 7402,
      "Ġarticles": 7403,
      "Ġcoordination": 7404,
      "umbled": 7405,
      "Ġopinions": 7406,
      "ĠMedicine": 7407,
      "Ind": 7408,
      "data": 7409,
      "iam": 7410,
      "ka": 7411,
      "utical": 7412,
      "onial": 7413,
      "ĠThough": 7414,
      "ticul": 7415,
      "ĠEconom": 7416,
      "illance": 7417,
      "Ġdisag": 7418,
      "ferences": 7419,
      "ĠOther": 7420,
      "ĠNature": 7421,
      "Ġperceptions": 7422,
      "Ġmodifications": 7423,
      "Ġcontrovers": 7424,
      "thetics": 7425,
      "Ġ2017": 7426,
      "Ġautonomy": 7427,
      "Ġinvesting": 7428,
      "Ġthoughtful": 7429,
      "Ġintricacies": 7430,
      "Ġinherently": 7431,
      "Ġfitness": 7432,
      "Ġjudgment": 7433,
      "Ġmovies": 7434,
      "ĠOpen": 7435,
      "Ġstraightforward": 7436,
      "Ġmanipulation": 7437,
      "Ġdatabase": 7438,
      "ĠStrategies": 7439,
      "ĠIsrael": 7440,
      "nomial": 7441,
      "cons": 7442,
      "pass": 7443,
      "Ġtrop": 7444,
      "Ġaircraft": 7445,
      "Ġrever": 7446,
      "Ġlooks": 7447,
      "ĠApril": 7448,
      "ĠCultural": 7449,
      "Ġcha": 7450,
      "ĠMem": 7451,
      "ĠFollowing": 7452,
      "Ġmeticul": 7453,
      "Ġtrading": 7454,
      "standing": 7455,
      "Ġremoval": 7456,
      "----------------------------": 7457,
      "Ġendless": 7458,
      "Ġ196": 7459,
      "ĠAnaly": 7460,
      "Ġ2013": 7461,
      "Ġartwork": 7462,
      "Ġswim": 7463,
      "Ġdamaged": 7464,
      "Ġbringing": 7465,
      "ĠAssess": 7466,
      "ĠMedical": 7467,
      "Ġattributed": 7468,
      "Ġmysteries": 7469,
      "Ġoutdoor": 7470,
      "Ġexacerb": 7471,
      "Ar": 7472,
      "effective": 7473,
      "Ġtough": 7474,
      "Ġfoss": 7475,
      "Ġinches": 7476,
      "Ġmining": 7477,
      "Ġban": 7478,
      "icks": 7479,
      "omatic": 7480,
      "Ġretention": 7481,
      "ĠTher": 7482,
      "ĠSan": 7483,
      "Ġenforcement": 7484,
      "ĠCap": 7485,
      "Ġresemb": 7486,
      "aping": 7487,
      "Ġshopping": 7488,
      "ĠBay": 7489,
      "ĠMa": 7490,
      "direct": 7491,
      "ĠInformation": 7492,
      "ĠChallenges": 7493,
      "Ġdoors": 7494,
      "Ġadvised": 7495,
      "ĠAdditional": 7496,
      "Ġequations": 7497,
      "Ġattending": 7498,
      "Ġclassical": 7499,
      "Ġentry": 7500,
      "Ġlegs": 7501,
      "Ġdiver": 7502,
      "Ġjourneys": 7503,
      "Ġ2016": 7504,
      "Ġdoctor": 7505,
      "Ġversus": 7506,
      "Ġstewards": 7507,
      "Ġsymbolic": 7508,
      "Ġathle": 7509,
      "Ġsacrific": 7510,
      "Ġmyself": 7511,
      "hyd": 7512,
      "pace": 7513,
      "rat": 7514,
      "ini": 7515,
      "itude": 7516,
      "Ġfighting": 7517,
      "Ġround": 7518,
      "Ġforget": 7519,
      "ĠAir": 7520,
      "ĠDid": 7521,
      "Ġplate": 7522,
      "Ġrecover": 7523,
      "Ġnothing": 7524,
      "Ġhistories": 7525,
      "Ġdefend": 7526,
      "ĠIndust": 7527,
      "Ġrestore": 7528,
      "ĠIsland": 7529,
      "ĠContin": 7530,
      "Ġmorning": 7531,
      "ĠParticip": 7532,
      "Ġcomparable": 7533,
      "Ġinhabit": 7534,
      "Ġenthusiasts": 7535,
      "Ġniche": 7536,
      "Ġtelevision": 7537,
      "ON": 7538,
      "natural": 7539,
      "otion": 7540,
      "piec": 7541,
      "atoes": 7542,
      "icious": 7543,
      "that": 7544,
      "eters": 7545,
      "Ġgall": 7546,
      "Ġforests": 7547,
      "Ġcomics": 7548,
      "iff": 7549,
      "Ġacids": 7550,
      "Ġship": 7551,
      "Ġunderp": 7552,
      "Ġjump": 7553,
      "arious": 7554,
      "Ġserver": 7555,
      "Ġbutton": 7556,
      "ĠStar": 7557,
      "Ġgradu": 7558,
      "Ġpatent": 7559,
      "Ġsucceed": 7560,
      "Ġintegral": 7561,
      "Ġ2015": 7562,
      "Ġcycl": 7563,
      "ĠAtl": 7564,
      "Ġbrave": 7565,
      "Ġconversion": 7566,
      "Ġcomposed": 7567,
      "Ġpayment": 7568,
      "Ġcalculated": 7569,
      "Ġsequences": 7570,
      "Ġfairness": 7571,
      "Ġcivilizations": 7572,
      "Ġhabitat": 7573,
      "Ġrespectively": 7574,
      "Ġordinary": 7575,
      "plotlib": 7576,
      "IN": 7577,
      "RA": 7578,
      "fish": 7579,
      "test": 7580,
      "tific": 7581,
      "Ġsectors": 7582,
      "ĠTreat": 7583,
      "ocy": 7584,
      "ĠMal": 7585,
      "ensor": 7586,
      "ĠLu": 7587,
      "Ġkid": 7588,
      "Ġflood": 7589,
      "Ġconfident": 7590,
      "ommun": 7591,
      "ropri": 7592,
      "Ġviral": 7593,
      "Ġfalls": 7594,
      "ĠRepublic": 7595,
      "Ġthoroughly": 7596,
      "Ġbelonging": 7597,
      "Ġresolve": 7598,
      "ĠIdentify": 7599,
      "Ġabstract": 7600,
      "band": 7601,
      "function": 7602,
      "just": 7603,
      "lin": 7604,
      "inical": 7605,
      "Ġmild": 7606,
      "ictional": 7607,
      "Ġgear": 7608,
      "Ġrub": 7609,
      "ĠSym": 7610,
      "istration": 7611,
      "ĠPo": 7612,
      "Ġcompare": 7613,
      "Ġcomparing": 7614,
      "Ġparad": 7615,
      "earing": 7616,
      "everal": 7617,
      "Ġprovider": 7618,
      "Ġencounters": 7619,
      "Ġperformances": 7620,
      "Ġapproached": 7621,
      "Ġestablishment": 7622,
      "Ġadaptive": 7623,
      "Ġmarking": 7624,
      "Ġ2008": 7625,
      "Ġethics": 7626,
      "Ġutilized": 7627,
      "Ġconsume": 7628,
      "Ġtrusted": 7629,
      "Ġcapturing": 7630,
      "Ġgreenhouse": 7631,
      "Ġinstalled": 7632,
      "Ġstatistics": 7633,
      "Ġshowcasing": 7634,
      "Ġconfirmed": 7635,
      "Ġtapestry": 7636,
      "ĠEastern": 7637,
      "====": 7638,
      "Ġunusual": 7639,
      "Over": 7640,
      "isely": 7641,
      "Ġlung": 7642,
      "urations": 7643,
      "ĠTex": 7644,
      "Ġstores": 7645,
      "ĠSy": 7646,
      "rium": 7647,
      "uses": 7648,
      "aped": 7649,
      "ĠBack": 7650,
      "Ġincidents": 7651,
      "Ġplas": 7652,
      "ĠRiver": 7653,
      "aceutical": 7654,
      "Ġsignaling": 7655,
      "reshold": 7656,
      "Ġmini": 7657,
      "racting": 7658,
      "Ġsensor": 7659,
      "ĠImport": 7660,
      "Ġglobe": 7661,
      "Ġcollectively": 7662,
      "Ġtried": 7663,
      "Ġexhibits": 7664,
      "istered": 7665,
      "Ġadministrative": 7666,
      "Ġaltered": 7667,
      "Ġoutlines": 7668,
      "Ġcorrelation": 7669,
      "Ġharmonious": 7670,
      "Ġworkshops": 7671,
      "SE": 7672,
      "pan": 7673,
      "Ġselling": 7674,
      "alian": 7675,
      "Ġeld": 7676,
      "acting": 7677,
      "ĠAug": 7678,
      "ĠFact": 7679,
      "Ġunt": 7680,
      "Ġparam": 7681,
      "ĠJan": 7682,
      "ube": 7683,
      "Ġherbs": 7684,
      "Ġaddressed": 7685,
      "Ġstrongly": 7686,
      "Ġveter": 7687,
      "Ġcontainer": 7688,
      "Ġ$\\": 7689,
      "Ġgroundbreaking": 7690,
      "Ġdelivered": 7691,
      "Ġaligns": 7692,
      "Ġadjusting": 7693,
      "Ġinterpretations": 7694,
      "Ġsuscepti": 7695,
      "Ġsuggested": 7696,
      "Ġvictim": 7697,
      "22": 7698,
      "Mod": 7699,
      "])": 7700,
      "eat": 7701,
      "medi": 7702,
      "nov": 7703,
      "tw": 7704,
      "erts": 7705,
      "rew": 7706,
      "Ġfu": 7707,
      "Ġfly": 7708,
      "Ġgathering": 7709,
      "Ġstunning": 7710,
      "Ġacting": 7711,
      "ĠDiv": 7712,
      "atings": 7713,
      "ĠGovern": 7714,
      "Ġwilling": 7715,
      "Ġcoe": 7716,
      "ĠVal": 7717,
      "Ġbio": 7718,
      "Ġ2019": 7719,
      "Ġstrengthening": 7720,
      "Ġanalyzed": 7721,
      "ictionary": 7722,
      "Ġwarfare": 7723,
      "Ġstatements": 7724,
      "Ġstandardized": 7725,
      "Ġautomatically": 7726,
      "Ġupdate": 7727,
      "Ġreasoning": 7728,
      "Ġdatasets": 7729,
      "Ġaccompanied": 7730,
      "Ġtactics": 7731,
      "ĠConversely": 7732,
      "IP": 7733,
      "OC": 7734,
      "SS": 7735,
      "Some": 7736,
      "bor": 7737,
      "rh": 7738,
      "Ġcast": 7739,
      "iger": 7740,
      "imal": 7741,
      "imate": 7742,
      "ĠTips": 7743,
      "Ġrice": 7744,
      "Ġriver": 7745,
      "opic": 7746,
      "uality": 7747,
      "Ġclust": 7748,
      "Ġrecre": 7749,
      "Ġstudied": 7750,
      "Ġcovers": 7751,
      "ooked": 7752,
      "Ġbiom": 7753,
      "Ġadapting": 7754,
      "Ġadapted": 7755,
      "Ġsugges": 7756,
      "ĠEngaging": 7757,
      "ĠPlay": 7758,
      "oxide": 7759,
      "Ġinvestors": 7760,
      "Ġevolve": 7761,
      "Ġdocumentation": 7762,
      "Ġdegrad": 7763,
      "Ġspreading": 7764,
      "Ġgathered": 7765,
      "Ġchemicals": 7766,
      "Ġauthenticity": 7767,
      "Ġattempts": 7768,
      "Ġviruses": 7769,
      "Ġtriggers": 7770,
      "ĠCOVID": 7771,
      "dem": 7772,
      "ek": 7773,
      "nes": 7774,
      "ĊĊĠĠĠ": 7775,
      "Ġthreshold": 7776,
      "Ġcards": 7777,
      "Ġbank": 7778,
      "rote": 7779,
      "Ġnur": 7780,
      "Ġgram": 7781,
      "ĠSal": 7782,
      "riage": 7783,
      "ĠIde": 7784,
      "ĠBet": 7785,
      "ĠBased": 7786,
      "ĠPot": 7787,
      "ĠWomen": 7788,
      "Ġcontracts": 7789,
      "antly": 7790,
      "ĠEstablish": 7791,
      "ustration": 7792,
      "ensus": 7793,
      "Ġfeas": 7794,
      "Ġadvis": 7795,
      "Ġmedieval": 7796,
      "Ġdementia": 7797,
      "Ġactivation": 7798,
      "Ġmaintains": 7799,
      "Ġdiag": 7800,
      "Ġcombinations": 7801,
      "Ġpublication": 7802,
      "ĠWithout": 7803,
      "Ġviewers": 7804,
      "ĠOrig": 7805,
      "ĠControl": 7806,
      "Ġillustrating": 7807,
      "ĠMaya": 7808,
      "Ġpursuit": 7809,
      "Ġextrem": 7810,
      "Ġisolated": 7811,
      "Ġmolecules": 7812,
      "ĠDiscuss": 7813,
      "ĠSupport": 7814,
      "Ġbranches": 7815,
      "Ġpropag": 7816,
      "Ġeggs": 7817,
      "bel": 7818,
      "orph": 7819,
      "Ġbath": 7820,
      "Ġgut": 7821,
      "ĠAge": 7822,
      "roud": 7823,
      "ĠRem": 7824,
      "Ġdisrupt": 7825,
      "ĠLa": 7826,
      "ĠInv": 7827,
      "Ġsystematic": 7828,
      "Ġposed": 7829,
      "Ġfinds": 7830,
      "Ġintegrate": 7831,
      "ĠImplement": 7832,
      "Ġindicated": 7833,
      "Ġcollaborate": 7834,
      "Ġoptimize": 7835,
      "Ġlosses": 7836,
      "Ġdescribes": 7837,
      "Ġfavorable": 7838,
      "Ġdestro": 7839,
      "Ġcontrolling": 7840,
      "ĠCanadian": 7841,
      "ĠEncoura": 7842,
      "Ġofficials": 7843,
      "Ġhunting": 7844,
      "Ġmistakes": 7845,
      "ĠEmbracing": 7846,
      "Ġweapons": 7847,
      "ĠNavigating": 7848,
      "ĠDavid": 7849,
      "Lastly": 7850,
      "Ġtitle": 7851,
      "Ġpig": 7852,
      "Ġmamm": 7853,
      "Ġhole": 7854,
      "ectivity": 7855,
      "idation": 7856,
      "Ġgaming": 7857,
      "Ġforth": 7858,
      "ĠAut": 7859,
      "ustice": 7860,
      "Ġlean": 7861,
      "ĠBible": 7862,
      "ĠBusiness": 7863,
      "anting": 7864,
      "Ġinconsist": 7865,
      "Ġabnormal": 7866,
      "ĠUK": 7867,
      "Ġeffic": 7868,
      "Ġscope": 7869,
      "Ġgluc": 7870,
      "Ġdepart": 7871,
      "ossible": 7872,
      "ĠArch": 7873,
      "Ġmarvel": 7874,
      "ĠColle": 7875,
      "Ġcaptured": 7876,
      "Ġmetabol": 7877,
      "Ġsacred": 7878,
      "Ġrespiratory": 7879,
      "rish": 7880,
      "ya": 7881,
      "Ġsati": 7882,
      "Ġcrops": 7883,
      "oric": 7884,
      "Ġdrop": 7885,
      "Ġhem": 7886,
      "amination": 7887,
      "Ġdeal": 7888,
      "Ġcanc": 7889,
      "ĠDigital": 7890,
      "Ġunknown": 7891,
      "ĠLanguage": 7892,
      "Ġblog": 7893,
      "Ġbreaks": 7894,
      "Ġmuse": 7895,
      "Ġdiscovering": 7896,
      "Ġterrain": 7897,
      "Ġmechanics": 7898,
      "Ġcyber": 7899,
      "Ġimagination": 7900,
      "ĠFranc": 7901,
      "Ġpredictions": 7902,
      "Ġeliminating": 7903,
      "Ġbranch": 7904,
      "Ġsuddenly": 7905,
      "ĠAssociation": 7906,
      "Ġefficacy": 7907,
      "LA": 7908,
      "PR": 7909,
      "name": 7910,
      "Ġtur": 7911,
      "Ġsod": 7912,
      "Ġsend": 7913,
      "Ġpione": 7914,
      "Ġfestiv": 7915,
      "Ġlinks": 7916,
      "Ġforced": 7917,
      "amiliar": 7918,
      "Ġspanning": 7919,
      "Ġclient": 7920,
      "ĠOld": 7921,
      "ressions": 7922,
      "Ġphosph": 7923,
      "Ġdoor": 7924,
      "Ġscul": 7925,
      "Ġnewfound": 7926,
      "Ġsettle": 7927,
      "Ġimproves": 7928,
      "Ġseverity": 7929,
      "Ġgives": 7930,
      "Ġbasis": 7931,
      "Ġreaches": 7932,
      "Ġconstructing": 7933,
      "Ġconstructed": 7934,
      "ĠContext": 7935,
      "Ġtraveling": 7936,
      "Ġillustrated": 7937,
      "Ġautomated": 7938,
      "Ġepis": 7939,
      "Ġconfigurations": 7940,
      "Ġshowcase": 7941,
      "Ġsavings": 7942,
      "Ġempirical": 7943,
      "Ġparamount": 7944,
      "gence": 7945,
      "mber": 7946,
      "erals": 7947,
      "ato": 7948,
      "ani": 7949,
      "ida": 7950,
      "ulary": 7951,
      "Ġprove": 7952,
      "mentation": 7953,
      "Ġalmost": 7954,
      "Ġcompeting": 7955,
      "ĠFigure": 7956,
      "ĠDoes": 7957,
      "Ġwearing": 7958,
      "ustain": 7959,
      "ache": 7960,
      "anged": 7961,
      "elfare": 7962,
      "Ġposes": 7963,
      "Ġcozy": 7964,
      "Ġgradi": 7965,
      "Ġseeks": 7966,
      "Ġeco": 7967,
      "Ġunderscoring": 7968,
      "ĠService": 7969,
      "Ġvulnerability": 7970,
      "personal": 7971,
      "Ġwonderful": 7972,
      "ĠAddressing": 7973,
      "Ġstreet": 7974,
      "Ġbillion": 7975,
      "Ġoccasionally": 7976,
      "Ġunlock": 7977,
      "Ġinquiry": 7978,
      "ĠOctober": 7979,
      "Ġdegradation": 7980,
      "100": 7981,
      "no": 7982,
      "puts": 7983,
      "uity": 7984,
      "Ġce": 7985,
      "Ġbaking": 7986,
      "econd": 7987,
      "Ġreplic": 7988,
      "ĠTest": 7989,
      "Ġgap": 7990,
      "raf": 7991,
      "Ġproactive": 7992,
      "amps": 7993,
      "ifts": 7994,
      "Ġvict": 7995,
      "ĠIll": 7996,
      "Ġanthrop": 7997,
      "Ġchurch": 7998,
      "Ġsuit": 7999,
      "alled": 8000,
      "ĠDist": 8001,
      "Ġunch": 8002,
      "ĠLou": 8003,
      "Ġcarries": 8004,
      "Ġoppos": 8005,
      "ĠOnline": 8006,
      "Ġmindset": 8007,
      "Ġcybers": 8008,
      "Ġconstructive": 8009,
      "ĠOverview": 8010,
      "Ġvisitors": 8011,
      "Ġeliminate": 8012,
      "Ġcrypt": 8013,
      "Ġmysterious": 8014,
      "Ġaspiring": 8015,
      "Ġobtained": 8016,
      "ĠLiterature": 8017,
      "ĠSafety": 8018,
      "Ġadolesc": 8019,
      "App": 8020,
      "ET": 8021,
      "SC": 8022,
      "Wor": 8023,
      "ket": 8024,
      "Ġfro": 8025,
      "ĠTer": 8026,
      "ĠCath": 8027,
      "Ġalb": 8028,
      "Ġitem": 8029,
      "ĠBudd": 8030,
      "ĠFiction": 8031,
      "Ġapps": 8032,
      "Ġrecycl": 8033,
      "Ġrefine": 8034,
      "Ġdistant": 8035,
      "Ġ2020": 8036,
      "Ġestate": 8037,
      "Ġ2010": 8038,
      "Ġfriendship": 8039,
      "Ġtalent": 8040,
      "Ġtempl": 8041,
      "Ġemotionally": 8042,
      "Ġfacilitates": 8043,
      "Ġillustrates": 8044,
      "Ġreinforce": 8045,
      "Ġautomation": 8046,
      "Ġracism": 8047,
      "Ġcompromise": 8048,
      "Ġenthusias": 8049,
      "Ġmissing": 8050,
      "Ġprompting": 8051,
      "Ġprevalent": 8052,
      "Ġvessels": 8053,
      "Ġcaution": 8054,
      "field": 8055,
      "jection": 8056,
      "mo": 8057,
      "max": 8058,
      "oir": 8059,
      "vals": 8060,
      "Ġtick": 8061,
      "Ġtables": 8062,
      "onym": 8063,
      "Ġcrow": 8064,
      "ora": 8065,
      "Ġfusion": 8066,
      "array": 8067,
      "Ġmac": 8068,
      "aser": 8069,
      "Ġgate": 8070,
      "Ġstumbled": 8071,
      "empt": 8072,
      "ria": 8073,
      "uming": 8074,
      "ĠBi": 8075,
      "ĠPress": 8076,
      "ĠMac": 8077,
      "ĠMet": 8078,
      "Ġpreced": 8079,
      "Ġrecurring": 8080,
      "Ġaccounting": 8081,
      "Ġheroes": 8082,
      "Ġfloor": 8083,
      "Ġediting": 8084,
      "Ġextent": 8085,
      "Ġdepos": 8086,
      "racy": 8087,
      "Ġdiges": 8088,
      "ĠArti": 8089,
      "Ġdrives": 8090,
      "Ġclosed": 8091,
      "Ġconventions": 8092,
      "Ġseparation": 8093,
      "Ġlabels": 8094,
      "Ġdemanding": 8095,
      "Ġupdated": 8096,
      "Ġirrit": 8097,
      "Ġencompasses": 8098,
      "Sc": 8099,
      "Ġtech": 8100,
      "Ġsed": 8101,
      "aled": 8102,
      "acent": 8103,
      "Ġrational": 8104,
      "Ġstabil": 8105,
      "agnetic": 8106,
      "ĠBec": 8107,
      "ĠPop": 8108,
      "ĠMarch": 8109,
      "Ġspring": 8110,
      "ĠLong": 8111,
      "astern": 8112,
      "ĠGroup": 8113,
      "aval": 8114,
      "Ġque": 8115,
      "ancer": 8116,
      "ĠJu": 8117,
      "Ġmoderate": 8118,
      "ĠStay": 8119,
      "------------------------": 8120,
      "Ġconcrete": 8121,
      "Ġvalued": 8122,
      "Ġemploying": 8123,
      "Ġkeeps": 8124,
      "Ġcomprehend": 8125,
      "ĠBeing": 8126,
      "Ġhygiene": 8127,
      "Ġapplies": 8128,
      "ometers": 8129,
      "Ġadvocate": 8130,
      "Ġsearching": 8131,
      "Ġsouthern": 8132,
      "Ġlabeled": 8133,
      "Ġtumor": 8134,
      "Ġreputation": 8135,
      "Ġmemorable": 8136,
      "Ġunnecessary": 8137,
      "Ġbiodiversity": 8138,
      "Ġperseverance": 8139,
      "From": 8140,
      "Reg": 8141,
      "well": 8142,
      "{\\": 8143,
      "including": 8144,
      "Ġcodes": 8145,
      "orient": 8146,
      "Ġouter": 8147,
      "Ġwin": 8148,
      "uris": 8149,
      "Ġnose": 8150,
      "iders": 8151,
      "Ġstuff": 8152,
      "ĠCong": 8153,
      "anda": 8154,
      "umps": 8155,
      "ĠMach": 8156,
      "Ġinterval": 8157,
      "Ġarms": 8158,
      "phone": 8159,
      "Ġnumpy": 8160,
      "Ġcriticism": 8161,
      "Ġ194": 8162,
      "Ġemotion": 8163,
      "Ġmeters": 8164,
      "Ġretail": 8165,
      "Ġretrie": 8166,
      "Ġreflective": 8167,
      "Ġreligions": 8168,
      "Ġdisplayed": 8169,
      "tify": 8170,
      "Ġhonor": 8171,
      "ĠCommunity": 8172,
      "Ġcarrying": 8173,
      "Ġrespective": 8174,
      "Ġgirls": 8175,
      "Ġgastro": 8176,
      "ĠVisual": 8177,
      "Ġneutral": 8178,
      "Ġtackle": 8179,
      "Ġcredibility": 8180,
      "ĠAugust": 8181,
      "FT": 8182,
      "He": 8183,
      "IC": 8184,
      "Ġtied": 8185,
      "ontal": 8186,
      "arn": 8187,
      "ictions": 8188,
      "Ġneck": 8189,
      "Ġgun": 8190,
      "Ġsto": 8191,
      "Ġstorm": 8192,
      "amber": 8193,
      "Ġchose": 8194,
      "ploys": 8195,
      "Ġacute": 8196,
      "ĠMary": 8197,
      "ĠEU": 8198,
      "Ġaband": 8199,
      "Ġmeets": 8200,
      "cium": 8201,
      "angle": 8202,
      "Ġbutter": 8203,
      "Ġagree": 8204,
      "Ġscales": 8205,
      "ĠYes": 8206,
      "Ġtwist": 8207,
      "Ġgrown": 8208,
      "Ġmembr": 8209,
      "Ġentering": 8210,
      "Ġbiases": 8211,
      "Ġdirections": 8212,
      "Ġpressures": 8213,
      "Ġ2000": 8214,
      "ĠAtt": 8215,
      "Ġprecisely": 8216,
      "Ġinvestments": 8217,
      "199": 8218,
      "Ġhydrogen": 8219,
      "ĠEvalu": 8220,
      "ĠSociety": 8221,
      "Ġcandidates": 8222,
      "Ġversatile": 8223,
      "Ġtutorial": 8224,
      "uation": 8225,
      "Ġpin": 8226,
      "Ġpow": 8227,
      "Ġfictional": 8228,
      "Ġdie": 8229,
      "Ġbiblical": 8230,
      "Ġforever": 8231,
      "ĠSuccess": 8232,
      "Ġvaries": 8233,
      "osh": 8234,
      "ĠCur": 8235,
      "ĠDo": 8236,
      "Ġclues": 8237,
      "Ġtiming": 8238,
      "ĠChange": 8239,
      "Ġvaried": 8240,
      "Ġoblig": 8241,
      "Ġextraction": 8242,
      "Ġends": 8243,
      "jective": 8244,
      "Ġeconomies": 8245,
      "Ġtalents": 8246,
      "ĠPlace": 8247,
      "Ġseconds": 8248,
      "Ġjoining": 8249,
      "Ġsynthetic": 8250,
      "Ġunderscore": 8251,
      "Ġadvocacy": 8252,
      "Ġburden": 8253,
      "Ġpursuing": 8254,
      "Ġconvert": 8255,
      "ĠDecember": 8256,
      "Ġterritory": 8257,
      "Ġillnesses": 8258,
      "Ġiconic": 8259,
      "Ġaccepted": 8260,
      "Ġpermanent": 8261,
      "IM": 8262,
      "gans": 8263,
      "lity": 8264,
      "alk": 8265,
      "Ġhob": 8266,
      "Ġproficiency": 8267,
      "ĠASD": 8268,
      "ĠSou": 8269,
      "ĠProm": 8270,
      "ĠMind": 8271,
      "ĠRather": 8272,
      "Ġdispos": 8273,
      "ĠGr": 8274,
      "ĠNone": 8275,
      "heim": 8276,
      "erging": 8277,
      "Ġblending": 8278,
      "Ġ35": 8279,
      "aws": 8280,
      "Ġrealize": 8281,
      "aterials": 8282,
      "Ġmusicians": 8283,
      "Ġgrace": 8284,
      "Ġwonders": 8285,
      "value": 8286,
      "Ġstruggling": 8287,
      "Ġnorth": 8288,
      "ĠSuper": 8289,
      "ĠTraditional": 8290,
      "Ġresidential": 8291,
      "Ġannually": 8292,
      "Ġsmartphones": 8293,
      "Ġpanel": 8294,
      "Ġsafeguard": 8295,
      "ĠGlobal": 8296,
      "Ġbridge": 8297,
      "Ġultr": 8298,
      "Ġadvertising": 8299,
      "Ġsoldiers": 8300,
      "29": 8301,
      "Well": 8302,
      "ael": 8303,
      "eem": 8304,
      "sor": 8305,
      "yroid": 8306,
      "Ġsenti": 8307,
      "ilib": 8308,
      "Ġnerve": 8309,
      "ĠTake": 8310,
      "Ġgal": 8311,
      "ulative": 8312,
      "rier": 8313,
      "Ġalive": 8314,
      "Ġalien": 8315,
      "chain": 8316,
      "ĠEr": 8317,
      "ĠFil": 8318,
      "Ġemploys": 8319,
      "Ġclick": 8320,
      "ĠOper": 8321,
      "Ġregulate": 8322,
      "ĠJames": 8323,
      "ĠJune": 8324,
      "ĠStory": 8325,
      "venues": 8326,
      "Ġcompleting": 8327,
      "bris": 8328,
      "Ġcurve": 8329,
      "Ġmarkers": 8330,
      "Ġrestaur": 8331,
      "Ġaiming": 8332,
      "ovember": 8333,
      "Ġachievement": 8334,
      "ĠAcad": 8335,
      "Ġprivile": 8336,
      "Ġmisu": 8337,
      "Ġcataly": 8338,
      "Ġestimated": 8339,
      "ĠSpecial": 8340,
      "Ġaccumulation": 8341,
      "Ġlatest": 8342,
      "Ġcompatibility": 8343,
      "Ġshelter": 8344,
      "Ġdismiss": 8345,
      "Ġtolerance": 8346,
      "Ġchicken": 8347,
      ")**": 8348,
      "ND": 8349,
      "PT": 8350,
      "etit": 8351,
      "fall": 8352,
      "frac": 8353,
      "part": 8354,
      "rons": 8355,
      "ye": 8356,
      "orically": 8357,
      "atable": 8358,
      "ician": 8359,
      "Ġrewards": 8360,
      "Ġlap": 8361,
      "Ġnerv": 8362,
      "Ġgrief": 8363,
      "Ġyog": 8364,
      "abb": 8365,
      "abulary": 8366,
      "Ġcomic": 8367,
      "ĠCri": 8368,
      "Ġdeals": 8369,
      "Ġdebris": 8370,
      "ĠBody": 8371,
      "ĠPay": 8372,
      "ĠWind": 8373,
      "ĠTheory": 8374,
      "ĠDue": 8375,
      "ĠRich": 8376,
      "Ġlip": 8377,
      "Ġtransmit": 8378,
      "Ġdiscl": 8379,
      "aker": 8380,
      "Ġtwice": 8381,
      "Ġsimulation": 8382,
      "Ġinstability": 8383,
      "Ġpersonnel": 8384,
      "Ġproduces": 8385,
      "Ġextending": 8386,
      "Ġcareers": 8387,
      "Ġowners": 8388,
      "Ġphysics": 8389,
      "Ġemployee": 8390,
      "Ġincorporated": 8391,
      "Ġvisualization": 8392,
      "Ġsuperher": 8393,
      "Ġwarrant": 8394,
      "Ġresilient": 8395,
      "Ġreturned": 8396,
      "Ġconsuming": 8397,
      "Ġviable": 8398,
      "Ġappealing": 8399,
      "Ġlaboratory": 8400,
      "Ġunfamiliar": 8401,
      "ĠGuid": 8402,
      "ĠNotably": 8403,
      "Ġattributes": 8404,
      "Ġimplant": 8405,
      "Ġhistorically": 8406,
      "Ġprosper": 8407,
      "Ġattempting": 8408,
      "ĠUpon": 8409,
      "ĠLittle": 8410,
      "('": 8411,
      "mers": 8412,
      "zil": 8413,
      "âģ": 8414,
      "inance": 8415,
      "tire": 8416,
      "Ġcin": 8417,
      "orge": 8418,
      "Ġpaid": 8419,
      "Ġfans": 8420,
      "Ġbattle": 8421,
      "ticular": 8422,
      "Ġincident": 8423,
      "Ġdisability": 8424,
      "Ġinterdisciplinary": 8425,
      "Ġ23": 8426,
      "Ġscar": 8427,
      "Ġconnectivity": 8428,
      "Ġprofit": 8429,
      "That": 8430,
      "Ġearning": 8431,
      "Ġincorporates": 8432,
      "Ġfailed": 8433,
      "Ġlogical": 8434,
      "Ġmajority": 8435,
      "Ġstrike": 8436,
      "Beyond": 8437,
      "Ġdiscipline": 8438,
      "Ġantibio": 8439,
      "ĠPrior": 8440,
      "Ġsurveillance": 8441,
      "Ġpricing": 8442,
      "Ġequivalent": 8443,
      "ĠCollege": 8444,
      "Me": 8445,
      "gl": 8446,
      "table": 8447,
      "inf": 8448,
      "erved": 8449,
      "Ġproud": 8450,
      "itative": 8451,
      "Ġfirms": 8452,
      "Ġhur": 8453,
      "Ġlosing": 8454,
      "thes": 8455,
      "Ġrou": 8456,
      "ota": 8457,
      "ocation": 8458,
      "ĠEss": 8459,
      "Ġcreature": 8460,
      "Ġtransaction": 8461,
      "ĠChurch": 8462,
      "Ġscatter": 8463,
      "Ġsimilarly": 8464,
      "Ġdipl": 8465,
      "Ġlimiting": 8466,
      "Ġtreats": 8467,
      "Ġpassive": 8468,
      "Ġterror": 8469,
      "ĠEns": 8470,
      "Ġdriver": 8471,
      "Ġadaptations": 8472,
      "Ġlifel": 8473,
      "Ġepid": 8474,
      "Ġhydro": 8475,
      "Ġnuances": 8476,
      "Ġaesthetics": 8477,
      "Ġgirl": 8478,
      "Ġskep": 8479,
      "Ġtangible": 8480,
      "Ġinequality": 8481,
      "Ġentrepreneurs": 8482,
      "Ġhesit": 8483,
      "auc": 8484,
      "dens": 8485,
      "made": 8486,
      "zen": 8487,
      "Ġfalse": 8488,
      "isp": 8489,
      "Ġbot": 8490,
      "Ġbones": 8491,
      "Ġlists": 8492,
      "Ġexh": 8493,
      "ago": 8494,
      "ĠSelf": 8495,
      "occ": 8496,
      "izer": 8497,
      "ĠBr": 8498,
      "ĠBrit": 8499,
      "ĠPost": 8500,
      "ĠPaul": 8501,
      "Ġcompris": 8502,
      "ello": 8503,
      "Ġimpossible": 8504,
      "orship": 8505,
      "ounted": 8506,
      "Ġages": 8507,
      "Ġnotion": 8508,
      "Ġpolar": 8509,
      "Ġiden": 8510,
      "ietnam": 8511,
      "Ġessay": 8512,
      "ĠUnfortunately": 8513,
      "Ġmethodologies": 8514,
      "Ġpurs": 8515,
      "Ġanalytics": 8516,
      "Ġdistinction": 8517,
      "Ġ2007": 8518,
      "Ġflows": 8519,
      "Ġoneself": 8520,
      "Ġsurviv": 8521,
      "Ġpolynomial": 8522,
      "spective": 8523,
      "acco": 8524,
      "Ġarchitectural": 8525,
      "Ġseasonal": 8526,
      "Ġschedule": 8527,
      "Ġsentence": 8528,
      "Ġremoved": 8529,
      "ĠPrin": 8530,
      "ĠOften": 8531,
      "Ġapparent": 8532,
      "Ġdisagre": 8533,
      "inely": 8534,
      "alg": 8535,
      "Ġwelfare": 8536,
      "Ġfram": 8537,
      "Ġfather": 8538,
      "Ġbold": 8539,
      "Ġbinary": 8540,
      "Ġhards": 8541,
      "Ġreass": 8542,
      "illy": 8543,
      "ĠTom": 8544,
      "Ġdear": 8545,
      "ĠFind": 8546,
      "Ġuniqu": 8547,
      "Ġmanner": 8548,
      "rowing": 8549,
      "Ġscore": 8550,
      "class": 8551,
      "Ġpoem": 8552,
      "Ġdemographic": 8553,
      "Ġgenerates": 8554,
      "Ġgratitude": 8555,
      "awareness": 8556,
      "Ġassociation": 8557,
      "Ġcharacteristic": 8558,
      "Ġvertical": 8559,
      "Ġembry": 8560,
      "Ġbalancing": 8561,
      "Ġconceptual": 8562,
      "Ġwondering": 8563,
      "ĠQue": 8564,
      "Ġfundament": 8565,
      "Ġpaying": 8566,
      "Ġdrink": 8567,
      "Ġpackaging": 8568,
      "Ġevolutionary": 8569,
      "Ġhearts": 8570,
      "Ġcompassionate": 8571,
      "Ġquantities": 8572,
      "Ġtherapies": 8573,
      "Ġlegislation": 8574,
      "Ġecho": 8575,
      "Ġdestruction": 8576,
      "BC": 8577,
      "Hz": 8578,
      "comm": 8579,
      "vas": 8580,
      "Ġfell": 8581,
      "Ġdrain": 8582,
      "ominant": 8583,
      "Ġrevenue": 8584,
      "Ġlose": 8585,
      "urable": 8586,
      "ila": 8587,
      "ulin": 8588,
      "ĠThose": 8589,
      "ĠSpir": 8590,
      "itim": 8591,
      "anship": 8592,
      "ipher": 8593,
      "ava": 8594,
      "Ġrelation": 8595,
      "Ġproven": 8596,
      "Ġvariation": 8597,
      "Ġdifferenti": 8598,
      "Ġopens": 8599,
      "Ġhero": 8600,
      "Ġdelivers": 8601,
      "Ġgrains": 8602,
      "overs": 8603,
      "Ġprevents": 8604,
      "ĠIndividuals": 8605,
      "Ġgranted": 8606,
      "Ġreflected": 8607,
      "Ġempowers": 8608,
      "Ġoccurring": 8609,
      "Ġlargest": 8610,
      "Ġdivision": 8611,
      "Ġreplace": 8612,
      "Expl": 8613,
      "ĠPerform": 8614,
      "Ġacquisition": 8615,
      "Ġdefinition": 8616,
      "Ġaffordable": 8617,
      "Ġmanufacturers": 8618,
      "ĠRecognizing": 8619,
      "Ġdeliberate": 8620,
      "Ġdisputes": 8621,
      "Ġalleviate": 8622,
      "Ġfluctuations": 8623,
      "ropriate": 8624,
      "Ġsculpt": 8625,
      "75": 8626,
      "IT": 8627,
      "Tim": 8628,
      "eal": 8629,
      "ki": 8630,
      "Ġtip": 8631,
      "Ġtire": 8632,
      "Ġfan": 8633,
      "Ġbanks": 8634,
      "Ġforg": 8635,
      "ĠAR": 8636,
      "Ġorgans": 8637,
      "Ġleaf": 8638,
      "Ġshoes": 8639,
      "perform": 8640,
      "ĠLastly": 8641,
      "Ġclay": 8642,
      "ĠInves": 8643,
      "ĠNext": 8644,
      "Ġaged": 8645,
      "ountry": 8646,
      "Ġrealistic": 8647,
      "iliation": 8648,
      "Ġeconomics": 8649,
      "Ġcalcium": 8650,
      "ĠEmily": 8651,
      "Ġcirculation": 8652,
      "Ġresulted": 8653,
      "Ġentity": 8654,
      "Ġnorthern": 8655,
      "Ġnutritional": 8656,
      "Ġpositioned": 8657,
      "Ġfeatured": 8658,
      "Ġcomparison": 8659,
      "Ġconcentrations": 8660,
      "ĠServices": 8661,
      "Ġjuice": 8662,
      "Ġtrigger": 8663,
      "Ġpeaceful": 8664,
      "Ġabsorption": 8665,
      "Ġexperimentation": 8666,
      "Ġhormone": 8667,
      "Ġseamlessly": 8668,
      "Ġreconc": 8669,
      "ĠAvoid": 8670,
      "Ġrenowned": 8671,
      "ĠPortug": 8672,
      "ĠEgypt": 8673,
      "Ġpretty": 8674,
      "Ġglucose": 8675,
      "comp": 8676,
      "face": 8677,
      "fits": 8678,
      "produc": 8679,
      "with": 8680,
      "ala": 8681,
      "Ġfra": 8682,
      "ano": 8683,
      "Ġles": 8684,
      "olf": 8685,
      "Ġupl": 8686,
      "irming": 8687,
      "ĠCE": 8688,
      "ocument": 8689,
      "unt": 8690,
      "Ġcompact": 8691,
      "Ġcompound": 8692,
      "Ġcompetit": 8693,
      "Ġpride": 8694,
      "ĠRights": 8695,
      "Ġcoal": 8696,
      "Ġdetected": 8697,
      "ĠVietnam": 8698,
      "Ġbread": 8699,
      "ractive": 8700,
      "azz": 8701,
      "Ġregarded": 8702,
      "Ġlayout": 8703,
      "Ġempath": 8704,
      "aneous": 8705,
      "Ġspirits": 8706,
      "ĠClimate": 8707,
      "Ġfailures": 8708,
      "ĠSea": 8709,
      "Ġestimates": 8710,
      "oken": 8711,
      "Ġdissem": 8712,
      "ambling": 8713,
      "Ġexploitation": 8714,
      "Ġcounseling": 8715,
      "stein": 8716,
      "Ġexplorers": 8717,
      "Ġdirected": 8718,
      "ĠDrawing": 8719,
      "DA": 8720,
      "disc": 8721,
      "fol": 8722,
      "gu": 8723,
      "requ": 8724,
      "Ġinfer": 8725,
      "ola": 8726,
      "Ġvel": 8727,
      "ĠIT": 8728,
      "Ġchances": 8729,
      "apor": 8730,
      "Ġimbal": 8731,
      "ĠEffective": 8732,
      "Ġneur": 8733,
      "Ġneither": 8734,
      "ipe": 8735,
      "Ġinterpersonal": 8736,
      "ĠInnov": 8737,
      "ĠNovember": 8738,
      "Ġprejud": 8739,
      "Ġ26": 8740,
      "Ġnoting": 8741,
      "ĠJuly": 8742,
      "rices": 8743,
      "aked": 8744,
      "Ġscores": 8745,
      "Ġbuff": 8746,
      "bruary": 8747,
      "Ġdefault": 8748,
      "ĠImpro": 8749,
      "Ġinvestigations": 8750,
      "Ġbrains": 8751,
      "Ġwarming": 8752,
      "Ġsynthesis": 8753,
      "Ġappeared": 8754,
      "Ġinstallation": 8755,
      "ĠMethod": 8756,
      "Ġromance": 8757,
      "Ġmilest": 8758,
      "Ġrevolutionary": 8759,
      "Ġrhythm": 8760,
      "ĠMexico": 8761,
      "Ġsocioeconomic": 8762,
      "Ġprescrib": 8763,
      "Ġaftern": 8764,
      "ĠTexas": 8765,
      "ĠJanuary": 8766,
      ":*": 8767,
      "No": 8768,
      "Our": 8769,
      "iers": 8770,
      "rary": 8771,
      "Ġcart": 8772,
      "reated": 8773,
      "Ġmic": 8774,
      "Ġmice": 8775,
      "Ġbatt": 8776,
      "Ġyellow": 8777,
      "unk": 8778,
      "Ġinteg": 8779,
      "Ġweigh": 8780,
      "ĠGood": 8781,
      "aternal": 8782,
      "Ġmoved": 8783,
      "ĠVir": 8784,
      "Ġminerals": 8785,
      "--------------------": 8786,
      "Ġfinance": 8787,
      "azon": 8788,
      "Ġearn": 8789,
      "Ġtransformations": 8790,
      "Ġviewed": 8791,
      "ĠQues": 8792,
      "ĠSpace": 8793,
      "Ġsteel": 8794,
      "Ġroutes": 8795,
      "Ġcelebrating": 8796,
      "ĠStruct": 8797,
      "Ġconstantly": 8798,
      "Ġchannel": 8799,
      "Ġdeployment": 8800,
      "Ġdemocratic": 8801,
      "Ġvillage": 8802,
      "Ġlaughter": 8803,
      "Ġorientation": 8804,
      "depth": 8805,
      "ĠAtlantic": 8806,
      "ilibrium": 8807,
      "eff": 8808,
      "gender": 8809,
      "hist": 8810,
      "mm": 8811,
      "rators": 8812,
      "Ġfinger": 8813,
      "olves": 8814,
      "Ġstone": 8815,
      "ague": 8816,
      "osity": 8817,
      "Ġchest": 8818,
      "unting": 8819,
      "ourts": 8820,
      "oung": 8821,
      "ounce": 8822,
      "Ġrecall": 8823,
      "Ġmodes": 8824,
      "Ġrequest": 8825,
      "Ġpoin": 8826,
      "Ġpool": 8827,
      "Ġwellness": 8828,
      "ommy": 8829,
      "Ġcarro": 8830,
      "ĠProcess": 8831,
      "Ġprinting": 8832,
      "Ġviewpoints": 8833,
      "ĠApplying": 8834,
      "Ġfilling": 8835,
      "Ġkinds": 8836,
      "Ġmeetings": 8837,
      "Ġmomentum": 8838,
      "Ġclarify": 8839,
      "Ġneighbors": 8840,
      "Ġfantasy": 8841,
      "Ġpurchasing": 8842,
      "ĠFamiliar": 8843,
      "ĠCouncil": 8844,
      "Ġlicens": 8845,
      "Ġexplanation": 8846,
      "Ġinterviews": 8847,
      "ĠChildren": 8848,
      "Ġfossil": 8849,
      "Ġstewardship": 8850,
      "'d": 8851,
      "AI": 8852,
      "\\_": 8853,
      "box": 8854,
      "esh": 8855,
      "Ġson": 8856,
      "Ġcrop": 8857,
      "Ġdust": 8858,
      "asound": 8859,
      "ilation": 8860,
      "Ġstood": 8861,
      "Ġstock": 8862,
      "Ġwhom": 8863,
      "ĠCam": 8864,
      "ĠCivil": 8865,
      "Ġchains": 8866,
      "apse": 8867,
      "ĠBer": 8868,
      "gebra": 8869,
      "ĠOcean": 8870,
      "ĠGold": 8871,
      "ĠJud": 8872,
      "Ġsupplements": 8873,
      "ĠChic": 8874,
      "Ġaccident": 8875,
      "Ġsurge": 8876,
      "Ġdownload": 8877,
      "Ġopened": 8878,
      "Ġsimilarities": 8879,
      "Ġpapers": 8880,
      "Ġsteam": 8881,
      "ĠChristians": 8882,
      "ĠComb": 8883,
      "Ġrecipe": 8884,
      "Ġtranslation": 8885,
      "Ġarrangement": 8886,
      "Ġaggressive": 8887,
      "Ġdistinguish": 8888,
      "Ġphrase": 8889,
      "ineteenth": 8890,
      "Ġvocabulary": 8891,
      "havior": 8892,
      "ĠEncouraging": 8893,
      "PD": 8894,
      "author": 8895,
      "date": 8896,
      "np": 8897,
      "van": 8898,
      "west": 8899,
      "zone": 8900,
      "tian": 8901,
      "Ġwel": 8902,
      "itals": 8903,
      "ectious": 8904,
      "ĠWord": 8905,
      "ĠWrite": 8906,
      "ĠEnd": 8907,
      "Ġplacement": 8908,
      "ferent": 8909,
      "ĠLo": 8910,
      "ĠLatin": 8911,
      "Ġindeed": 8912,
      "ĠOthers": 8913,
      "Ġmanusc": 8914,
      "entially": 8915,
      "Ġrelate": 8916,
      "Ġoutbre": 8917,
      "soft": 8918,
      "Ġaging": 8919,
      "intestinal": 8920,
      "Ġ195": 8921,
      "plicity": 8922,
      "Ġnavigation": 8923,
      "Ġcompositions": 8924,
      "------------------------------------": 8925,
      "Ġdestination": 8926,
      "Ġacknowledged": 8927,
      "ĠGeneral": 8928,
      "Ġhouses": 8929,
      "ĠFebruary": 8930,
      "Ġdivided": 8931,
      "Ġsplit": 8932,
      "eptember": 8933,
      "Ġbaby": 8934,
      "Ġnodded": 8935,
      "Life": 8936,
      "body": 8937,
      "elect": 8938,
      "fast": 8939,
      "gent": 8940,
      "text": 8941,
      "vant": 8942,
      "Ã¶": 8943,
      "Ġtast": 8944,
      "estic": 8945,
      "Ġcash": 8946,
      "Ġdense": 8947,
      "Ġhurt": 8948,
      "Ġrecept": 8949,
      "Ġgiant": 8950,
      "ulting": 8951,
      "ĠSection": 8952,
      "ader": 8953,
      "ĠID": 8954,
      "ford": 8955,
      "ĠBook": 8956,
      "Ġseems": 8957,
      "Ġunpre": 8958,
      "ĠLim": 8959,
      "lected": 8960,
      "ĠUk": 8961,
      "ulty": 8962,
      "overing": 8963,
      "ĠJack": 8964,
      "berg": 8965,
      "rows": 8966,
      "rowth": 8967,
      "Ġsmile": 8968,
      "Ġconfron": 8969,
      "ĠVol": 8970,
      "conduc": 8971,
      "Ġfacility": 8972,
      "away": 8973,
      "Ġsciences": 8974,
      "Ġeleg": 8975,
      "Ġsymmet": 8976,
      "Ġwriter": 8977,
      "ĠEnergy": 8978,
      "Ġsupernatural": 8979,
      "Ġdraws": 8980,
      "Ġdrinking": 8981,
      "Ġexhibited": 8982,
      "ĠTraining": 8983,
      "Ġangle": 8984,
      "Ġgardening": 8985,
      "ĠCommunication": 8986,
      "Ġintersection": 8987,
      "ĠMuslim": 8988,
      "Ġvaccine": 8989,
      "Ġpuzzle": 8990,
      "Ġhazard": 8991,
      "Ġloyalty": 8992,
      "Ġidentical": 8993,
      "Ġafternoon": 8994,
      "90": 8995,
      "IG": 8996,
      "Many": 8997,
      "building": 8998,
      "wl": 8999,
      "Ġion": 9000,
      "Ġtor": 9001,
      "Ġastr": 9002,
      "estim": 9003,
      "Ġpond": 9004,
      "olute": 9005,
      "imm": 9006,
      "ĠTry": 9007,
      "Ġaside": 9008,
      "utter": 9009,
      "ĠCulture": 9010,
[...]
