{
  "version": "1.0",
  "truncation": null,
  "padding": null,
  "added_tokens": [
    {
      "id": 0,
      "content": "<s>",
      "single_word": false,
      "lstrip": false,
      "rstrip": false,
      "normalized": true,
      "special": true
    },
    {
      "id": 1,
      "content": "<pad>",
      "single_word": false,
      "lstrip": false,
      "rstrip": false,
      "normalized": true,
      "special": true
    },
    {
      "id": 2,
      "content": "</s>",
      "single_word": false,
      "lstrip": false,
      "rstrip": false,
      "normalized": true,
      "special": true
    },
    {
      "id": 3,
      "content": "<unk>",
      "single_word": false,
      "lstrip": false,
      "rstrip": false,
      "normalized": true,
      "special": true
    },
    {
      "id": 4,
      "content": "<mask>",
      "single_word": false,
      "lstrip": true,
      "rstrip": false,
      "normalized": true,
      "special": true
    }
  ],
  "normalizer": null,
  "pre_tokenizer": {
    "type": "ByteLevel",
    "add_prefix_space": false,
    "trim_offsets": true,
    "use_regex": true
  },
  "post_processor": {
    "type": "RobertaProcessing",
    "sep": [
      "</s>",
      2
    ],
    "cls": [
      "<s>",
      0
    ],
    "trim_offsets": true,
    "add_prefix_space": false
  },
  "decoder": {
    "type": "ByteLevel",
    "add_prefix_space": true,
    "trim_offsets": true,
    "use_regex": true
  },
  "model": {
    "type": "BPE",
    "dropout": null,
    "unk_token": null,
    "continuing_subword_prefix": "",
    "end_of_word_suffix": "",
    "fuse_unk": false,
    "byte_fallback": false,
    "ignore_merges": false,
    "vocab": {
      "<s>": 0,
      "<pad>": 1,
      "</s>": 2,
      "<unk>": 3,
      "<mask>": 4,
      "!": 5,
      "\"": 6,
      "#": 7,
      "$": 8,
      "%": 9,
      "&": 10,
      "'": 11,
      "(": 12,
      ")": 13,
      "*": 14,
      "+": 15,
      ",": 16,
      "-": 17,
      ".": 18,
      "/": 19,
      "0": 20,
      "1": 21,
      "2": 22,
      "3": 23,
      "4": 24,
      "5": 25,
      "6": 26,
      "7": 27,
      "8": 28,
      "9": 29,
      ":": 30,
      ";": 31,
      "<": 32,
      "=": 33,
      ">": 34,
      "?": 35,
      "@": 36,
      "A": 37,
      "B": 38,
      "C": 39,
      "D": 40,
      "E": 41,
      "F": 42,
      "G": 43,
      "H": 44,
      "I": 45,
      "J": 46,
      "K": 47,
      "L": 48,
      "M": 49,
      "N": 50,
      "O": 51,
      "P": 52,
      "Q": 53,
      "R": 54,
      "S": 55,
      "T": 56,
      "U": 57,
      "V": 58,
      "W": 59,
      "X": 60,
      "Y": 61,
      "Z": 62,
      "[": 63,
      "\\": 64,
      "]": 65,
      "^": 66,
      "_": 67,
      "`": 68,
      "a": 69,
      "b": 70,
      "c": 71,
      "d": 72,
      "e": 73,
      "f": 74,
      "g": 75,
      "h": 76,
      "i": 77,
      "j": 78,
      "k": 79,
      "l": 80,
      "m": 81,
      "n": 82,
      "o": 83,
      "p": 84,
      "q": 85,
      "r": 86,
      "s": 87,
      "t": 88,
      "u": 89,
      "v": 90,
      "w": 91,
      "x": 92,
      "y": 93,
      "z": 94,
      "{": 95,
      "|": 96,
      "}": 97,
      "~": 98,
      "¡": 99,
      "¢": 100,
      "£": 101,
      "¤": 102,
      "¥": 103,
      "¦": 104,
      "§": 105,
      "¨": 106,
      "©": 107,
      "ª": 108,
      "«": 109,
      "¬": 110,
      "®": 111,
      "¯": 112,
      "°": 113,
      "±": 114,
      "²": 115,
      "³": 116,
      "´": 117,
      "µ": 118,
      "¶": 119,
      "·": 120,
      "¸": 121,
      "¹": 122,
      "º": 123,
      "»": 124,
      "¼": 125,
      "½": 126,
      "¾": 127,
      "¿": 128,
      "À": 129,
      "Á": 130,
      "Â": 131,
      "Ã": 132,
      "Ä": 133,
      "Å": 134,
      "Æ": 135,
      "Ç": 136,
      "È": 137,
      "É": 138,
      "Ê": 139,
      "Ë": 140,
      "Ì": 141,
      "Í": 142,
      "Î": 143,
      "Ï": 144,
      "Ð": 145,
      "Ñ": 146,
      "Ò": 147,
      "Ó": 148,
      "Ô": 149,
      "Õ": 150,
      "Ö": 151,
      "×": 152,
      "Ø": 153,
      "Ù": 154,
      "Ú": 155,
      "Û": 156,
      "Ü": 157,
      "Ý": 158,
      "Þ": 159,
      "ß": 160,
      "à": 161,
      "á": 162,
      "â": 163,
      "ã": 164,
      "ä": 165,
      "å": 166,
      "æ": 167,
      "ç": 168,
      "è": 169,
      "é": 170,
      "ê": 171,
      "ë": 172,
      "ì": 173,
      "í": 174,
      "î": 175,
      "ï": 176,
      "ð": 177,
      "ñ": 178,
      "ò": 179,
      "ó": 180,
      "ô": 181,
      "õ": 182,
      "ö": 183,
      "÷": 184,
      "ø": 185,
      "ù": 186,
      "ú": 187,
      "û": 188,
      "ü": 189,
      "ý": 190,
      "þ": 191,
      "ÿ": 192,
      "Ā": 193,
      "ā": 194,
      "Ă": 195,
      "ă": 196,
      "Ą": 197,
      "ą": 198,
      "Ć": 199,
      "ć": 200,
      "Ĉ": 201,
      "ĉ": 202,
      "Ċ": 203,
      "ċ": 204,
      "Č": 205,
      "č": 206,
      "Ď": 207,
      "ď": 208,
      "Đ": 209,
      "đ": 210,
      "Ē": 211,
      "ē": 212,
      "Ĕ": 213,
      "ĕ": 214,
      "Ė": 215,
      "ė": 216,
      "Ę": 217,
      "ę": 218,
      "Ě": 219,
      "ě": 220,
      "Ĝ": 221,
      "ĝ": 222,
      "Ğ": 223,
      "ğ": 224,
      "Ġ": 225,
      "ġ": 226,
      "Ģ": 227,
      "ģ": 228,
      "Ĥ": 229,
      "ĥ": 230,
      "Ħ": 231,
      "ħ": 232,
      "Ĩ": 233,
      "ĩ": 234,
      "Ī": 235,
      "ī": 236,
      "Ĭ": 237,
      "ĭ": 238,
      "Į": 239,
      "į": 240,
      "İ": 241,
      "ı": 242,
      "Ĳ": 243,
      "ĳ": 244,
      "Ĵ": 245,
      "ĵ": 246,
      "Ķ": 247,
      "ķ": 248,
      "ĸ": 249,
      "Ĺ": 250,
      "ĺ": 251,
      "Ļ": 252,
      "ļ": 253,
      "Ľ": 254,
      "ľ": 255,
      "Ŀ": 256,
      "ŀ": 257,
      "Ł": 258,
      "ł": 259,
      "Ń": 260,
      "in": 261,
      "Ġt": 262,
      "Ġa": 263,
      "er": 264,
      "on": 265,
      "es": 266,
      "en": 267,
      "ti": 268,
      "ing": 269,
      "Ġc": 270,
      "Ġs": 271,
      "or": 272,
      "Ġth": 273,
      "al": 274,
      "nd": 275,
      "re": 276,
      "Ġp": 277,
      "it": 278,
      "Ġo": 279,
      "at": 280,
      "an": 281,
      "Ġthe": 282,
      "ed": 283,
      "tion": 284,
      "Ġand": 285,
      "Ġin": 286,
      "Ġf": 287,
      "ro": 288,
      "ar": 289,
      "is": 290,
      "Ġw": 291,
      "Ġd": 292,
      "Ġm": 293,
      "le": 294,
      "Ġb": 295,
      "Ġto": 296,
      "ou": 297,
      "ic": 298,
      "ent": 299,
      "Ġe": 300,
      "Ġof": 301,
      "st": 302,
      "Ġh": 303,
      "om": 304,
      "ation": 305,
      "el": 306,
      "ec": 307,
      "ac": 308,
      "Ġre": 309,
      "ur": 310,
      "il": 311,
      "et": 312,
      "ers": 313,
      "Ġl": 314,
      "ess": 315,
      "ly": 316,
      "id": 317,
      "ig": 318,
      "ol": 319,
      "as": 320,
      "ce": 321,
      "ve": 322,
      "Ġcon": 323,
      "Ġu": 324,
      "im": 325,
      "th": 326,
      "Ġpro": 327,
      "Ġst": 328,
      "Ġn": 329,
      "ul": 330,
      "Ġg": 331,
      "ow": 332,
      "ment": 333,
      "--": 334,
      "ir": 335,
      "Ġr": 336,
      "uc": 337,
      "Ġfor": 338,
      "Ġex": 339,
      "ĠT": 340,
      "ver": 341,
      "ts": 342,
      "ra": 343,
      "ity": 344,
      "ab": 345,
      "Ġcom": 346,
      "ĠA": 347,
      "ith": 348,
      "Ġwh": 349,
      "ate": 350,
      "us": 351,
      "Ġen": 352,
      "ĠC": 353,
      "ĠS": 354,
      "Ġv": 355,
      "am": 356,
      "ut": 357,
      "ag": 358,
      "ter": 359,
      "Ġon": 360,
      "pp": 361,
      "Ġwith": 362,
      "ay": 363,
      "qu": 364,
      "tic": 365,
      "Ġas": 366,
      "Ġy": 367,
      "ri": 368,
      "os": 369,
      "em": 370,
      "if": 371,
      "ion": 372,
      "ain": 373,
      "our": 374,
      "Ġal": 375,
      "ad": 376,
      "Ġor": 377,
      "igh": 378,
      "oc": 379,
      "ĠI": 380,
      "ot": 381,
      "Ġac": 382,
      "ations": 383,
      "for": 384,
      "and": 385,
      "ĠTh": 386,
      "'s": 387,
      "iz": 388,
      "Ġit": 389,
      "pl": 390,
      "Ġch": 391,
      "Ġbe": 392,
      "ies": 393,
      "ke": 394,
      "un": 395,
      "ĠB": 396,
      "ĠP": 397,
      "Ġan": 398,
      "ting": 399,
      "iti": 400,
      "ance": 401,
      "od": 402,
      "----": 403,
      "Ġres": 404,
      "Ġle": 405,
      "ĠM": 406,
      "rou": 407,
      "Ġde": 408,
      "ure": 409,
      "ust": 410,
      "ch": 411,
      "iv": 412,
      "per": 413,
      "Ġad": 414,
      "Ġim": 415,
      "Ġint": 416,
      "tions": 417,
      "Ġcomp": 418,
      "op": 419,
      "ial": 420,
      "ud": 421,
      "Ġis": 422,
      "um": 423,
      "Ġtheir": 424,
      "ap": 425,
      "ous": 426,
      "Ġthat": 427,
      "ĠF": 428,
      "pec": 429,
      "gh": 430,
      "ĠE": 431,
      "Ġsh": 432,
      "ating": 433,
      "tive": 434,
      "vel": 435,
      "ist": 436,
      "og": 437,
      "ign": 438,
      "ant": 439,
      "Ġpr": 440,
      "ĠD": 441,
      "age": 442,
      "able": 443,
      "Ġcont": 444,
      "all": 445,
      "ard": 446,
      "enti": 447,
      "est": 448,
      "ore": 449,
      "Ġcan": 450,
      "Ġse": 451,
      "ort": 452,
      "ĠW": 453,
      "Ġus": 454,
      "ese": 455,
      "king": 456,
      "ill": 457,
      "Ġinc": 458,
      "ical": 459,
      "end": 460,
      "ip": 461,
      "ĠR": 462,
      "ĠH": 463,
      "Ġun": 464,
      "are": 465,
      "Ġtr": 466,
      "ere": 467,
      "Ġpl": 468,
      "ence": 469,
      "rom": 470,
      "enc": 471,
      "Ġapp": 472,
      "cess": 473,
      "Ġne": 474,
      "ual": 475,
      "Ġimp": 476,
      "ff": 477,
      "ine": 478,
      "ans": 479,
      "Ġ(": 480,
      "Ġby": 481,
      "Ġthis": 482,
      "form": 483,
      "ld": 484,
      "ach": 485,
      "Ġyour": 486,
      "Ġem": 487,
      "ther": 488,
      "ge": 489,
      "Ġstr": 490,
      "ile": 491,
      "duc": 492,
      "ong": 493,
      "ents": 494,
      "ves": 495,
      "ĠL": 496,
      "act": 497,
      "Ġat": 498,
      "ens": 499,
      "Ġdis": 500,
      "Ġcons": 501,
      "Ġsuc": 502,
      "ities": 503,
      "ost": 504,
      "out": 505,
      "ments": 506,
      "Ġsu": 507,
      "Ġwe": 508,
      "ib": 509,
      "fer": 510,
      "anc": 511,
      "ors": 512,
      "ated": 513,
      "Ġhe": 514,
      "uring": 515,
      "ast": 516,
      "Ġwor": 517,
      "rough": 518,
      "ility": 519,
      "Ġyou": 520,
      "Ġfrom": 521,
      "ue": 522,
      "ide": 523,
      "ight": 524,
      "ep": 525,
      "Ġab": 526,
      "ition": 527,
      "ĠO": 528,
      "Ġcomm": 529,
      "Ġpar": 530,
      "nder": 531,
      "Ġind": 532,
      "av": 533,
      "low": 534,
      "ful": 535,
      "ome": 536,
      "ential": 537,
      "Ġinto": 538,
      "ks": 539,
      "Ġman": 540,
      "Ġthese": 541,
      "Ġinter": 542,
      "Ġare": 543,
      "ĠG": 544,
      "her": 545,
      "Ġev": 546,
      "Ġro": 547,
      "ech": 548,
      "Ġcre": 549,
      "ons": 550,
      "ie": 551,
      "Ġits": 552,
      "ary": 553,
      "ati": 554,
      "âĢ": 555,
      "ail": 556,
      "ĠU": 557,
      "Ġpre": 558,
      "lec": 559,
      "Ġsp": 560,
      "Ġj": 561,
      "--------": 562,
      "Ġprov": 563,
      "Ġcl": 564,
      "Ġli": 565,
      "ious": 566,
      "ire": 567,
      "over": 568,
      "Ġper": 569,
      "ures": 570,
      "ific": 571,
      "ind": 572,
      "ell": 573,
      "Ġar": 574,
      "Ġme": 575,
      "Ġunder": 576,
      "ress": 577,
      "Ġthrough": 578,
      "ĠIn": 579,
      "Ġthey": 580,
      "ive": 581,
      "ĠN": 582,
      "oun": 583,
      "ely": 584,
      "tim": 585,
      "Ġbet": 586,
      "ear": 587,
      "Ġdes": 588,
      "ace": 589,
      "Ġser": 590,
      "ark": 591,
      "Ġtra": 592,
      "ack": 593,
      "ĠThe": 594,
      "Ġrec": 595,
      "ning": 596,
      "ates": 597,
      "Ġsuch": 598,
      "Ġexper": 599,
      "Ġover": 600,
      "ally": 601,
      "tain": 602,
      "Ġinv": 603,
      "oo": 604,
      "ry": 605,
      "Ġins": 606,
      "ass": 607,
      "echn": 608,
      "ted": 609,
      "Ġop": 610,
      "Ġreg": 611,
      "lic": 612,
      "ould": 613,
      "ms": 614,
      "Ġup": 615,
      "ving": 616,
      "Ġrel": 617,
      "ult": 618,
      "velop": 619,
      "olog": 620,
      "we": 621,
      "Ġincl": 622,
      "ich": 623,
      "ish": 624,
      "les": 625,
      "Ġfe": 626,
      "Ġqu": 627,
      "Ġlike": 628,
      "ges": 629,
      "Ġam": 630,
      "dition": 631,
      "hip": 632,
      "stand": 633,
      "ding": 634,
      "ose": 635,
      "Ġwhile": 636,
      "ple": 637,
      "ater": 638,
      "ne": 639,
      "Ġbo": 640,
      "round": 641,
      "ia": 642,
      "Ġsign": 643,
      "Ġcol": 644,
      "ions": 645,
      "ular": 646,
      "Ġtrans": 647,
      "Ġma": 648,
      "ave": 649,
      "Ġtim": 650,
      "Ġour": 651,
      "tr": 652,
      "ateg": 653,
      "Ġtechn": 654,
      "Ġrem": 655,
      "Ġacc": 656,
      "pport": 657,
      "ffec": 658,
      "ider": 659,
      "als": 660,
      "Ġhigh": 661,
      "iqu": 662,
      "ase": 663,
      "tiv": 664,
      "Ġabout": 665,
      "In": 666,
      "Ġout": 667,
      "ative": 668,
      "Ġk": 669,
      "Ġens": 670,
      "ĠThis": 671,
      "Ġinclud": 672,
      "rib": 673,
      "ten": 674,
      "Ġcommun": 675,
      "ĠBy": 676,
      "Ġass": 677,
      "ruc": 678,
      "ene": 679,
      "row": 680,
      "ower": 681,
      "Ġexpl": 682,
      "se": 683,
      "Ġhow": 684,
      "ween": 685,
      "ph": 686,
      "eg": 687,
      "Ġdisc": 688,
      "Ġsc": 689,
      "Ġdevelop": 690,
      "ward": 691,
      "ond": 692,
      "Ġbetween": 693,
      "oy": 694,
      "ite": 695,
      "ience": 696,
      "ory": 697,
      "vic": 698,
      "Ġvar": 699,
      "ences": 700,
      "Ġwhen": 701,
      "ivid": 702,
      "Ġsy": 703,
      "**": 704,
      "Ġpos": 705,
      "Ġte": 706,
      "ings": 707,
      "one": 708,
      "ever": 709,
      "ues": 710,
      "Ġspec": 711,
      "ability": 712,
      "Ġprovid": 713,
      "Ġrequ": 714,
      "ĠWh": 715,
      "ound": 716,
      "Ġpot": 717,
      "Ġthem": 718,
      "alth": 719,
      "Ġall": 720,
      "Ġpers": 721,
      "now": 722,
      "cl": 723,
      "ased": 724,
      "Ġplay": 725,
      "Ġmore": 726,
      "ss": 727,
      "its": 728,
      "Ġinst": 729,
      "Ġwill": 730,
      "iness": 731,
      "ividual": 732,
      "Ġrep": 733,
      "Ġdec": 734,
      "Ġadv": 735,
      "ect": 736,
      "ging": 737,
      "arket": 738,
      "tical": 739,
      "Ġeng": 740,
      "Ġval": 741,
      "Ġindividual": 742,
      "Ġoff": 743,
      "ĠJ": 744,
      "ĠCh": 745,
      "Ġpotential": 746,
      "ov": 747,
      "elf": 748,
      "Ġ2": 749,
      "ys": 750,
      "Ġlead": 751,
      "Ġsignific": 752,
      "Ġso": 753,
      "ub": 754,
      "ak": 755,
      "ational": 756,
      "Ġhel": 757,
      "Ġag": 758,
      "ize": 759,
      "ĠâĢ": 760,
      "Ġprom": 761,
      "Ġduring": 762,
      "he": 763,
      "Ġhave": 764,
      "Ġstrateg": 765,
      "Ġproduc": 766,
      "allen": 767,
      "art": 768,
      "ness": 769,
      "ality": 770,
      "Ġ-": 771,
      "Ġph": 772,
      "gan": 773,
      "ough": 774,
      "Ġnot": 775,
      "Ġprocess": 776,
      "ering": 777,
      "stem": 778,
      "Ġexam": 779,
      "pt": 780,
      "izing": 781,
      "Ġhas": 782,
      "Ġboth": 783,
      "Ġmay": 784,
      "Ġunderstand": 785,
      "Ġmain": 786,
      "Ġconsider": 787,
      "usiness": 788,
      "ob": 789,
      "Ġvarious": 790,
      "Ġhelp": 791,
      "ood": 792,
      "tern": 793,
      "Ġprac": 794,
      "Ġnew": 795,
      "very": 796,
      "ven": 797,
      "Ġappro": 798,
      "so": 799,
      "Ġdesign": 800,
      "Ġstud": 801,
      "ining": 802,
      "Ġ\"": 803,
      "ĠSt": 804,
      "wor": 805,
      "Ġchallen": 806,
      "ights": 807,
      "get": 808,
      "Ġallow": 809,
      "Ġthere": 810,
      "Ġexp": 811,
      "Ġinvol": 812,
      "Ġpol": 813,
      "Ġhealth": 814,
      "ized": 815,
      "res": 816,
      "Ġwhich": 817,
      "Ġwho": 818,
      "til": 819,
      "Ġother": 820,
      "Ġsome": 821,
      "Ġdem": 822,
      "Ġbec": 823,
      "Ġtime": 824,
      "Ġneed": 825,
      "usion": 826,
      "ĠâĢĵ": 827,
      "Ġwithin": 828,
      "ric": 829,
      "ern": 830,
      "Ġpres": 831,
      "led": 832,
      "ines": 833,
      "ital": 834,
      "Ġmod": 835,
      "ency": 836,
      "Ġ1": 837,
      "yp": 838,
      "por": 839,
      "ata": 840,
      "Ġmarket": 841,
      "ĠAd": 842,
      "Ġprof": 843,
      "ĠAs": 844,
      "Ġdel": 845,
      "Ġdif": 846,
      "Ġone": 847,
      "Ġsoc": 848,
      "Ġsec": 849,
      "ake": 850,
      "Ġthan": 851,
      "Ġsignificant": 852,
      "Ġalso": 853,
      "Ġbu": 854,
      "agement": 855,
      "Ġher": 856,
      "Ġsk": 857,
      "urther": 858,
      "eth": 859,
      "ise": 860,
      "ling": 861,
      "Ġincre": 862,
      "Ġcare": 863,
      "Ġhis": 864,
      "Ġeffec": 865,
      "Ġresp": 866,
      "Ġknow": 867,
      "Ġsur": 868,
      "ount": 869,
      "Ġset": 870,
      "ribut": 871,
      "Ġke": 872,
      "Ġbusiness": 873,
      "ci": 874,
      "aging": 875,
      "Ġpartic": 876,
      "Ġsuccess": 877,
      "ible": 878,
      "Ġadd": 879,
      "ross": 880,
      "ently": 881,
      "ĠV": 882,
      "Ġcap": 883,
      "oin": 884,
      "irst": 885,
      "Ġinf": 886,
      "reat": 887,
      "ays": 888,
      "nec": 889,
      "ages": 890,
      "Ġwhere": 891,
      ").": 892,
      "Ġfac": 893,
      "ances": 894,
      "ĠFor": 895,
      "Ġsystem": 896,
      "Ġlear": 897,
      "emb": 898,
      "ty": 899,
      "ĠK": 900,
      "old": 901,
      "ocus": 902,
      "ustom": 903,
      "onal": 904,
      "Ġdo": 905,
      "ces": 906,
      "tics": 907,
      "Ġmed": 908,
      "Ġorgan": 909,
      "Ġgen": 910,
      "Ġgrow": 911,
      "Ġany": 912,
      "ici": 913,
      "ved": 914,
      "Ġess": 915,
      "Ġbut": 916,
      "Ġoffer": 917,
      "ution": 918,
      "Ġimpro": 919,
      "Ġchan": 920,
      "Ġinform": 921,
      "ural": 922,
      "ately": 923,
      "Ġref": 924,
      "ication": 925,
      "Ġloc": 926,
      "Ġvis": 927,
      "pect": 928,
      "ically": 929,
      "aking": 930,
      "ique": 931,
      "wards": 932,
      "ct": 933,
      "ands": 934,
      "clusion": 935,
      "Ġfost": 936,
      "arm": 937,
      "com": 938,
      "pportun": 939,
      "Ġsa": 940,
      "ĠHow": 941,
      "Ġenh": 942,
      "Ġcomple": 943,
      "ivers": 944,
      "Ġwhat": 945,
      "vely": 946,
      "Ġworld": 947,
      "ame": 948,
      "Ġdiffer": 949,
      "Ġsim": 950,
      "Ġevery": 951,
      "iew": 952,
      "ology": 953,
      "Ġfocus": 954,
      "Ġdet": 955,
      "Ġno": 956,
      "'t": 957,
      "Ġprog": 958,
      "Ġsol": 959,
      "fore": 960,
      "Ġmaintain": 961,
      "Ġgu": 962,
      "ĠThese": 963,
      "Ġwork": 964,
      "xt": 965,
      "oring": 966,
      "Ġfin": 967,
      "ree": 968,
      "Ġdata": 969,
      "Ġsub": 970,
      "less": 971,
      "ĠPro": 972,
      "ild": 973,
      "Ġperform": 974,
      "Ġed": 975,
      "----------------": 976,
      "other": 977,
      "tional": 978,
      "ĠCon": 979,
      "Ġcould": 980,
      "Ġthose": 981,
      "own": 982,
      "Ġopportun": 983,
      "Ġrespons": 984,
      "Ġob": 985,
      "ft": 986,
      "ization": 987,
      "Ġimport": 988,
      "ord": 989,
      "par": 990,
      "ath": 991,
      "Ġessential": 992,
      "Ġamong": 993,
      "tit": 994,
      "ook": 995,
      "Ġcustom": 996,
      "rac": 997,
      "ĠCom": 998,
      "Ġent": 999,
      "enef": 1000,
      "Ġco": 1001,
      "Ġincluding": 1002,
      "rucial": 1003,
      "ends": 1004,
      "Ġconf": 1005,
      "Ġmight": 1006,
      "Ġcrucial": 1007,
      "ties": 1008,
      "vices": 1009,
      "aw": 1010,
      "erg": 1011,
      "Ġpower": 1012,
      "ĠEx": 1013,
      "Ġ20": 1014,
      "abor": 1015,
      "Ġcontin": 1016,
      "ditional": 1017,
      "ety": 1018,
      "Ġreal": 1019,
      "ying": 1020,
      "itions": 1021,
      "ources": 1022,
      "Ġmo": 1023,
      "Ġoften": 1024,
      "ily": 1025,
      "Ġform": 1026,
      "vers": 1027,
      "Ġcontribut": 1028,
      "Ġunique": 1029,
      "ather": 1030,
      "ilities": 1031,
      "ram": 1032,
      "lish": 1033,
      "Ġsee": 1034,
      "Ġwas": 1035,
      "ĠIt": 1036,
      "up": 1037,
      "Ġaccess": 1038,
      "Ġprot": 1039,
      "ics": 1040,
      "iron": 1041,
      "ession": 1042,
      "ature": 1043,
      "Ġeven": 1044,
      "ared": 1045,
      "),": 1046,
      "Ġid": 1047,
      "Ġdevelopment": 1048,
      "Ġsm": 1049,
      "wn": 1050,
      "rol": 1051,
      "Ġconc": 1052,
      "uss": 1053,
      "Ġdue": 1054,
      "Ġrole": 1055,
      "Ġtyp": 1056,
      "Ġbenef": 1057,
      "ollow": 1058,
      "ploy": 1059,
      "Ġbl": 1060,
      "iting": 1061,
      "Ġenc": 1062,
      "Ġlet": 1063,
      "line": 1064,
      "ols": 1065,
      "iss": 1066,
      "egr": 1067,
      "entif": 1068,
      "utions": 1069,
      "ibility": 1070,
      "Ġpe": 1071,
      "ĠEn": 1072,
      "els": 1073,
      "Ġinn": 1074,
      "Ġskill": 1075,
      "Ġmin": 1076,
      "fter": 1077,
      "Ġapproach": 1078,
      "Ġlif": 1079,
      "viron": 1080,
      "ĠHowever": 1081,
      "ĠAn": 1082,
      "ĠUn": 1083,
      "Ġconnec": 1084,
      "unc": 1085,
      "Ġfl": 1086,
      "Ġunderstanding": 1087,
      "Ġanal": 1088,
      "Ġtowards": 1089,
      "uch": 1090,
      "ice": 1091,
      "ang": 1092,
      "Ġrelations": 1093,
      "Ġfact": 1094,
      "The": 1095,
      "Ġgo": 1096,
      "Ġif": 1097,
      "Ġusing": 1098,
      "Ġexperi": 1099,
      "Ġgl": 1100,
      "ffor": 1101,
      "Ġremain": 1102,
      "Ġmul": 1103,
      "Ġeach": 1104,
      "Ġlong": 1105,
      "Ġacross": 1106,
      "labor": 1107,
      "erm": 1108,
      "Ġtw": 1109,
      "Ġdist": 1110,
      "Ġexperience": 1111,
      "Ġiss": 1112,
      "ourse": 1113,
      "Ġequ": 1114,
      "jec": 1115,
      "cc": 1116,
      "roduc": 1117,
      "Ġsever": 1118,
      "asing": 1119,
      "Ġav": 1120,
      "Ġchar": 1121,
      "Ġcur": 1122,
      "ris": 1123,
      "Ġteam": 1124,
      "Ġcult": 1125,
      "Ġatt": 1126,
      "Ġchallenges": 1127,
      "Ġdecis": 1128,
      "atform": 1129,
      "Ġpractic": 1130,
      "Ġgener": 1131,
      "lev": 1132,
      "Ġrequire": 1133,
      "Ġpur": 1134,
      "Ġenviron": 1135,
      "Ġstrategies": 1136,
      "Ġindividuals": 1137,
      "ied": 1138,
      "uth": 1139,
      "Ġapplic": 1140,
      "Ġoper": 1141,
      "hips": 1142,
      "Ġemb": 1143,
      "Ġeduc": 1144,
      "acy": 1145,
      "aus": 1146,
      "ĠDe": 1147,
      "ether": 1148,
      "Ġgrowth": 1149,
      "ffici": 1150,
      "Ġback": 1151,
      "Ġoverall": 1152,
      "Ġfollow": 1153,
      "ets": 1154,
      "Ġaround": 1155,
      "Ġpersonal": 1156,
      "Ġkey": 1157,
      "oura": 1158,
      "Ġest": 1159,
      "Ġbeh": 1160,
      "oreover": 1161,
      "Ġpromot": 1162,
      "iel": 1163,
      "Ġpri": 1164,
      "Ġear": 1165,
      "oci": 1166,
      "Ġsaf": 1167,
      "ublic": 1168,
      "ples": 1169,
      "ey": 1170,
      "ug": 1171,
      "Ġpart": 1172,
      "Ġmust": 1173,
      "ases": 1174,
      "atch": 1175,
      "cep": 1176,
      "Ġmulti": 1177,
      "con": 1178,
      "Ġmus": 1179,
      "ism": 1180,
      "ants": 1181,
      "Ġinnov": 1182,
      "Ġintegr": 1183,
      "Ġaddress": 1184,
      "Ġprofession": 1185,
      "ablish": 1186,
      "Ġprovide": 1187,
      "Ġopportunities": 1188,
      "eng": 1189,
      "II": 1190,
      "Ġhum": 1191,
      "Ġdep": 1192,
      "ape": 1193,
      "Ġplatform": 1194,
      "Ġensuring": 1195,
      "ead": 1196,
      "tively": 1197,
      "ĠWith": 1198,
      "ination": 1199,
      "Ġext": 1200,
      "Ġris": 1201,
      "ick": 1202,
      "ĠY": 1203,
      "orpor": 1204,
      "ĠIm": 1205,
      "ories": 1206,
      "urn": 1207,
      "Ġfunc": 1208,
      "Ġregard": 1209,
      "Ġhist": 1210,
      "Ġmany": 1211,
      "Ġpractices": 1212,
      "Ġlo": 1213,
      "ogn": 1214,
      "str": 1215,
      "Ġstand": 1216,
      "Ġemploy": 1217,
      "Ġiniti": 1218,
      "Ġnum": 1219,
      "red": 1220,
      "Ġnec": 1221,
      "itive": 1222,
      "Ġcreate": 1223,
      "ditionally": 1224,
      "Ġrequir": 1225,
      "Ġdivers": 1226,
      "Ġdifferent": 1227,
      "Ġbr": 1228,
      "Ġlevel": 1229,
      "Ġown": 1230,
      "pects": 1231,
      "Ġmake": 1232,
      "ield": 1233,
      "Ġdiscuss": 1234,
      "Ġexplore": 1235,
      "Ġoffers": 1236,
      "Ġcle": 1237,
      "Ġthroughout": 1238,
      "Ġproper": 1239,
      "Ġexc": 1240,
      "ertain": 1241,
      "Ġindust": 1242,
      "te": 1243,
      "day": 1244,
      "Ġreduc": 1245,
      "aterial": 1246,
      "ancing": 1247,
      "Ġdef": 1248,
      "Ġsocial": 1249,
      "Ġseveral": 1250,
      "Ġsupport": 1251,
      "Ġbeen": 1252,
      "air": 1253,
      "Ġagain": 1254,
      "earch": 1255,
      "ection": 1256,
      "vice": 1257,
      "Ġinfl": 1258,
      "Ġinsights": 1259,
      "Ġpop": 1260,
      "Ġbefore": 1261,
      "ĠWhile": 1262,
      "lement": 1263,
      "St": 1264,
      "Ġtwo": 1265,
      "Ġbased": 1266,
      "Ġsupp": 1267,
      "Ġcollabor": 1268,
      "Ġfurther": 1269,
      "Ġresources": 1270,
      "iques": 1271,
      "Ġcompan": 1272,
      "Ġenab": 1273,
      "ĠAl": 1274,
      "Ġposs": 1275,
      "rand": 1276,
      "Ġnecess": 1277,
      "Ġcho": 1278,
      "Ġmy": 1279,
      "Ġpass": 1280,
      "ĠAm": 1281,
      "Ġensure": 1282,
      "igital": 1283,
      "ĠCons": 1284,
      "ture": 1285,
      "ental": 1286,
      "ording": 1287,
      "avig": 1288,
      "ew": 1289,
      "Ġsch": 1290,
      "Ġparticular": 1291,
      "ength": 1292,
      "equ": 1293,
      "Ġfind": 1294,
      "Ġfam": 1295,
      "Ġresearch": 1296,
      "Ġimpact": 1297,
      "raph": 1298,
      "anced": 1299,
      "Ġimm": 1300,
      "Ġplan": 1301,
      "ored": 1302,
      "Ġeffor": 1303,
      "Ġassoci": 1304,
      "Ġexample": 1305,
      "Ġcomplex": 1306,
      "Ġfactors": 1307,
      "und": 1308,
      "Ġproviding": 1309,
      "Ġ&": 1310,
      "uture": 1311,
      "Ġinclude": 1312,
      "Ġpolic": 1313,
      "eness": 1314,
      "ps": 1315,
      "Ġprev": 1316,
      "Ġactiv": 1317,
      "Ġhand": 1318,
      "Ġliv": 1319,
      "Ġdown": 1320,
      "ethod": 1321,
      "ards": 1322,
      "Ġwell": 1323,
      "ending": 1324,
      "ited": 1325,
      "Ġmaterial": 1326,
      "Ġweb": 1327,
      "Ġmanagement": 1328,
      "Ġend": 1329,
      "atures": 1330,
      "Ġjust": 1331,
      "Ġperformance": 1332,
      "Ġcompon": 1333,
      "Ġbel": 1334,
      "Ġskills": 1335,
      "Ġcommunication": 1336,
      "ltim": 1337,
      "Ġaw": 1338,
      "Ġleg": 1339,
      "app": 1340,
      "Ġyear": 1341,
      "Ġopen": 1342,
      "Ġfound": 1343,
      "view": 1344,
      "Ġoptim": 1345,
      "Ġemp": 1346,
      "ners": 1347,
      "00": 1348,
      "Ġconsum": 1349,
      "Ġorganiz": 1350,
      "ble": 1351,
      "fully": 1352,
      "Ġusers": 1353,
      "ange": 1354,
      "Ġrepres": 1355,
      "Ġshe": 1356,
      "Ġinstance": 1357,
      "Ġpublic": 1358,
      "Ġintern": 1359,
      "Ġalong": 1360,
      "li": 1361,
      "ĠAdditionally": 1362,
      "Ġagainst": 1363,
      "Ġsens": 1364,
      "Ġfirst": 1365,
      "ledge": 1366,
      "Ġconclusion": 1367,
      "Ġdri": 1368,
      "Ġestablish": 1369,
      "Ġgain": 1370,
      "Ġlife": 1371,
      "Ġsystems": 1372,
      "Ġidentif": 1373,
      "Ġissues": 1374,
      "tice": 1375,
      "Ġmon": 1376,
      "ilding": 1377,
      "to": 1378,
      "ilar": 1379,
      "Ġdeep": 1380,
      "Ġservices": 1381,
      "Ġ'": 1382,
      "ĠĠ": 1383,
      "Ġimprove": 1384,
      "Ġdire": 1385,
      "Ġinformation": 1386,
      "ensive": 1387,
      "Ġonly": 1388,
      "ade": 1389,
      "onstr": 1390,
      "Ġlearning": 1391,
      "ins": 1392,
      "lect": 1393,
      "Ġcar": 1394,
      "âĢĶ": 1395,
      "Ġeffici": 1396,
      "ock": 1397,
      "ior": 1398,
      "Ġbenefits": 1399,
      "yond": 1400,
      "Ġbeyond": 1401,
      "Ġtake": 1402,
      "tives": 1403,
      "Ġfostering": 1404,
      "Ġresul": 1405,
      "Ġconsist": 1406,
      "Ġmethod": 1407,
      "struc": 1408,
      "Ġaim": 1409,
      "ian": 1410,
      "Ġcontrol": 1411,
      "Ġtechniques": 1412,
      "omes": 1413,
      "Ġcommit": 1414,
      ".,": 1415,
      "Ġcri": 1416,
      "ications": 1417,
      "Ġneeds": 1418,
      "Ġauth": 1419,
      "Ġjour": 1420,
      "urity": 1421,
      "Ġcreating": 1422,
      "Ġtechnology": 1423,
      "Ġenvironment": 1424,
      "Ġaspects": 1425,
      "Ġregarding": 1426,
      "more": 1427,
      "Ġinflu": 1428,
      "Ġdigital": 1429,
      "ancial": 1430,
      "ined": 1431,
      "Ġ**": 1432,
      "roduction": 1433,
      "Ġbetter": 1434,
      "ĠRe": 1435,
      "As": 1436,
      "ember": 1437,
      "Ġdemonstr": 1438,
      "ltimately": 1439,
      "ĠMoreover": 1440,
      "Th": 1441,
      "thers": 1442,
      "Ġcompe": 1443,
      "Ġcost": 1444,
      "aring": 1445,
      "Ġcommunity": 1446,
      "Ġele": 1447,
      "Ġguid": 1448,
      "Ġfuture": 1449,
      "##": 1450,
      "Ġmost": 1451,
      "Ġthough": 1452,
      "ually": 1453,
      "Ġminim": 1454,
      "ĠThrough": 1455,
      "Ġlocal": 1456,
      "Ġmarketing": 1457,
      "Ġaud": 1458,
      "Ġsignificantly": 1459,
      "Ġwithout": 1460,
      "Ġassociated": 1461,
      "Wh": 1462,
      "Ġarti": 1463,
      "ilit": 1464,
      "go": 1465,
      "ĠTo": 1466,
      "Step": 1467,
      "urthermore": 1468,
      "Ġtools": 1469,
      "Ġbusinesses": 1470,
      "Ġstudents": 1471,
      "nderstand": 1472,
      "io": 1473,
      "Ġallows": 1474,
      "Ġphys": 1475,
      "amp": 1476,
      "Ġwould": 1477,
      "Ġinvest": 1478,
      "ditions": 1479,
      "Ġvalu": 1480,
      "ex": 1481,
      "ner": 1482,
      "Ġmean": 1483,
      "arch": 1484,
      "au": 1485,
      "ĠOne": 1486,
      "hie": 1487,
      "Ġspecial": 1488,
      "Ġmet": 1489,
      "reci": 1490,
      "Ġtraditional": 1491,
      "To": 1492,
      "Ġachie": 1493,
      "Ġspecific": 1494,
      "Ġonline": 1495,
      "Ġcent": 1496,
      "alu": 1497,
      "Ġmaintaining": 1498,
      "Ġpati": 1499,
      "Ġbro": 1500,
      "Ġhighl": 1501,
      "Ġanaly": 1502,
      "Ġanother": 1503,
      "pir": 1504,
      "action": 1505,
      "aling": 1506,
      "Ġdiverse": 1507,
      "Ġlim": 1508,
      "ject": 1509,
      "Ġdi": 1510,
      "ney": 1511,
      "Ġseem": 1512,
      "Ġprin": 1513,
      "Ġuser": 1514,
      "ograph": 1515,
      "yn": 1516,
      "erc": 1517,
      "ists": 1518,
      "Ġgre": 1519,
      "lection": 1520,
      "Ġknowledge": 1521,
      "Ġnavig": 1522,
      "etwor": 1523,
      "ological": 1524,
      "aving": 1525,
      "Ġmeas": 1526,
      "Ġincorpor": 1527,
      "Ġconcern": 1528,
      "the": 1529,
      "care": 1530,
      "ron": 1531,
      "Ġcor": 1532,
      "ream": 1533,
      "Ġsit": 1534,
      "Ġimportance": 1535,
      "lying": 1536,
      "Ġafter": 1537,
      "ware": 1538,
      "elves": 1539,
      "arget": 1540,
      "Ġdoes": 1541,
      "esp": 1542,
      "Ġexperiences": 1543,
      "Ġtop": 1544,
      "Ġcomb": 1545,
      "ople": 1546,
      "acter": 1547,
      "ustain": 1548,
      "tract": 1549,
      "Ġshould": 1550,
      "Ġseeking": 1551,
      "Ġbre": 1552,
      "Ġgover": 1553,
      "oot": 1554,
      "Ġmultiple": 1555,
      "Ġself": 1556,
      "Ġstruc": 1557,
      "Ġbecome": 1558,
      "Ġencoura": 1559,
      "fact": 1560,
      "cept": 1561,
      "Ġful": 1562,
      "Ġrequires": 1563,
      "ĠEm": 1564,
      "Ġvalue": 1565,
      "itle": 1566,
      "Ġappreci": 1567,
      "Ġothers": 1568,
      "Ġgra": 1569,
      "du": 1570,
      "Ġquality": 1571,
      "ooking": 1572,
      "Ġbal": 1573,
      "Ġfinancial": 1574,
      "Ġstrong": 1575,
      "ergy": 1576,
      "ru": 1577,
      "Ġprim": 1578,
      "Ġrecogn": 1579,
      "troduction": 1580,
      "ĠWe": 1581,
      "Ġpresent": 1582,
      "Ġimplement": 1583,
      "Ġway": 1584,
      "Ġavail": 1585,
      "Ġbeing": 1586,
      "Ġhuman": 1587,
      "Ġcontinu": 1588,
      "Ġsuccessful": 1589,
      "inal": 1590,
      "Ġincreasing": 1591,
      "ients": 1592,
      "Ġ3": 1593,
      "atives": 1594,
      "Ġshow": 1595,
      "Ġprefer": 1596,
      "Ġstrength": 1597,
      "ĠThey": 1598,
      "Ġinvolves": 1599,
      "ash": 1600,
      "Ġparticip": 1601,
      "ĠAr": 1602,
      "Ġcra": 1603,
      "Ġrelationships": 1604,
      "andsc": 1605,
      "Ġorganizations": 1606,
      "Ġleading": 1607,
      "ax": 1608,
      "Ġ201": 1609,
      "port": 1610,
      "Ġmen": 1611,
      "iec": 1612,
      "Ġallowing": 1613,
      "elling": 1614,
      "Ġsurround": 1615,
      "ĠLet": 1616,
      "Ġplatforms": 1617,
      "ests": 1618,
      "ili": 1619,
      "Ġless": 1620,
      "ĠOn": 1621,
      "idence": 1622,
      "ĠFurthermore": 1623,
      "Ġstep": 1624,
      "Ġused": 1625,
      "Ġindustry": 1626,
      "Ġtransform": 1627,
      "Ġbest": 1628,
      "oint": 1629,
      "Ġpoli": 1630,
      "Ġdirect": 1631,
      "Ġregul": 1632,
      "ĠWhen": 1633,
      "ĠTitle": 1634,
      "Ġsetting": 1635,
      "Ġclos": 1636,
      "ators": 1637,
      "ink": 1638,
      "Ġcomponents": 1639,
      "Ġadap": 1640,
      "pos": 1641,
      "Ġide": 1642,
      "self": 1643,
      "atis": 1644,
      "Ġefforts": 1645,
      "Ġtoday": 1646,
      "Ġsustain": 1647,
      "Ġtal": 1648,
      "Ġtrust": 1649,
      "Ġcontribute": 1650,
      "Ġimportant": 1651,
      "ced": 1652,
      "nderstanding": 1653,
      "Ġtarget": 1654,
      "Ġlandsc": 1655,
      "Ġmodern": 1656,
      "Ġeducation": 1657,
      "ĠPl": 1658,
      "rit": 1659,
      "Ġupon": 1660,
      "Ġpeople": 1661,
      "Ġtail": 1662,
      "omm": 1663,
      "Ġread": 1664,
      "Ġcourse": 1665,
      "Ġbrand": 1666,
      "Ġvaluable": 1667,
      "Ġemo": 1668,
      "Ġoptions": 1669,
      "ries": 1670,
      "Ġelements": 1671,
      "Ġes": 1672,
      "Ġwere": 1673,
      "Ġuse": 1674,
      "An": 1675,
      "istic": 1676,
      "Ġcaus": 1677,
      "ufact": 1678,
      "Ġcase": 1679,
      "Ġhome": 1680,
      "ix": 1681,
      "Ġret": 1682,
      "Ġlevels": 1683,
      "erous": 1684,
      "Ġpat": 1685,
      "Ġcomes": 1686,
      "ices": 1687,
      "ee": 1688,
      "ration": 1689,
      "reh": 1690,
      "Ġwhy": 1691,
      "xim": 1692,
      "ĠMan": 1693,
      "Ġnetwor": 1694,
      "Ġaut": 1695,
      "ars": 1696,
      "Ġgrou": 1697,
      "Ġlar": 1698,
      "vity": 1699,
      "Ġtoo": 1700,
      "ll": 1701,
      "Ġrelev": 1702,
      "Ġfeel": 1703,
      "term": 1704,
      "ze": 1705,
      "by": 1706,
      "atic": 1707,
      "Ġfeatures": 1708,
      "Ġwhether": 1709,
      "pr": 1710,
      "Ġutil": 1711,
      "ynam": 1712,
      "encies": 1713,
      "One": 1714,
      "ĠApp": 1715,
      "Ġpopular": 1716,
      "Ġeffectively": 1717,
      "'re": 1718,
      "Ġcompeti": 1719,
      "Ġmind": 1720,
      "ways": 1721,
      "Ġprovides": 1722,
      "tention": 1723,
      "lecting": 1724,
      "Ġvers": 1725,
      "Ġcertain": 1726,
      "orts": 1727,
      "Ġsug": 1728,
      "ĠSo": 1729,
      "isting": 1730,
      "Ġdecision": 1731,
      "Ġfollowing": 1732,
      "Ġmedia": 1733,
      "Ġhad": 1734,
      "Ġtravel": 1735,
      "aces": 1736,
      "ired": 1737,
      "ifically": 1738,
      "Ġmaking": 1739,
      "Ġtreat": 1740,
      "Ġlaw": 1741,
      "Ġprocesses": 1742,
      "Ġeffective": 1743,
      "Ġconditions": 1744,
      "ber": 1745,
      "iety": 1746,
      "Ġaffec": 1747,
      "Ġgr": 1748,
      "Ġdetail": 1749,
      "read": 1750,
      "Con": 1751,
      "lex": 1752,
      "Ġenhance": 1753,
      "âĢĻ": 1754,
      "Ġunit": 1755,
      "Ġengagement": 1756,
      "Ġconcerns": 1757,
      "kes": 1758,
      "Ġproduct": 1759,
      "Ġaspect": 1760,
      "Ġfunction": 1761,
      "Ġcount": 1762,
      "Ġbroad": 1763,
      "Ġdeli": 1764,
      "wh": 1765,
      "ane": 1766,
      "Ġques": 1767,
      "Ġsmall": 1768,
      "ger": 1769,
      "ason": 1770,
      "Ġcontent": 1771,
      "Ġlearn": 1772,
      "Ġclear": 1773,
      "phas": 1774,
      "actions": 1775,
      "oid": 1776,
      "Ġinves": 1777,
      "ike": 1778,
      "ĠSh": 1779,
      "ciples": 1780,
      "Ġcharacter": 1781,
      "Ġsafety": 1782,
      "Ġded": 1783,
      "eed": 1784,
      "Ġthen": 1785,
      "Ġview": 1786,
      "ĠHe": 1787,
      ".\"": 1788,
      "Ġenergy": 1789,
      "Ġglob": 1790,
      "Ġjourney": 1791,
      "Ġsal": 1792,
      "rop": 1793,
      "ict": 1794,
      "Ġcommon": 1795,
      "embers": 1796,
      "Ġrepresent": 1797,
      "de": 1798,
      "Ġel": 1799,
      "Ġfri": 1800,
      "Ġrather": 1801,
      "Ġbehav": 1802,
      "Ġexploring": 1803,
      "Ġfield": 1804,
      "Ġter": 1805,
      "ource": 1806,
      "Ġsolutions": 1807,
      "Ġmaterials": 1808,
      "Ġbuilding": 1809,
      "Ġnecessary": 1810,
      "Ġfil": 1811,
      "Ġpromoting": 1812,
      "Ġserve": 1813,
      "ĠAnd": 1814,
      "Ġsom": 1815,
      "Ġyears": 1816,
      "Ġremains": 1817,
      "Ġgovern": 1818,
      "Ġareas": 1819,
      "ince": 1820,
      "elines": 1821,
      "Ġtoget": 1822,
      "Ġtogether": 1823,
      "Ġcommunities": 1824,
      "jects": 1825,
      "iving": 1826,
      "Ġavailable": 1827,
      "ral": 1828,
      "ysis": 1829,
      "conom": 1830,
      "icial": 1831,
      "Ġchild": 1832,
      "Ġpost": 1833,
      "Ġphysical": 1834,
      "Ġocc": 1835,
      "ression": 1836,
      "Ġproducts": 1837,
      "Ġpiec": 1838,
      "fort": 1839,
      "Ġfocusing": 1840,
      "Ġevol": 1841,
      "be": 1842,
      "Ġill": 1843,
      "duce": 1844,
      "Ġmanufact": 1845,
      "empor": 1846,
      "Ġnumerous": 1847,
      "eric": 1848,
      "Ġsurrounding": 1849,
      "oss": 1850,
      "Ġshap": 1851,
      "ologies": 1852,
      "Ġdesigned": 1853,
      "ething": 1854,
      "ĠTr": 1855,
      "Ġmade": 1856,
      "Ġmethods": 1857,
      "ier": 1858,
      "ser": 1859,
      "tle": 1860,
      "Ġlook": 1861,
      "Ġapplications": 1862,
      "Ġdra": 1863,
      "Ġdynam": 1864,
      "ounter": 1865,
      "Ġprinciples": 1866,
      "Ġinformed": 1867,
      "Ġevents": 1868,
      "Ġcul": 1869,
      "Ġsoft": 1870,
      "ising": 1871,
      "Ġsomething": 1872,
      "Ġdiscover": 1873,
      "Ġmembers": 1874,
      "Ġextract": 1875,
      "Ġparticularly": 1876,
      "Ġcurr": 1877,
      "Ġpriv": 1878,
      "ĠInd": 1879,
      "Ġshared": 1880,
      "Ġclass": 1881,
      "ters": 1882,
      "Ġprovided": 1883,
      "zing": 1884,
      "ening": 1885,
      "ush": 1886,
      "Ġactivities": 1887,
      "joy": 1888,
      "rim": 1889,
      "ient": 1890,
      "ming": 1891,
      "Ġmeaning": 1892,
      "osing": 1893,
      "Ġpress": 1894,
      "Ġfre": 1895,
      "ĠBut": 1896,
      "ĠAt": 1897,
      "Ġaccur": 1898,
      "Ġleaders": 1899,
      "ĠComm": 1900,
      "Ġreach": 1901,
      "Ġyet": 1902,
      "Ġsecurity": 1903,
      "hold": 1904,
      "plications": 1905,
      "Ġmusic": 1906,
      "avor": 1907,
      "ption": 1908,
      "tif": 1909,
      "aries": 1910,
      "abilities": 1911,
      "Ġpattern": 1912,
      "Ġcall": 1913,
      "Ġday": 1914,
      "Ġconnections": 1915,
      "ense": 1916,
      "till": 1917,
      "Ġcultural": 1918,
      "ously": 1919,
      "Ġcritical": 1920,
      "Ġenti": 1921,
      "echan": 1922,
      "Ġcompreh": 1923,
      "Ġevalu": 1924,
      "Ġfacilit": 1925,
      "racing": 1926,
      "Ġaltern": 1927,
      "orical": 1928,
      "Ġmar": 1929,
      "Ġmove": 1930,
      "Ġensures": 1931,
      "Ġenjoy": 1932,
      "rams": 1933,
      "Ġcollaboration": 1934,
      "Ġtailored": 1935,
      "Ġeas": 1936,
      "Ġstri": 1937,
      "iod": 1938,
      "inary": 1939,
      "Ġfund": 1940,
      "ios": 1941,
      "Ġincreased": 1942,
      "Ġprofessionals": 1943,
      "ĠAc": 1944,
      "Ġelec": 1945,
      "ĠStr": 1946,
      "Ġemphas": 1947,
      "Ġthought": 1948,
      "Ġworking": 1949,
      "comes": 1950,
      "Ġultimately": 1951,
      "ool": 1952,
      "First": 1953,
      "ones": 1954,
      "Ġdecisions": 1955,
      "Ġrece": 1956,
      "ĠComp": 1957,
      "tig": 1958,
      "Ġact": 1959,
      "Ġcustomer": 1960,
      "Ġsitu": 1961,
      "ren": 1962,
      "aps": 1963,
      "Ġsty": 1964,
      "Ġbuild": 1965,
      "Ġpay": 1966,
      "atory": 1967,
      "acks": 1968,
      "Ġadvant": 1969,
      "ext": 1970,
      "rain": 1971,
      "Ġdeterm": 1972,
      "Ġstate": 1973,
      "Ġchange": 1974,
      "Ġrelevant": 1975,
      "Ġmeet": 1976,
      "Ġhealthcare": 1977,
      "Ġrates": 1978,
      "Ġprogram": 1979,
      "Ġincorporating": 1980,
      "Ġvisual": 1981,
      "inating": 1982,
      "Ġkeep": 1983,
      "uts": 1984,
      "Ġbecomes": 1985,
      "Ġoutcomes": 1986,
      "irc": 1987,
      "Ġbod": 1988,
      "Ġintric": 1989,
      "ises": 1990,
      "ĠAcc": 1991,
      "ered": 1992,
      "Ġrecent": 1993,
      "Ġalign": 1994,
      "Ġsimilar": 1995,
      "Ġeconom": 1996,
      "Ġve": 1997,
      "Ġ4": 1998,
      "atural": 1999,
      "Ġattention": 2000,
      "Ġwebs": 2001,
      "Ġadapt": 2002,
      "Ġnature": 2003,
      "orting": 2004,
      "Ġlay": 2005,
      "Ġhelps": 2006,
      "ĠAmeric": 2007,
      "Ġbelie": 2008,
      "Ġcred": 2009,
      "pective": 2010,
      "Ġvalues": 2011,
      "Ġenables": 2012,
      "ision": 2013,
      "Ġtrends": 2014,
      "ĠUnderstanding": 2015,
      "Ġhim": 2016,
      "Ġyourself": 2017,
      "oints": 2018,
      "Ġvital": 2019,
      "Ġthems": 2020,
      "Ġright": 2021,
      "ury": 2022,
      "Ġcommitment": 2023,
      "Ġmental": 2024,
      "Ġthemselves": 2025,
      "ium": 2026,
      "Ġservice": 2027,
      "Ġvia": 2028,
      "emporary": 2029,
      "atter": 2030,
      "ĠCol": 2031,
      "angu": 2032,
      "time": 2033,
      ":**": 2034,
      "Ġshare": 2035,
      "ball": 2036,
      "ipp": 2037,
      "ale": 2038,
      "ĠBe": 2039,
      "Ġprior": 2040,
      "Ġstar": 2041,
      "Ġwater": 2042,
      "ames": 2043,
      "Another": 2044,
      "Ġspir": 2045,
      "Ġtimes": 2046,
      "Key": 2047,
      "ĠChris": 2048,
      "icate": 2049,
      "ips": 2050,
      "pri": 2051,
      "ute": 2052,
      "Ġrob": 2053,
      "Ġtri": 2054,
      "Ġund": 2055,
      "Ġregular": 2056,
      "Ġengaging": 2057,
      "Ġet": 2058,
      "Ġknown": 2059,
      "Ġenhancing": 2060,
      "Ġplanning": 2061,
      "Ġengage": 2062,
      "Ġperson": 2063,
      "Ġinterest": 2064,
      "Ġplays": 2065,
      "oh": 2066,
      "Ġharm": 2067,
      "Ġaddressing": 2068,
      "Ġbalance": 2069,
      "Ġmess": 2070,
      "asts": 2071,
      "Ġconvers": 2072,
      "Ġinvolved": 2073,
      "asc": 2074,
      "Ġassess": 2075,
      "Ġconven": 2076,
      "Ġrisks": 2077,
      "Ġplayers": 2078,
      "Ġappe": 2079,
      "Ġrisk": 2080,
      "of": 2081,
      "thing": 2082,
      "Ġther": 2083,
      "Ġnar": 2084,
      "ission": 2085,
      "Ġpolicy": 2086,
      "ĠReg": 2087,
      "Ġstay": 2088,
      "Ġer": 2089,
      "Ġmuch": 2090,
      "Ġdoc": 2091,
      "Ġnon": 2092,
      "Ġgoals": 2093,
      "ident": 2094,
      "ah": 2095,
      "Ġbehind": 2096,
      "Ġserves": 2097,
      "Ġmom": 2098,
      "asting": 2099,
      "Ġpartners": 2100,
      "ĠOver": 2101,
      "ĠChristi": 2102,
      "Ġresults": 2103,
      "Ġ5": 2104,
      "Ġlandscape": 2105,
      "back": 2106,
      "ery": 2107,
      "Ġconcept": 2108,
      "Ġsym": 2109,
      "Ġpositive": 2110,
      "Ġpatterns": 2111,
      "Ġautom": 2112,
      "pecial": 2113,
      "Ġart": 2114,
      "ulation": 2115,
      "esting": 2116,
      "Ġaccount": 2117,
      "Ġmem": 2118,
      "Ġmechan": 2119,
      "Ġprograms": 2120,
      "sts": 2121,
      "Ġglobal": 2122,
      "urs": 2123,
      "Ġability": 2124,
      "Conclusion": 2125,
      "Ġresult": 2126,
      "Ġgame": 2127,
      "ended": 2128,
      "ĠGod": 2129,
      "pro": 2130,
      "uid": 2131,
      "ĠCl": 2132,
      "Ġstudy": 2133,
      "Ġinnovation": 2134,
      "Ġprofessional": 2135,
      "br": 2136,
      "Ġlight": 2137,
      "isc": 2138,
      "pected": 2139,
      "Ġfoster": 2140,
      "enced": 2141,
      "Ġstrategic": 2142,
      "Ġprec": 2143,
      "Ġstory": 2144,
      "Ġexpect": 2145,
      "Ġhigher": 2146,
      "Ġcustomers": 2147,
      "eper": 2148,
      "urr": 2149,
      "Ġcover": 2150,
      "Ġappear": 2151,
      "Ġamid": 2152,
      "Ġspecifically": 2153,
      "Ġadm": 2154,
      "Ġmanaging": 2155,
      "Ġadditional": 2156,
      "ugg": 2157,
      "Ġcompany": 2158,
      "Ġtas": 2159,
      "tis": 2160,
      "Ġrest": 2161,
      "going": 2162,
      "Ġmeasures": 2163,
      "Ġmention": 2164,
      "Ġhistory": 2165,
      "ds": 2166,
      "atisf": 2167,
      "making": 2168,
      "Ġcirc": 2169,
      "Ġearly": 2170,
      "az": 2171,
      "ees": 2172,
      "Ġchanges": 2173,
      "Ġaccording": 2174,
      "Ġcollec": 2175,
      "Ġeth": 2176,
      "Ġstill": 2177,
      "ites": 2178,
      "ĠDevelop": 2179,
      "Ġlangu": 2180,
      "Ġpo": 2181,
      "Ġdelve": 2182,
      "Ġtypes": 2183,
      "izes": 2184,
      "Ġspirit": 2185,
      "Ġupd": 2186,
      "ores": 2187,
      "Ġmakes": 2188,
      "Ġinnovative": 2189,
      "Ġpowerful": 2190,
      "Ġcraf": 2191,
      "Ġcompared": 2192,
      "Ġprogress": 2193,
      "Ġfoot": 2194,
      "Ġ19": 2195,
      "Ġsharing": 2196,
      "Ġperiod": 2197,
      "Ġlist": 2198,
      "ĠFrom": 2199,
      "Ġprevent": 2200,
      "ament": 2201,
      "Ġpros": 2202,
      "Ġsince": 2203,
      "Ġrobust": 2204,
      "ats": 2205,
      "Ġachieve": 2206,
      "just": 2207,
      "Ġcosts": 2208,
      "ĠTra": 2209,
      "Ġquick": 2210,
      "Ġpain": 2211,
      "let": 2212,
      "Ġbeg": 2213,
      "Ġrequirements": 2214,
      "Ġcome": 2215,
      "Ġpractice": 2216,
      "Ġemer": 2217,
      "Ġinternational": 2218,
      "ify": 2219,
      "Ġempower": 2220,
      "play": 2221,
      "Ġculture": 2222,
      "part": 2223,
      "Ġnatural": 2224,
      "ĠUnit": 2225,
      "Ġinstit": 2226,
      "sc": 2227,
      "Ġcy": 2228,
      "Ġpast": 2229,
      "ules": 2230,
      "Ġalways": 2231,
      "Ġpreferences": 2232,
      "Ġpreser": 2233,
      "sy": 2234,
      "ilience": 2235,
      "ĠSim": 2236,
      "ove": 2237,
      "den": 2238,
      "Ġinstead": 2239,
      "Ġtypically": 2240,
      "Ġlies": 2241,
      "Ġcompanies": 2242,
      "Ġcamp": 2243,
      "ibr": 2244,
      "Ġappropri": 2245,
      "oration": 2246,
      "Ġdeliver": 2247,
      "Ġtraining": 2248,
      "ĠCont": 2249,
      "Ġsoftware": 2250,
      "Ġlit": 2251,
      "Ġdeeper": 2252,
      "Ġturn": 2253,
      "ension": 2254,
      "ived": 2255,
      "Ġproble": 2256,
      "ele": 2257,
      "Ġreducing": 2258,
      "Ġrun": 2259,
      "astly": 2260,
      "Ġpolicies": 2261,
      "Ġran": 2262,
      "ret": 2263,
      "Ġorig": 2264,
      "Ġever": 2265,
      "Ġgreater": 2266,
      "Ġtem": 2267,
      "entic": 2268,
      "ĠExam": 2269,
      "ĠOr": 2270,
      "akes": 2271,
      "ĠStud": 2272,
      "Ġconduc": 2273,
      "areness": 2274,
      "Ġscen": 2275,
      "Ġfood": 2276,
      "Ġenabling": 2277,
      "ĠRec": 2278,
      "Ġproduction": 2279,
      "Ġconstruc": 2280,
      "ĠQ": 2281,
      "aching": 2282,
      "Ġelectr": 2283,
      "Ġbroader": 2284,
      "Ġdon": 2285,
      "iliar": 2286,
      "iance": 2287,
      "ouse": 2288,
      "Ġteams": 2289,
      "Ġdam": 2290,
      "ground": 2291,
      "ĠCourse": 2292,
      "Ġplace": 2293,
      "Ġposition": 2294,
      "Ġdistin": 2295,
      "aged": 2296,
      "Ġlegal": 2297,
      "Ġstrategy": 2298,
      "Ġmedical": 2299,
      "based": 2300,
      "omen": 2301,
      "Ġadop": 2302,
      "Ġstream": 2303,
      "Ġresponsible": 2304,
      "Ġspace": 2305,
      "Ġsatisf": 2306,
      "Ġsw": 2307,
      "Ġbehavior": 2308,
      "ighting": 2309,
      "Ġdesp": 2310,
      "Ġshif": 2311,
      "Ġalike": 2312,
      "tise": 2313,
      "Ġchallenging": 2314,
      "Ġcore": 2315,
      "Ġdeb": 2316,
      "Ġlives": 2317,
      "Ġshaping": 2318,
      "ode": 2319,
      "Ġvol": 2320,
      "istance": 2321,
      "Ġincreasingly": 2322,
      "olution": 2323,
      "Ġremember": 2324,
      "side": 2325,
      "Ġra": 2326,
      "Ġthree": 2327,
      "Ġnear": 2328,
      "Ġdive": 2329,
      "Ġhistorical": 2330,
      "Ġamidst": 2331,
      "ours": 2332,
      "Ġevent": 2333,
      "Ġsteps": 2334,
      "oms": 2335,
      "Ġing": 2336,
      "edi": 2337,
      "Ġcomput": 2338,
      "Ġregion": 2339,
      "Ġwr": 2340,
      "Ġfamily": 2341,
      "irt": 2342,
      "Ġopportunity": 2343,
      "Ġconst": 2344,
      "Ġauthor": 2345,
      "urance": 2346,
      "Ġways": 2347,
      "Ġperf": 2348,
      "Ġnarra": 2349,
      "Ġinvolve": 2350,
      "Ġongoing": 2351,
      "ĠInst": 2352,
      "Ġste": 2353,
      "Ġexec": 2354,
      "Ġmaxim": 2355,
      "orm": 2356,
      "Ġproject": 2357,
      "Ġresilience": 2358,
      "Ġstruct": 2359,
      "Ġcareful": 2360,
      ",\"": 2361,
      "Ġrich": 2362,
      "IV": 2363,
      "Ġvide": 2364,
      "Ġones": 2365,
      "ĠSc": 2366,
      "agn": 2367,
      "ems": 2368,
      "Ġclients": 2369,
      "Ġoperations": 2370,
      "Ġmonit": 2371,
      "icated": 2372,
      "ean": 2373,
      "su": 2374,
      "Ġrecord": 2375,
      "aim": 2376,
      "Ġapplication": 2377,
      "Ġfel": 2378,
      "Ġorganization": 2379,
      "Ġdirectly": 2380,
      "ĠAfter": 2381,
      "Ġoptimal": 2382,
      "ĠIf": 2383,
      "Ġtext": 2384,
      "Ġefficiency": 2385,
      "Ġpath": 2386,
      "Ġheart": 2387,
      "Ġsignificance": 2388,
      "sych": 2389,
      "Ġaction": 2390,
      "oph": 2391,
      "Ġgood": 2392,
      "Ġexisting": 2393,
      "ternal": 2394,
      "Ġcurrent": 2395,
      "aign": 2396,
      "Ġidentify": 2397,
      "place": 2398,
      "Ġtechnologies": 2399,
      "ĠAss": 2400,
      "Ġeveryone": 2401,
      "Ġsum": 2402,
      "--------------------------------": 2403,
      "Ġroles": 2404,
      "Ġsing": 2405,
      "Ġflex": 2406,
      "Ġworks": 2407,
      "tivity": 2408,
      "Ġshort": 2409,
      "Ġmentioned": 2410,
      "Ġembracing": 2411,
      "ked": 2412,
      "Ġhead": 2413,
      "Ġpolitical": 2414,
      "pecially": 2415,
      "put": 2416,
      "ĠAnal": 2417,
      "Ġhere": 2418,
      "This": 2419,
      "Ġcontain": 2420,
      "Ġdocu": 2421,
      "Ġsecure": 2422,
      "der": 2423,
      "iences": 2424,
      "Ġdr": 2425,
      "Ġmeans": 2426,
      "ĠAccording": 2427,
      "Ġinj": 2428,
      "Ġmer": 2429,
      "Ġlooking": 2430,
      "Ġdemand": 2431,
      "Ġsound": 2432,
      "ĠThere": 2433,
      "Ġavoid": 2434,
      "Now": 2435,
      "know": 2436,
      "Ġexerc": 2437,
      "Ġsubst": 2438,
      "Ġdespite": 2439,
      "though": 2440,
      "Ġprojects": 2441,
      "Ġfeed": 2442,
      "Ġespecially": 2443,
      "ibilities": 2444,
      "aste": 2445,
      "Ġworth": 2446,
      "Ġyoun": 2447,
      "iet": 2448,
      "Ġpotentially": 2449,
      "Ġanalysis": 2450,
      "Ġapproaches": 2451,
      "Ġpossible": 2452,
      "ender": 2453,
      "active": 2454,
      "Ġcompl": 2455,
      "Ġcontemporary": 2456,
      "ystem": 2457,
      "When": 2458,
      "Ġquestions": 2459,
      "ots": 2460,
      "Ġhaving": 2461,
      "Ġconsistent": 2462,
      "aster": 2463,
      "**:": 2464,
      "Ġadjust": 2465,
      "Ġprimary": 2466,
      "Ġfriends": 2467,
      "ged": 2468,
      "Introduction": 2469,
      "Ġaimed": 2470,
      "ĠSer": 2471,
      "work": 2472,
      "Ġexpand": 2473,
      "Ġseam": 2474,
      "Ġobjec": 2475,
      "Ġcontinue": 2476,
      "Ġpromote": 2477,
      "iable": 2478,
      "ĠSp": 2479,
      "ĠPer": 2480,
      "Ġidenti": 2481,
      "Ġtaking": 2482,
      "Ġrele": 2483,
      "Ġsolid": 2484,
      "ony": 2485,
      "Ġnow": 2486,
      "Ġbi": 2487,
      "ĠChristian": 2488,
      "Ġreview": 2489,
      "ef": 2490,
      "orough": 2491,
      "uly": 2492,
      "Ġdevices": 2493,
      "Ġneg": 2494,
      "Ġevidence": 2495,
      "Ġchann": 2496,
      "arily": 2497,
      "Ġget": 2498,
      "Ġrefers": 2499,
      "Ġcal": 2500,
      "ause": 2501,
      "Ġimproved": 2502,
      "Ġenvironmental": 2503,
      "Ġhol": 2504,
      "ĠWor": 2505,
      "Ġsearch": 2506,
      "Ġfa": 2507,
      "Ġstrugg": 2508,
      "int": 2509,
      "ersonal": 2510,
      "ray": 2511,
      "quality": 2512,
      "Ġrespect": 2513,
      "Ġqual": 2514,
      "Ġappropriate": 2515,
      "akehold": 2516,
      "Ġrequired": 2517,
      "Ġlever": 2518,
      "espite": 2519,
      "ife": 2520,
      "isms": 2521,
      "iven": 2522,
      "ĠPh": 2523,
      "Ġstandards": 2524,
      "Ġseamless": 2525,
      "Ġec": 2526,
      "Ġground": 2527,
      "Ġcapabilities": 2528,
      "Ġlove": 2529,
      "Ġbar": 2530,
      "Ġbas": 2531,
      "force": 2532,
      "oved": 2533,
      "Ġnavigate": 2534,
      "Ġcomfort": 2535,
      "inist": 2536,
      "ustr": 2537,
      "face": 2538,
      "Ġforms": 2539,
      "Ġhard": 2540,
      "Ġauthentic": 2541,
      "hic": 2542,
      "Ġexpertise": 2543,
      "ffic": 2544,
      "Ġshowc": 2545,
      "itch": 2546,
      "ified": 2547,
      "ank": 2548,
      "Ġrefer": 2549,
      "ĠNew": 2550,
      "Ġreput": 2551,
      "Ġfree": 2552,
      "ativity": 2553,
      "Ġimplications": 2554,
      "Ġbegin": 2555,
      "Ġcut": 2556,
      "Ġwa": 2557,
      "Ġcampaign": 2558,
      "aily": 2559,
      "Ġemotional": 2560,
      "Ġcultiv": 2561,
      "itig": 2562,
      "ote": 2563,
      "ĠIntroduction": 2564,
      "Ġdial": 2565,
      "Ġrelated": 2566,
      "Ġlanguage": 2567,
      "uty": 2568,
      "Ġspe": 2569,
      "Ġtransport": 2570,
      "Ġtreatment": 2571,
      "Ġinitiatives": 2572,
      "anti": 2573,
      "Ġproperty": 2574,
      "'ll": 2575,
      "encing": 2576,
      "Ġpurch": 2577,
      "Ġdesc": 2578,
      "Ġrig": 2579,
      "ĠSuch": 2580,
      "ope": 2581,
      "oud": 2582,
      "Ġhold": 2583,
      "times": 2584,
      "ĠWhether": 2585,
      "How": 2586,
      "Ġpoints": 2587,
      "Ġconnection": 2588,
      "Ġtherap": 2589,
      "Ġperfect": 2590,
      "ĠAmerican": 2591,
      "rame": 2592,
      "Ġtranspar": 2593,
      "idents": 2594,
      "ĠTechn": 2595,
      "Ġdid": 2596,
      "Ġfrequ": 2597,
      "Ġheav": 2598,
      "Ġitself": 2599,
      "Ġengine": 2600,
      "Ġfaced": 2601,
      "Ġbound": 2602,
      "ĠSec": 2603,
      "Ġemerg": 2604,
      "Ġexpos": 2605,
      "Ġentire": 2606,
      "inking": 2607,
      "ĠConsider": 2608,
      "Ġaway": 2609,
      "Ġseason": 2610,
      "Ġbody": 2611,
      "fic": 2612,
      "pass": 2613,
      "Ġadvanced": 2614,
      "Ġstakehold": 2615,
      "Ġann": 2616,
      "Ġinterests": 2617,
      "Ġobser": 2618,
      "Ġreve": 2619,
      "Ġfull": 2620,
      "onic": 2621,
      "Ġpred": 2622,
      "Ġenvironments": 2623,
      "Ġhighlights": 2624,
      "20": 2625,
      "Ġ$": 2626,
      "Ġline": 2627,
      "ened": 2628,
      "Ġmanufacturing": 2629,
      "Ġcomprehensive": 2630,
      "Ġsources": 2631,
      "Ġfill": 2632,
      "Ġadvance": 2633,
      "Ġexpress": 2634,
      "Ġsociety": 2635,
      "hes": 2636,
      "Ġfail": 2637,
      "ĠBl": 2638,
      "apid": 2639,
      "vention": 2640,
      "Ġexamine": 2641,
      "Ġawareness": 2642,
      "Ġcross": 2643,
      "Ġfasc": 2644,
      "ishing": 2645,
      "Ġcapable": 2646,
      "usive": 2647,
      "Ġhowever": 2648,
      "Ġmeaningful": 2649,
      "Ġmis": 2650,
      "Ġrelationship": 2651,
      "ĠStrateg": 2652,
      "Ġcontext": 2653,
      "ewel": 2654,
      "Ġlarge": 2655,
      "Ġtre": 2656,
      "Ġtruly": 2657,
      "Ġexpectations": 2658,
      "Ġappreciation": 2659,
      "Ġrev": 2660,
      "ĠDes": 2661,
      "Ġstories": 2662,
      "Ġdraw": 2663,
      "me": 2664,
      "Ġthorough": 2665,
      "Ġey": 2666,
      "Ġthreat": 2667,
      "ulations": 2668,
      "Ġequip": 2669,
      "Ġunc": 2670,
      "Ġmob": 2671,
      "aches": 2672,
      "Ġchallenge": 2673,
      "Ġcloser": 2674,
      "Ġingred": 2675,
      "ener": 2676,
      "ĠPre": 2677,
      "Ġeducational": 2678,
      "Ġliving": 2679,
      "Ġrout": 2680,
      "man": 2681,
      "Ġresponse": 2682,
      "Ġcontributing": 2683,
      "Ġhy": 2684,
      "Ġenth": 2685,
      "Ġcompetitive": 2686,
      "Ġhapp": 2687,
      "Ġgather": 2688,
      "Ġdaily": 2689,
      "Ġlik": 2690,
      "Ġlow": 2691,
      "Ġdeveloping": 2692,
      "hood": 2693,
      "Ġexamining": 2694,
      "Ġgroups": 2695,
      "orous": 2696,
      "Ġface": 2697,
      "Ġterms": 2698,
      "Ġinspir": 2699,
      "Ġthereby": 2700,
      "Ġresulting": 2701,
      "Ġgroup": 2702,
      "Ġvehic": 2703,
      "eless": 2704,
      "Ġprotec": 2705,
      "Ġdetails": 2706,
      "usi": 2707,
      "ounts": 2708,
      "Ġinfluence": 2709,
      "Ġsugges": 2710,
      "ĠMarket": 2711,
      "Ġinvolving": 2712,
      "Ġmach": 2713,
      "ooth": 2714,
      "Ġparties": 2715,
      "rup": 2716,
      "Ġthings": 2717,
      "Ġfar": 2718,
      "Ġskin": 2719,
      "ĠSome": 2720,
      "Ġclean": 2721,
      "Ġimplementing": 2722,
      "wide": 2723,
      "Ġloss": 2724,
      "af": 2725,
      "Ġpiece": 2726,
      "Ġcater": 2727,
      "Ġsense": 2728,
      "oth": 2729,
      "Ġsl": 2730,
      "itable": 2731,
      "Ġuntil": 2732,
      "Ġintricate": 2733,
      "Ġinterp": 2734,
      "Ġage": 2735,
      "ised": 2736,
      "Ġchec": 2737,
      "Ġchannels": 2738,
      "come": 2739,
      "Ġconflic": 2740,
      "Ġconsumers": 2741,
      "ux": 2742,
      "Ġisn": 2743,
      "Ġenthusi": 2744,
      "iol": 2745,
      "ilt": 2746,
      "ator": 2747,
      "Ġmatch": 2748,
      "Ġmodels": 2749,
      "cepts": 2750,
      "Ġnext": 2751,
      "Ġexperienced": 2752,
      "Ġalternative": 2753,
      "Ġtasks": 2754,
      "Ġscenar": 2755,
      "Ġfeature": 2756,
      "bers": 2757,
      "Ġcele": 2758,
      "orn": 2759,
      "Ġremind": 2760,
      "Ġlower": 2761,
      "emic": 2762,
      "At": 2763,
      "Ġyoung": 2764,
      "head": 2765,
      "Ġtype": 2766,
      "Ġproced": 2767,
      "III": 2768,
      "Ġdialog": 2769,
      "ole": 2770,
      "Ġpack": 2771,
      "Ġenable": 2772,
      "Ġsustainable": 2773,
      "Ġhar": 2774,
      "Ġaudiences": 2775,
      "Ġreturn": 2776,
      "Ġstakeholders": 2777,
      "Ġver": 2778,
      "ĠInt": 2779,
      "ĠSu": 2780,
      "ĠPol": 2781,
      "ĠTheir": 2782,
      "Ġoffering": 2783,
      "Ġcreativity": 2784,
      "Ġ6": 2785,
      "Ġarea": 2786,
      "Ġinvestig": 2787,
      "Ġreduce": 2788,
      "Ġjob": 2789,
      "Ġfew": 2790,
      "Ġadvantages": 2791,
      "Ġeconomic": 2792,
      "cer": 2793,
      "aff": 2794,
      "being": 2795,
      "ude": 2796,
      "inally": 2797,
      "ticip": 2798,
      "Ġacqu": 2799,
      "resh": 2800,
      "ĠSe": 2801,
      "Ġphot": 2802,
      "Ġstudies": 2803,
      "Ġinitial": 2804,
      "Ġexternal": 2805,
      "mer": 2806,
      "Ġprotection": 2807,
      "ĠConsequ": 2808,
      "Ġsimple": 2809,
      "Ġchildren": 2810,
      "Ġwebsite": 2811,
      "Ġactions": 2812,
      "By": 2813,
      "Ġindic": 2814,
      "not": 2815,
      "Ġlog": 2816,
      "Ġrapid": 2817,
      "ĠEv": 2818,
      "Ġpsych": 2819,
      "Ġstress": 2820,
      "Ġgovernment": 2821,
      "VI": 2822,
      "urb": 2823,
      "Ġvisit": 2824,
      "acking": 2825,
      "Ġbackground": 2826,
      "Ġprivacy": 2827,
      "ribution": 2828,
      "Ġsingle": 2829,
      "itiz": 2830,
      "Ġinstitutions": 2831,
      "Ġlimit": 2832,
      "Ġunex": 2833,
      "Ġdriving": 2834,
      "Ġestablished": 2835,
      "enses": 2836,
      "Moreover": 2837,
      "Ġdiv": 2838,
      "ĠPrac": 2839,
      "Ġalongside": 2840,
      "Firstly": 2841,
      "Ġinher": 2842,
      "ox": 2843,
      "acts": 2844,
      "Ġexcell": 2845,
      "Ġonce": 2846,
      "Ġimprovement": 2847,
      "Ġpossess": 2848,
      "ewelry": 2849,
      "pping": 2850,
      "Ġmonth": 2851,
      "Ġadvent": 2852,
      "Ġouts": 2853,
      "aun": 2854,
      "Ġrange": 2855,
      "tenance": 2856,
      "irtual": 2857,
      "However": 2858,
      "ured": 2859,
      "But": 2860,
      "Ġrecomm": 2861,
      "ished": 2862,
      "ront": 2863,
      "Ġappreciate": 2864,
      "Ġcircum": 2865,
      "Ġspiritual": 2866,
      "ops": 2867,
      "atively": 2868,
      "Ġpatient": 2869,
      "Ġactive": 2870,
      "Ġsatisfaction": 2871,
      "Ġcand": 2872,
      "irm": 2873,
      "Ġstructure": 2874,
      "Ġge": 2875,
      "ĠEnc": 2876,
      "Ġsales": 2877,
      "cle": 2878,
      "Ġarts": 2879,
      "esthe": 2880,
      "Ġissue": 2881,
      "land": 2882,
      "Ġair": 2883,
      "Ġopp": 2884,
      "Ġplayer": 2885,
      "Ġpatients": 2886,
      "Ġquickly": 2887,
      "ultane": 2888,
      "Ġcareer": 2889,
      "athy": 2890,
      "Ġinvestment": 2891,
      "ifying": 2892,
      "epend": 2893,
      "akers": 2894,
      "Ġtrue": 2895,
      "Ġfavor": 2896,
      "ump": 2897,
      "ĠUs": 2898,
      "Ġcry": 2899,
      "ĠRes": 2900,
      "Ġsettings": 2901,
      "Ġnavigating": 2902,
      "Ġwar": 2903,
      "ĠDef": 2904,
      "ĠZ": 2905,
      "Ġpursu": 2906,
      "Ġstructures": 2907,
      "Ġlessons": 2908,
      "pose": 2909,
      "itness": 2910,
      "ulner": 2911,
      "ĠEng": 2912,
      "ĠRem": 2913,
      "Ġreduced": 2914,
      "Ġguidance": 2915,
      "Ġbreak": 2916,
      "Ġdedicated": 2917,
      "Ġtest": 2918,
      "Ġsection": 2919,
      "compass": 2920,
      "Ġcreative": 2921,
      "Ġdevelopers": 2922,
      "ĠIts": 2923,
      "Ġbecause": 2924,
      "onom": 2925,
      "Ġaspir": 2926,
      "Ġdom": 2927,
      "rics": 2928,
      "ingly": 2929,
      "ran": 2930,
      "ĠMed": 2931,
      "hib": 2932,
      "Ġtac": 2933,
      "igence": 2934,
      "Ġneeded": 2935,
      "ĠConsequently": 2936,
      "Ġunexpected": 2937,
      "Ġforward": 2938,
      "Ġlocation": 2939,
      "Ġleadership": 2940,
      "Ġtemper": 2941,
      "use": 2942,
      "Ġguidelines": 2943,
      "Ġrepresents": 2944,
      "Ġillustr": 2945,
      "ĠExpl": 2946,
      "Ġexch": 2947,
      "ither": 2948,
      "Ġprepar": 2949,
      "Ġpharm": 2950,
      "Ġfaith": 2951,
      "Ex": 2952,
      "Ġcontinuous": 2953,
      "Ġrights": 2954,
      "Ġplans": 2955,
      "aceu": 2956,
      "Ġevolving": 2957,
      "Ġresource": 2958,
      "Ġnetworks": 2959,
      "Ġmat": 2960,
      "Ġrequiring": 2961,
      "Ġartic": 2962,
      "Ġmut": 2963,
      "ird": 2964,
      "ule": 2965,
      "Ġdest": 2966,
      "Ġonto": 2967,
      "Lastly": 2968,
      "Ġsets": 2969,
      "Ġemerging": 2970,
      "ĠHis": 2971,
      "Ġsyn": 2972,
      "Ġsometimes": 2973,
      "Ġinvesting": 2974,
      "Ġmanage": 2975,
      "Ġworldwide": 2976,
      "Ġarch": 2977,
      "world": 2978,
      "Ġarg": 2979,
      "Ġpressure": 2980,
      "Ġequipment": 2981,
      "rig": 2982,
      "Ġfeedback": 2983,
      "lier": 2984,
      "osp": 2985,
      "Ġimproving": 2986,
      "ĠYou": 2987,
      "ev": 2988,
      "Ġmill": 2989,
      "Ġmotiv": 2990,
      "structure": 2991,
      "Ġhost": 2992,
      "ager": 2993,
      "Ġfunctionality": 2994,
      "utri": 2995,
      "ressive": 2996,
      "Ġbenefit": 2997,
      "Ġsched": 2998,
      "Ġunders": 2999,
      "ultaneously": 3000,
      "Ġwarm": 3001,
      "Ġred": 3002,
      "###": 3003,
      "olving": 3004,
      "Ġdynamics": 3005,
      "Ġproviders": 3006,
      "Ġintegration": 3007,
      "Ġbud": 3008,
      "ceed": 3009,
      "ĠIs": 3010,
      "Ġconsidering": 3011,
      "Ġgreat": 3012,
      "Ġvulner": 3013,
      "plement": 3014,
      "Ġcell": 3015,
      "apter": 3016,
      "ĠKey": 3017,
      "Ġdoing": 3018,
      "uilding": 3019,
      "Ġbur": 3020,
      "Ġrigorous": 3021,
      "auty": 3022,
      "ĠEach": 3023,
      "Ġsuper": 3024,
      "Ġconcepts": 3025,
      "Ġz": 3026,
      "Ġproperties": 3027,
      "Ġidentity": 3028,
      "Ġfascinating": 3029,
      "Ġdur": 3030,
      "ĠIns": 3031,
      "tiveness": 3032,
      "Ġsil": 3033,
      "Ġtool": 3034,
      "Ġsus": 3035,
      "Ġframe": 3036,
      "Ġwant": 3037,
      "alls": 3038,
      "ek": 3039,
      "Ġ`": 3040,
      "uries": 3041,
      "Ġcircumst": 3042,
      "Ġimag": 3043,
      "orage": 3044,
      "ides": 3045,
      "bility": 3046,
      "Ġrelig": 3047,
      "Ġsomeone": 3048,
      "Ġaesthe": 3049,
      "Ġencounter": 3050,
      "ables": 3051,
      "Ġvo": 3052,
      "Ġchoices": 3053,
      "Ġvideo": 3054,
      "Ġold": 3055,
      "Ġexcep": 3056,
      "Ġadvoc": 3057,
      "Ġwatch": 3058,
      "Ġreson": 3059,
      "auti": 3060,
      "Ġtalent": 3061,
      "Ġusage": 3062,
      "Ġdistinct": 3063,
      "Ġcompos": 3064,
      "Ġthri": 3065,
      "Ġtoward": 3066,
      "ensions": 3067,
      "avors": 3068,
      "Ġmodel": 3069,
      "ĠSimilar": 3070,
      "Ġselecting": 3071,
      "Ġprep": 3072,
      "Ġclaim": 3073,
      "Ġregulations": 3074,
      "Ġmitig": 3075,
      "Ġparam": 3076,
      "ĠTrans": 3077,
      "Ġgames": 3078,
      "Ġpoint": 3079,
      "ĠInstead": 3080,
      "Ġcircumstances": 3081,
      "ably": 3082,
      "Ġcolle": 3083,
      "iles": 3084,
      "ĠEncoura": 3085,
      "ĠId": 3086,
      "Ġdesired": 3087,
      "Ġcolor": 3088,
      "Ġcarefully": 3089,
      "Ġeffects": 3090,
      "Ġflow": 3091,
      "Ġconsideration": 3092,
      "oming": 3093,
      "Ġnecessit": 3094,
      "ster": 3095,
      "icro": 3096,
      "Ġinstall": 3097,
      "ohn": 3098,
      "Ġencompass": 3099,
      "Ġboundaries": 3100,
      "vation": 3101,
      "ĠTim": 3102,
      "Ġprevious": 3103,
      "Ġtransparency": 3104,
      "Ġpa": 3105,
      "Ġinteractions": 3106,
      "Ġextra": 3107,
      "outh": 3108,
      "Ġdev": 3109,
      "isd": 3110,
      "Ġtopics": 3111,
      "cing": 3112,
      "aced": 3113,
      "esearch": 3114,
      "Ġadvers": 3115,
      "Ġfig": 3116,
      "Ġtechnical": 3117,
      "Ġintegrating": 3118,
      "Ġminimizing": 3119,
      "Ġcollective": 3120,
      "Ġunderlying": 3121,
      "Ġaudience": 3122,
      "Ġversati": 3123,
      "Ġapart": 3124,
      "enn": 3125,
      "Ġcases": 3126,
      "Ġethical": 3127,
      "Ġcompet": 3128,
      "ails": 3129,
      "Ġjewelry": 3130,
      "Ġartis": 3131,
      "reen": 3132,
      "Ġviol": 3133,
      "eral": 3134,
      "âĢĿ": 3135,
      "Ġexploration": 3136,
      "venue": 3137,
      "Ġimmedi": 3138,
      "Ġproblem": 3139,
      "Ġundersc": 3140,
      "Ġdim": 3141,
      "rastructure": 3142,
      "Ġmaj": 3143,
      "fford": 3144,
      "Ġmechanisms": 3145,
      "rist": 3146,
      "itation": 3147,
      "Ġmaintenance": 3148,
      "Ġhon": 3149,
      "Ġconsequ": 3150,
      "ĠGuid": 3151,
      "istics": 3152,
      "Ġrecip": 3153,
      "coming": 3154,
      "gest": 3155,
      "Ġwin": 3156,
      "oney": 3157,
      "Ġdecid": 3158,
      "Ġadminist": 3159,
      "ĠCo": 3160,
      "Ġsmooth": 3161,
      "Ġprioriti": 3162,
      "Ġoffered": 3163,
      "Ġenhanced": 3164,
      "Ġnetwork": 3165,
      "Ġ200": 3166,
      "Ġdamage": 3167,
      "ĠMar": 3168,
      "Ġcorre": 3169,
      "Ġobjectives": 3170,
      "Ġdialogue": 3171,
      "mit": 3172,
      "Ġsports": 3173,
      "Ġflexibility": 3174,
      "Ġbeauty": 3175,
      "umb": 3176,
      "Ġsci": 3177,
      "Ġsituations": 3178,
      "Ġfosters": 3179,
      "Ġresponsibility": 3180,
      "Ġcandid": 3181,
      "ĠCommun": 3182,
      "Ġcrim": 3183,
      "ĠOp": 3184,
      "Ġencourages": 3185,
      "Ġcounter": 3186,
      "Ġabilities": 3187,
      "Ġaccom": 3188,
      "Ġguide": 3189,
      "Ġseek": 3190,
      "Ġdemonstrate": 3191,
      "Ġeasy": 3192,
      "ĠX": 3193,
      "Ġstat": 3194,
      "Ġvibr": 3195,
      "augh": 3196,
      "overy": 3197,
      "Ġsupporting": 3198,
      "Ġcalled": 3199,
      "Ġdynamic": 3200,
      "Ġwind": 3201,
      "Ġminimize": 3202,
      "Ġfacilitate": 3203,
      "Ġcat": 3204,
      "alle": 3205,
      "Ġanalyzing": 3206,
      "``": 3207,
      "emp": 3208,
      "Ġstability": 3209,
      "Ġconstit": 3210,
      "Ġinsurance": 3211,
      "Ġexposure": 3212,
      "aceutical": 3213,
      "Ġappeal": 3214,
      "ĠHigh": 3215,
      "Ġteach": 3216,
      "Ġdise": 3217,
      "Ġcontinued": 3218,
      "med": 3219,
      "Ġtouch": 3220,
      "Ġrein": 3221,
      "ification": 3222,
      "Ġerr": 3223,
      "Ġcompati": 3224,
      "Ġdepending": 3225,
      "Ġsubstanti": 3226,
      "acting": 3227,
      "ĠInter": 3228,
      "oyal": 3229,
      "Ġpieces": 3230,
      "ĠTe": 3231,
      "Ġacad": 3232,
      "Ġadher": 3233,
      "Ġfamiliar": 3234,
      "Ġeffort": 3235,
      "esty": 3236,
      "Ġinstruc": 3237,
      "Ġcutting": 3238,
      "utes": 3239,
      "Ġintroduc": 3240,
      "Ġhandling": 3241,
      "Ġpresence": 3242,
      "Ġingredients": 3243,
      "ring": 3244,
      "Ġofficial": 3245,
      "Ġearlier": 3246,
      "Ġefficient": 3247,
      "Ġenough": 3248,
      "ĠTherefore": 3249,
      "Ġinherent": 3250,
      "Ġsect": 3251,
      "Ġport": 3252,
      "ĠâĢľ": 3253,
      "Ġgrowing": 3254,
      "ĠHealth": 3255,
      "Ġdocument": 3256,
      "Ġsame": 3257,
      "oday": 3258,
      "Ġlimited": 3259,
      "uel": 3260,
      "Ġterm": 3261,
      "Ġconcer": 3262,
      "Ġseemingly": 3263,
      "Ġdedication": 3264,
      "Ġtransportation": 3265,
      "Ġbase": 3266,
      "ĠCase": 3267,
      "onds": 3268,
      "Ġinfrastructure": 3269,
      "Ġsafe": 3270,
      "Ġimmers": 3271,
      "Ġwellbeing": 3272,
      "Ġconsumer": 3273,
      "acity": 3274,
      "Ġanti": 3275,
      "endly": 3276,
      "taining": 3277,
      "Ġdiscussions": 3278,
      "Ġacknow": 3279,
      "ĠMon": 3280,
      "Ġsole": 3281,
      "ulate": 3282,
      "Ġprocedures": 3283,
      "Ġwid": 3284,
      "ĠGo": 3285,
      "Ġconsiderations": 3286,
      "issions": 3287,
      "Ġaccurate": 3288,
      "On": 3289,
      "lo": 3290,
      "Ġvary": 3291,
      "ooks": 3292,
      "ĠSch": 3293,
      "Ġsimultaneously": 3294,
      "ĠSimilarly": 3295,
      "eter": 3296,
      "Ġthemes": 3297,
      "Ġcateg": 3298,
      "urch": 3299,
      "Ġinsp": 3300,
      "Ġincrease": 3301,
      "icious": 3302,
      "Ġmarkets": 3303,
      "Ġcontributes": 3304,
      "Ġpreserving": 3305,
      "Ġath": 3306,
      "Ġleft": 3307,
      "Ġcreation": 3308,
      "ups": 3309,
      "Ġpassion": 3310,
      "ann": 3311,
      "Ġpropos": 3312,
      "Ġadvancements": 3313,
      "Ġartists": 3314,
      "Ġprimarily": 3315,
      "ĠRegular": 3316,
      "Ġmoment": 3317,
      "Ġoriginal": 3318,
      "ĠDesign": 3319,
      "Ġattr": 3320,
      "Ġnews": 3321,
      "Ġspecialized": 3322,
      "Ġstyle": 3323,
      "19": 3324,
      "Ġdiffic": 3325,
      "Ġmonitoring": 3326,
      "Ġexist": 3327,
      "Ġabs": 3328,
      "Ġnotable": 3329,
      "ina": 3330,
      "Ġelev": 3331,
      "urt": 3332,
      "Ġgiven": 3333,
      "Ġspaces": 3334,
      "ĠAlthough": 3335,
      "eline": 3336,
      "ls": 3337,
      "essions": 3338,
      "ĠOff": 3339,
      "Ġfootball": 3340,
      "Ġconsequences": 3341,
      "riers": 3342,
      "Ġgenu": 3343,
      "amm": 3344,
      "uing": 3345,
      "Ġsize": 3346,
      "Ġhours": 3347,
      "ĠShe": 3348,
      "Ġtax": 3349,
      "Ġfinal": 3350,
      "Ġoutside": 3351,
      "Ġpush": 3352,
      "apes": 3353,
      "ĠResearch": 3354,
      "while": 3355,
      "ĠLe": 3356,
      "Ġsustainability": 3357,
      "iment": 3358,
      "ĠPar": 3359,
      "Ġalloc": 3360,
      "Ġnor": 3361,
      "ills": 3362,
      "ĠOnce": 3363,
      "gra": 3364,
      "Ġindepend": 3365,
      "Ġnarratives": 3366,
      "For": 3367,
      "Ġafford": 3368,
      "Ġsun": 3369,
      "Ġcam": 3370,
      "Ġtechnological": 3371,
      "ĠDevelopment": 3372,
      "Ġitems": 3373,
      "Ġthus": 3374,
      "Ġcelebr": 3375,
      "Ġside": 3376,
      "Ġfour": 3377,
      "Ġwond": 3378,
      "Ġarr": 3379,
      "Ġcredit": 3380,
      "Ġnu": 3381,
      "Ġdemands": 3382,
      "ĠImplement": 3383,
      "ĠBusiness": 3384,
      "Ġanim": 3385,
      "ĠYour": 3386,
      "Ġaff": 3387,
      "Ġsav": 3388,
      "Ġquestion": 3389,
      "Ġnam": 3390,
      "acies": 3391,
      "Ġshape": 3392,
      "Ġempathy": 3393,
      "Ġparticipants": 3394,
      "Ġlines": 3395,
      "Ġprem": 3396,
      "000": 3397,
      "pectives": 3398,
      "Ġstorage": 3399,
      "Ġnovel": 3400,
      "Ġstaff": 3401,
      "Ġvirtual": 3402,
      "ades": 3403,
      "Ġlive": 3404,
      "Ġexciting": 3405,
      "Ġcampaigns": 3406,
      "Ġvari": 3407,
      "itect": 3408,
      "Ġsimpl": 3409,
      "Ġbelief": 3410,
      "ership": 3411,
      "ĠToday": 3412,
      "ĠFirst": 3413,
      "Ġrad": 3414,
      "Ġgained": 3415,
      "inations": 3416,
      "ffective": 3417,
      "Ġstage": 3418,
      "Ġinternal": 3419,
      "illing": 3420,
      "Ġcity": 3421,
      "Ġwomen": 3422,
      "Ġhighly": 3423,
      "Ġnumber": 3424,
      "Section": 3425,
      "Ġmor": 3426,
      "ĠUtil": 3427,
      "Ad": 3428,
      "iors": 3429,
      "Ġeither": 3430,
      "Ġhab": 3431,
      "uck": 3432,
      "Ġcer": 3433,
      "Ġcomprom": 3434,
      "iosity": 3435,
      "Ġupdates": 3436,
      "Ġmajor": 3437,
      "Ġvibrant": 3438,
      "Ġrecords": 3439,
      "Ġbudget": 3440,
      "Ġsolely": 3441,
      "Ġnutri": 3442,
      "aken": 3443,
      "Ġschool": 3444,
      "Ġland": 3445,
      "Ġfoundation": 3446,
      "Ġidentifying": 3447,
      "ography": 3448,
      "Ġpartnerships": 3449,
      "ĠThat": 3450,
      "pon": 3451,
      "owers": 3452,
      "ĠEst": 3453,
      "Ġ202": 3454,
      "Ġintegrity": 3455,
      "Ġhighlight": 3456,
      "Ġfully": 3457,
      "Ġtour": 3458,
      "ifies": 3459,
      "ĠMod": 3460,
      "ommod": 3461,
      "Ġled": 3462,
      "Ġchapter": 3463,
      "Ġclin": 3464,
      "Ġaccommod": 3465,
      "Ġconfidence": 3466,
      "Ġdepth": 3467,
      "ĠĠĠĠ": 3468,
      "Ġlarger": 3469,
      "Ġyield": 3470,
      "Ġpresents": 3471,
      "ĠTips": 3472,
      "ĠCre": 3473,
      "ĠChrist": 3474,
      "Ġpolitics": 3475,
      "Ġbeauti": 3476,
      "Ġsepar": 3477,
      "Ġjud": 3478,
      "ultural": 3479,
      "Ġactivity": 3480,
      "Ġoil": 3481,
      "icit": 3482,
      "ĠRep": 3483,
      "ĠJohn": 3484,
      "Ġindustries": 3485,
      "Ġencouraging": 3486,
      "ift": 3487,
      "ĠPersonal": 3488,
      "Ġparts": 3489,
      "Ġreport": 3490,
      "Ġchoose": 3491,
      "So": 3492,
      "Ġclim": 3493,
      "tric": 3494,
      "Ġpractical": 3495,
      "Ġdesigns": 3496,
      "Ġetc": 3497,
      "Ġfellow": 3498,
      "rip": 3499,
      "Ġours": 3500,
      "Ġprotect": 3501,
      "reg": 3502,
      "une": 3503,
      "Ġdisplay": 3504,
      "Ġmerely": 3505,
      "Ġdays": 3506,
      "Ġreflec": 3507,
      "Ġhealthy": 3508,
      "Ġpeace": 3509,
      "like": 3510,
      "Ġaccordingly": 3511,
      "EO": 3512,
      "ton": 3513,
      "Ġadding": 3514,
      "Ġdemoc": 3515,
      "Ġclosely": 3516,
      "Ġcompetition": 3517,
      "Ġaffecting": 3518,
      "Ġmoments": 3519,
      "Ġmere": 3520,
      "Ġcompelling": 3521,
      "rich": 3522,
      "iversity": 3523,
      "Ġfunctions": 3524,
      "Ġideal": 3525,
      "riter": 3526,
      "Ġtend": 3527,
      "Ġtesting": 3528,
      "tition": 3529,
      "Ġthinking": 3530,
      "Ġsensitive": 3531,
      "Ġachieving": 3532,
      "ietal": 3533,
      "Ġmutual": 3534,
      "Ġ7": 3535,
      "empl": 3536,
      "ĠDespite": 3537,
      "Ġbrow": 3538,
      "Ġstra": 3539,
      "Ġtrack": 3540,
      "Ġchoosing": 3541,
      "ĠManagement": 3542,
      "Ġintell": 3543,
      "ĠDis": 3544,
      "ĠUltimately": 3545,
      "Ġexceptional": 3546,
      "..": 3547,
      "Ġloyal": 3548,
      "Ġregulatory": 3549,
      "ĠDr": 3550,
      "Ġwal": 3551,
      "iring": 3552,
      "Ġsocietal": 3553,
      "Ġcapital": 3554,
      "ĠIdentif": 3555,
      "Ġfair": 3556,
      "Ġweak": 3557,
      "Ġthreats": 3558,
      "Ġrealm": 3559,
      "Ġcomponent": 3560,
      "Ġdiagn": 3561,
      "Ġexcl": 3562,
      "Ġbuy": 3563,
      "Ġgoal": 3564,
      "Ġtherapy": 3565,
      "?\"": 3566,
      "ĠSpec": 3567,
      "Ġamb": 3568,
      "Ġfamil": 3569,
      "ipped": 3570,
      "Ġnever": 3571,
      "Ġjus": 3572,
      "Ġtraffic": 3573,
      "eli": 3574,
      "Ġorder": 3575,
      "ĠStrategies": 3576,
      "Ġblock": 3577,
      "Ġlearned": 3578,
      "idden": 3579,
      "Ġdecided": 3580,
      "mar": 3581,
      "Ġsubstantial": 3582,
      "ung": 3583,
      "ĠNot": 3584,
      "ĠAdv": 3585,
      "While": 3586,
      "Ġutilizing": 3587,
      "Ġfundament": 3588,
      "oor": 3589,
      "Ġhot": 3590,
      "fulness": 3591,
      "Ġcomplete": 3592,
      "Ġadvantage": 3593,
      "urop": 3594,
      "Ġgenerations": 3595,
      "Ġdelivering": 3596,
      "ym": 3597,
      "Ġweight": 3598,
      "Ġlater": 3599,
      "ids": 3600,
      "ĠConclusion": 3601,
      "Ġsituation": 3602,
      "Ġsymb": 3603,
      "val": 3604,
      "Ġfocused": 3605,
      "Ġsessions": 3606,
      "usiv": 3607,
      "Ġcuriosity": 3608,
      "fficient": 3609,
      "arked": 3610,
      "ains": 3611,
      "ĠThus": 3612,
      "Ġourselves": 3613,
      "Ġclient": 3614,
      "Ġcomplexity": 3615,
      "Ġlab": 3616,
      "ĠMe": 3617,
      "ributions": 3618,
      "Ġconstant": 3619,
      "tically": 3620,
      "Ġreliable": 3621,
      "Ġperspectives": 3622,
      "Ġcontinues": 3623,
      "Ġfinding": 3624,
      "Ġpharmaceutical": 3625,
      "orial": 3626,
      "Ġbreat": 3627,
      "ads": 3628,
      "Ġaddition": 3629,
      "Ġcapacity": 3630,
      "Ġconfig": 3631,
      "ded": 3632,
      "egu": 3633,
      "Ġsle": 3634,
      "ifications": 3635,
      "Ġsolution": 3636,
      "Ġcorpor": 3637,
      "arant": 3638,
      "Ġcompliance": 3639,
      "race": 3640,
      "Ġhelping": 3641,
      "Ġreligious": 3642,
      "Ġmobile": 3643,
      "ipl": 3644,
      "Ġvast": 3645,
      "Ġpositi": 3646,
      "Ġstyles": 3647,
      "Ġ8": 3648,
      "ĠCent": 3649,
      "Ġintrig": 3650,
      "Ġcannot": 3651,
      "Ġselection": 3652,
      "Ġcomputer": 3653,
      "que": 3654,
      "Ġmanufactur": 3655,
      "Ġstaying": 3656,
      "Ġregional": 3657,
      "Ġmast": 3658,
      "Ġprice": 3659,
      "Ġencourage": 3660,
      "Ġserving": 3661,
      "Ġbuilt": 3662,
      "Ġfilled": 3663,
      "iny": 3664,
      "Ġhope": 3665,
      "Ġfunctional": 3666,
      "lines": 3667,
      "rises": 3668,
      "Ġoperating": 3669,
      "Ġstandard": 3670,
      "bo": 3671,
      "Ġharness": 3672,
      "Ġcop": 3673,
      "Ġstudent": 3674,
      "Ġchanging": 3675,
      "ract": 3676,
      "Ġsource": 3677,
      "Ġunf": 3678,
      "Ġchoice": 3679,
      "Ġdrive": 3680,
      "ĠUS": 3681,
      "Ġfeat": 3682,
      "ĠGuidelines": 3683,
      "ĠPower": 3684,
      "Ġexact": 3685,
      "Ġconsistently": 3686,
      "Ġscenarios": 3687,
      "ĠRemember": 3688,
      "Ġroom": 3689,
      "Ġdeeply": 3690,
      "Ġcitiz": 3691,
      "assion": 3692,
      "ĠUnited": 3693,
      "Ġranging": 3694,
      "Ġleads": 3695,
      "Ġempowerment": 3696,
      "forcement": 3697,
      "---": 3698,
      "Ġlimitations": 3699,
      "Be": 3700,
      "acters": 3701,
      "Ġdistribution": 3702,
      "Ġartistic": 3703,
      "Ġtakes": 3704,
      "Ġoption": 3705,
      "cent": 3706,
      "ned": 3707,
      "iction": 3708,
      "icians": 3709,
      "edge": 3710,
      "Ġoverl": 3711,
      "Ġscience": 3712,
      "ĠProg": 3713,
      "tal": 3714,
      "arah": 3715,
      "ĠEduc": 3716,
      "Ġabove": 3717,
      "Ġhighlighting": 3718,
      "Ġspeed": 3719,
      "Ġprocessing": 3720,
      "Ġofferings": 3721,
      "Ġenhances": 3722,
      "ister": 3723,
      "ĠDuring": 3724,
      "Ġcontra": 3725,
      "Ġperspective": 3726,
      "Ġrecognizing": 3727,
      "Ġcountless": 3728,
      "ĠStudy": 3729,
      "ĠHist": 3730,
      "Ġagree": 3731,
      "Ġsecond": 3732,
      "ĠRed": 3733,
      "Ġvision": 3734,
      "Ġemployees": 3735,
      "Ġemotions": 3736,
      "Ġconversations": 3737,
      "Im": 3738,
      "ht": 3739,
      "Ġpurpose": 3740,
      "Ġexercise": 3741,
      "Ġprotoc": 3742,
      "Ġstatus": 3743,
      "Ġeverything": 3744,
      "Ġaims": 3745,
      "ians": 3746,
      "oes": 3747,
      "Ġname": 3748,
      "ĠAg": 3749,
      "Ġincludes": 3750,
      "Ġsafegu": 3751,
      "ĠAnaly": 3752,
      "life": 3753,
      "Ġvac": 3754,
      "ĠData": 3755,
      "Ġwebsites": 3756,
      "Ġdiscussing": 3757,
      "Ġtransformation": 3758,
      "Ġperiods": 3759,
      "Ġenthusiasts": 3760,
      "ply": 3761,
      "Ġfear": 3762,
      "ticul": 3763,
      "otal": 3764,
      "Ġimpacts": 3765,
      "ocial": 3766,
      "unning": 3767,
      "iber": 3768,
      "eanwhile": 3769,
      "Ġahead": 3770,
      "Ġlack": 3771,
      "Ġcountry": 3772,
      "Ġcompatibility": 3773,
      "way": 3774,
      "acing": 3775,
      "Ġanx": 3776,
      "Ġpric": 3777,
      "Ġprogramming": 3778,
      "Ġsite": 3779,
      "Ġrate": 3780,
      "Ġsurface": 3781,
      "Ġadds": 3782,
      "Ġreceive": 3783,
      "):": 3784,
      "Ġlasting": 3785,
      "ĠImp": 3786,
      "Ġsuggest": 3787,
      "gor": 3788,
      "ches": 3789,
      "Ġdemonstrates": 3790,
      "Ġsure": 3791,
      "ler": 3792,
      "Ġbegan": 3793,
      "ĠRel": 3794,
      "ruit": 3795,
      "Ġarchitect": 3796,
      "inition": 3797,
      "iding": 3798,
      "Ġdifferences": 3799,
      "Ġalternatives": 3800,
      "Ġtactics": 3801,
      "Ġgenuine": 3802,
      "Ġmass": 3803,
      "Ġexhib": 3804,
      "ĠSystem": 3805,
      "Ġguarant": 3806,
      "fri": 3807,
      "ros": 3808,
      "Ġrevenue": 3809,
      "Ġlink": 3810,
      "Ġdiss": 3811,
      "Ġassets": 3812,
      "Ġproductivity": 3813,
      "Ġstates": 3814,
      "Ġemail": 3815,
      "Ġboasts": 3816,
      "Ġreflect": 3817,
      "Ġrecognition": 3818,
      "set": 3819,
      "Ġmag": 3820,
      "Ġchem": 3821,
      "Ġcloud": 3822,
      "Ġbarriers": 3823,
      "Ġcrafts": 3824,
      "sequ": 3825,
      "Ġparamount": 3826,
      "aks": 3827,
      "Ġten": 3828,
      "Ġdat": 3829,
      "Ġunw": 3830,
      "Ġmovement": 3831,
      "gorith": 3832,
      "Ġstart": 3833,
      "Ġexcess": 3834,
      "orders": 3835,
      "titude": 3836,
      "Ġcr": 3837,
      "Ġfra": 3838,
      "ĠBal": 3839,
      "Ġprofound": 3840,
      "Ġeye": 3841,
      "bs": 3842,
      "backs": 3843,
      "Ġconsult": 3844,
      "Ġnote": 3845,
      "Ġaccessibility": 3846,
      "Ġcrypt": 3847,
      "ĠEurop": 3848,
      "Ġpositions": 3849,
      "Ġenter": 3850,
      "Ġcentral": 3851,
      "Ġprivate": 3852,
      "Ġcard": 3853,
      "ĠMus": 3854,
      "ival": 3855,
      "Ġtransl": 3856,
      "Ġattribut": 3857,
      "Ġwriting": 3858,
      "Ġcode": 3859,
      "Ġmatter": 3860,
      "Ġlux": 3861,
      "Ġcharacters": 3862,
      "Ġrecognize": 3863,
      "Ġsympt": 3864,
      "Ġdiversity": 3865,
      "Ġoccur": 3866,
      "Ġaccountability": 3867,
      "Ġliter": 3868,
      "cious": 3869,
      "Ġrepl": 3870,
      "idential": 3871,
      "ott": 3872,
      "ĠIntern": 3873,
      "ume": 3874,
      "ĠExper": 3875,
      "Ġpossibilities": 3876,
      "Ġprioritize": 3877,
      "Ġciv": 3878,
      "Ġnational": 3879,
      "Ġapply": 3880,
      "Ġlandscapes": 3881,
      "Ġnegative": 3882,
      "Ġrecommend": 3883,
      "osen": 3884,
      "Ġimpressive": 3885,
      "poses": 3886,
      "Ġintricacies": 3887,
      "Ġrules": 3888,
      "uccess": 3889,
      "ighb": 3890,
      "Ġfields": 3891,
      "Ġemphasizing": 3892,
      "ĠMarketing": 3893,
      "esus": 3894,
      "Ġdevelopments": 3895,
      "ercial": 3896,
      "Ġcame": 3897,
      "Ġhands": 3898,
      "ĠMr": 3899,
      "Ġconsistency": 3900,
      "Ġvs": 3901,
      "Ġimplementation": 3902,
      "Ġlikely": 3903,
      "Ġgam": 3904,
      "ĠPres": 3905,
      "Ġmeticul": 3906,
      "Ġadaptability": 3907,
      "ket": 3908,
      "telling": 3909,
      "alf": 3910,
      "Ġpiv": 3911,
      "mental": 3912,
      "Ġcontact": 3913,
      "Ġagencies": 3914,
      "Ġaspiring": 3915,
      "haps": 3916,
      "Ġcou": 3917,
      "Ġcooking": 3918,
      "ows": 3919,
      "Ġinside": 3920,
      "Ġexamination": 3921,
      "goti": 3922,
      "Ġsuggests": 3923,
      "Ġacknowled": 3924,
      "Ġbring": 3925,
      "ĠCollabor": 3926,
      "Ġstarted": 3927,
      "Ã©": 3928,
      "Ġlaws": 3929,
      "Ġlittle": 3930,
      "Ġmiss": 3931,
      "icity": 3932,
      "Ġexcellent": 3933,
      "osph": 3934,
      "Ġvalid": 3935,
      "ĠImport": 3936,
      "Ġefficiently": 3937,
      "Ġidea": 3938,
      "ĠFl": 3939,
      "Ġseen": 3940,
      "formation": 3941,
      "Ġcoord": 3942,
      "Ġtaken": 3943,
      "Ġhidden": 3944,
      "Ġclose": 3945,
      "Ġdescrib": 3946,
      "sh": 3947,
      "ooper": 3948,
      "Ġtransfer": 3949,
      "Ġsmart": 3950,
      "Ġconsumption": 3951,
      "ximately": 3952,
      "lear": 3953,
      "asons": 3954,
      "Ġnich": 3955,
      "Ġanticip": 3956,
      "Ġfamilies": 3957,
      "------------": 3958,
      "ĠCan": 3959,
      "Ġprompt": 3960,
      "Ġresponses": 3961,
      "ĠOverview": 3962,
      "Ġrestric": 3963,
      "ĠKe": 3964,
      "Ġdiscovered": 3965,
      "bre": 3966,
      "lity": 3967,
      "Ġcoun": 3968,
      "ĠFin": 3969,
      "ĠJesus": 3970,
      "Ġqualities": 3971,
      "Ġcaptiv": 3972,
      "Ġlearners": 3973,
      "Ġpurposes": 3974,
      "Ġtap": 3975,
      "arity": 3976,
      "Ġstrengths": 3977,
      "ĠExamples": 3978,
      "sw": 3979,
      "Ġbecoming": 3980,
      "ĠTw": 3981,
      "Ġweather": 3982,
      "Ġstronger": 3983,
      "prise": 3984,
      "Ġmaximize": 3985,
      "zz": 3986,
      "Ġwaste": 3987,
      "eted": 3988,
      "ams": 3989,
      "makers": 3990,
      "Ġlat": 3991,
      "ogle": 3992,
      "Ġinspiration": 3993,
      "Ġtown": 3994,
      "enew": 3995,
      "Ġideas": 3996,
      "Ġconventional": 3997,
      "Ġleveraging": 3998,
      "Ġintelligence": 3999,
      "PI": 4000,
      "Ġcraft": 4001,
      "Ġcreated": 4002,
      "Ġanalyze": 4003,
      "aur": 4004,
      "Ġgold": 4005,
      "ript": 4006,
      "ives": 4007,
      "ief": 4008,
      "Ġdifficult": 4009,
      "Ġmix": 4010,
      "Ġcontributions": 4011,
      "Ġsuff": 4012,
      "ressing": 4013,
      "Ġfeaturing": 4014,
      "bon": 4015,
      "Ġmatters": 4016,
      "Ġconcerning": 4017,
      "Ġcitizens": 4018,
      "iability": 4019,
      "ĠMain": 4020,
      "ĠInc": 4021,
      "Ġmission": 4022,
      "Ġalgorith": 4023,
      "Ġrespond": 4024,
      "Ġanalytics": 4025,
      "oke": 4026,
      "ĠSk": 4027,
      "Ġnegoti": 4028,
      "Ġatm": 4029,
      "ĠWorld": 4030,
      "ma": 4031,
      "Ġwrit": 4032,
      "Ġdelivery": 4033,
      "'ve": 4034,
      "Ġfresh": 4035,
      "ocal": 4036,
      "Ġchosen": 4037,
      "ĠProf": 4038,
      "Ġevaluating": 4039,
      "raints": 4040,
      "Ġrelease": 4041,
      "Ġgiving": 4042,
      "Ġestate": 4043,
      "mission": 4044,
      "repr": 4045,
      "Ġbol": 4046,
      "Ġalone": 4047,
      "Ġresistance": 4048,
      "Ġcompassion": 4049,
      "ĠDisc": 4050,
      "Ġneighb": 4051,
      "Ġpromo": 4052,
      "airs": 4053,
      "ĠCar": 4054,
      "eling": 4055,
      "urning": 4056,
      "Ġdemonstrated": 4057,
      "Ġcompetit": 4058,
      "Ġexchange": 4059,
      "Ġdiagnos": 4060,
      "reprene": 4061,
      "Ġroot": 4062,
      "Ġheight": 4063,
      "ĠAnalysis": 4064,
      "Ġdrug": 4065,
      "Ġloyalty": 4066,
      "Ġable": 4067,
      "Ġintervention": 4068,
      "Ġassistance": 4069,
      "Ġregardless": 4070,
      "Ġmeasure": 4071,
      "Ġfundamental": 4072,
      "anning": 4073,
      "Ġexpression": 4074,
      "Ġreputation": 4075,
      "Ġdevice": 4076,
      "Ġaccuracy": 4077,
      "Ġfuel": 4078,
      "ĠBuilding": 4079,
      "ĠAdd": 4080,
      "Ġfacing": 4081,
      "Ġir": 4082,
      "ĠHer": 4083,
      "Ġspread": 4084,
      "Ġmetrics": 4085,
      "It": 4086,
      "Ġthird": 4087,
      "osystem": 4088,
      "Ġadequ": 4089,
      "Ġeffectiveness": 4090,
      "Ġbehaviors": 4091,
      "faces": 4092,
      "ik": 4093,
      "ĠEar": 4094,
      "arding": 4095,
      "Ġinitially": 4096,
      "Ġjustice": 4097,
      "nal": 4098,
      "Ġfans": 4099,
      "ypes": 4100,
      "Ġcause": 4101,
      "Ġstatis": 4102,
      "ratic": 4103,
      "Ġshed": 4104,
      "Ġhealing": 4105,
      "Ġarrange": 4106,
      "yth": 4107,
      "Ġfit": 4108,
      "Ġhor": 4109,
      "Ġinstru": 4110,
      "Ġstarting": 4111,
      "Ġthink": 4112,
      "Ġadver": 4113,
      "Ġmoney": 4114,
      "Ġmil": 4115,
      "nesses": 4116,
      "Ġdiscussion": 4117,
      "Ġcrafting": 4118,
      "Ġpricing": 4119,
      "gment": 4120,
      "Ġvent": 4121,
      "Ġexpenses": 4122,
      "Ġbrid": 4123,
      "Ġmonths": 4124,
      "cles": 4125,
      "eign": 4126,
      "Ġtang": 4127,
      "ĠSarah": 4128,
      "ĠPri": 4129,
      "Ġheat": 4130,
      "Ġplaying": 4131,
      "works": 4132,
      "Ġartist": 4133,
      "Ġmessages": 4134,
      "Ġenrich": 4135,
      "Ġchances": 4136,
      "Ġunivers": 4137,
      "Ġarri": 4138,
      "Ġexpans": 4139,
      "ĠProt": 4140,
      "Ġembod": 4141,
      "eyond": 4142,
      "Ġesc": 4143,
      "Ġcausing": 4144,
      "ĠImportance": 4145,
      "Ġder": 4146,
      "amiliar": 4147,
      "ception": 4148,
      "Ġeasily": 4149,
      "Ġinjuries": 4150,
      "Before": 4151,
      "friendly": 4152,
      "nect": 4153,
      "oub": 4154,
      "Ġleaving": 4155,
      "Ġconstraints": 4156,
      "Ġprove": 4157,
      "ĠDec": 4158,
      "Ġdiscipl": 4159,
      "Ġperforming": 4160,
      "Ġappearance": 4161,
      "Ġfrequently": 4162,
      "rel": 4163,
      "order": 4164,
      "Ġdoesn": 4165,
      "ĠPerform": 4166,
      "des": 4167,
      "Ġentertain": 4168,
      "ready": 4169,
      "Ġmovements": 4170,
      "Ġmeeting": 4171,
      "Ġdisrup": 4172,
      "Ġperce": 4173,
      "Ġproblems": 4174,
      "Ġcreates": 4175,
      "Ġbecame": 4176,
      "ĠGoogle": 4177,
      "Ġsac": 4178,
      "Ġdil": 4179,
      "etary": 4180,
      "astic": 4181,
      "ĠAf": 4182,
      "ĠOb": 4183,
      "Ġfees": 4184,
      "Ġemployed": 4185,
      "Ġcharacteristics": 4186,
      "Ġpivotal": 4187,
      "Ġmort": 4188,
      "leg": 4189,
      "urg": 4190,
      "Ġcondition": 4191,
      "ĠBoth": 4192,
      "Ġshar": 4193,
      "ĠRole": 4194,
      "ĠGl": 4195,
      "Ġremark": 4196,
      "entific": 4197,
      "urban": 4198,
      "urturing": 4199,
      "Ġseries": 4200,
      "Ġgenerate": 4201,
      "Ġopening": 4202,
      "ipping": 4203,
      "Ġnamed": 4204,
      "Ġpositively": 4205,
      "Ġput": 4206,
      "Ġmid": 4207,
      "Ġbatter": 4208,
      "Ġapproximately": 4209,
      "Ġgreen": 4210,
      "Ġelse": 4211,
      "Ġconstruction": 4212,
      "Ġuncertain": 4213,
      "inent": 4214,
      "Ġslow": 4215,
      "icine": 4216,
      "Ġstages": 4217,
      "Ġdealing": 4218,
      "inated": 4219,
      "Ġrely": 4220,
      "Ġcultures": 4221,
      "Ġexactly": 4222,
      "Ġprotocols": 4223,
      "acles": 4224,
      "uct": 4225,
      "Ġlonger": 4226,
      "Ġfulf": 4227,
      "ĠPlay": 4228,
      "Ġcaused": 4229,
      "Ġbeautiful": 4230,
      "Ġoptimize": 4231,
      "Ġminimal": 4232,
      "Ġreality": 4233,
      "Ġcommercial": 4234,
      "Ġnumbers": 4235,
      "Ġthoughtful": 4236,
      "Ġrunning": 4237,
      "Ġecosystem": 4238,
      "any": 4239,
      "ema": 4240,
      "Ġimage": 4241,
      "orship": 4242,
      "Ġparticipation": 4243,
      "flow": 4244,
      "ued": 4245,
      "Ġsubsequ": 4246,
      "Ġattemp": 4247,
      "Ġbrings": 4248,
      "Ġnarrative": 4249,
      "ools": 4250,
      "Ġtracking": 4251,
      "Ġrepe": 4252,
      "Ġdelicate": 4253,
      "Ġcombining": 4254,
      "Ġreaders": 4255,
      "Ġholistic": 4256,
      "Ġfast": 4257,
      "Ġhous": 4258,
      "ĠCO": 4259,
      "Ġcollection": 4260,
      "Ġinstances": 4261,
      "Ġknowing": 4262,
      "Ġequipped": 4263,
      "Ġkeeping": 4264,
      "Ġniche": 4265,
      "wise": 4266,
      "Ġresearchers": 4267,
      "Ġdemonstrating": 4268,
      "Ġfire": 4269,
      "ample": 4270,
      "Ġtransition": 4271,
      "Ġimprovements": 4272,
      "Ġcredibility": 4273,
      "ĠIntegr": 4274,
      "ĠEstablish": 4275,
      "Ġremarkable": 4276,
      "Ġment": 4277,
      "Ġforces": 4278,
      "neys": 4279,
      "Ġfacilitating": 4280,
      "Ġshift": 4281,
      "Ġheavily": 4282,
      "iver": 4283,
      "nel": 4284,
      "Ġfive": 4285,
      "ancy": 4286,
      "Ġfacilities": 4287,
      "Ġoperational": 4288,
      "Ġreduces": 4289,
      "Ġsymptoms": 4290,
      "Ġsoph": 4291,
      "Ġsuccessfully": 4292,
      "my": 4293,
      "Ġsqu": 4294,
      "nected": 4295,
      "Ġobst": 4296,
      "Ġfeelings": 4297,
      "Ġmemor": 4298,
      "Ġvehicle": 4299,
      "Ġloved": 4300,
      "Ġord": 4301,
      "Ġloans": 4302,
      "Ġestablishing": 4303,
      "Ġpresented": 4304,
      "inks": 4305,
      "orrow": 4306,
      "ires": 4307,
      "Ġdirec": 4308,
      "Ġpen": 4309,
      "rative": 4310,
      "ĠLear": 4311,
      "Ġembrace": 4312,
      "Ġsupply": 4313,
      "ĠAll": 4314,
      "Ġcarry": 4315,
      "Ġinterpret": 4316,
      "Ġimmediate": 4317,
      "Ġcapture": 4318,
      "Ġvisibility": 4319,
      "Ġcountries": 4320,
      "Ġbasic": 4321,
      "Ġhabits": 4322,
      "Ġanxiety": 4323,
      "Ch": 4324,
      "Ġalready": 4325,
      "Ġaffected": 4326,
      "Ġfilm": 4327,
      "Ġpopulations": 4328,
      "Finally": 4329,
      "Ġ9": 4330,
      "Ġhouse": 4331,
      "ĠSocial": 4332,
      "Ġkind": 4333,
      "Ġpassage": 4334,
      "pe": 4335,
      "ĠEns": 4336,
      "Ġbrands": 4337,
      "Ġadventure": 4338,
      "aly": 4339,
      "Ġmal": 4340,
      "Ġraw": 4341,
      "ĠSuccess": 4342,
      "Ġcolors": 4343,
      "Ġrealized": 4344,
      "Ġmessage": 4345,
      "Ġstorytelling": 4346,
      "Understanding": 4347,
      "Ġclimate": 4348,
      "vey": 4349,
      "Ġperformances": 4350,
      "Ġcandidates": 4351,
      "inate": 4352,
      "Ġimpl": 4353,
      "Ġwhole": 4354,
      "Ġfactor": 4355,
      "Ġdetermine": 4356,
      "lined": 4357,
      "Ġfall": 4358,
      "Ġrenew": 4359,
      "avigating": 4360,
      "isdom": 4361,
      "Ġsophistic": 4362,
      "Ġep": 4363,
      "ĠDel": 4364,
      "Ġcancer": 4365,
      "riteria": 4366,
      "Ġbook": 4367,
      "ription": 4368,
      "Ġtransc": 4369,
      "gen": 4370,
      "Ġpan": 4371,
      "Ġlifesty": 4372,
      "Ġpatience": 4373,
      "Ġentities": 4374,
      "ĠOrgan": 4375,
      "Ġdisease": 4376,
      "ags": 4377,
      "Ġrecently": 4378,
      "Ġcultivate": 4379,
      "Ġacademic": 4380,
      "Ġcontrast": 4381,
      "Ġfine": 4382,
      "Ġhom": 4383,
      "Ġexperiment": 4384,
      "ederal": 4385,
      "Ġdental": 4386,
      "Ġdiving": 4387,
      "Ġattend": 4388,
      "Ġinfluencing": 4389,
      "ĠCommon": 4390,
      "Ġwitness": 4391,
      "Ġban": 4392,
      "Ġstunning": 4393,
      "ĠAb": 4394,
      "Ġenforcement": 4395,
      "Ġinten": 4396,
      "Ġ10": 4397,
      "Ġscientific": 4398,
      "Ġansw": 4399,
      "ĠMeanwhile": 4400,
      "Ġdepart": 4401,
      "ĠĠĠ": 4402,
      "Ġtreatments": 4403,
      "Ġreveal": 4404,
      "ĠSpecifically": 4405,
      "Ġurban": 4406,
      "Ġfindings": 4407,
      "Ġwords": 4408,
      "Ġmachine": 4409,
      "Ġarticle": 4410,
      "light": 4411,
      "Ġswe": 4412,
      "Ġbig": 4413,
      "ĠSm": 4414,
      "Ġincome": 4415,
      "Ġappl": 4416,
      "Ġinteraction": 4417,
      "Ġblog": 4418,
      "Ġlayer": 4419,
      "Ġinjury": 4420,
      "Ġvehicles": 4421,
      "ĠKeep": 4422,
      "off": 4423,
      "isions": 4424,
      "ulating": 4425,
      "Ġprote": 4426,
      "usivity": 4427,
      "ĠImpact": 4428,
      "ĠLeg": 4429,
      "ibly": 4430,
      "Ġgoverning": 4431,
      "Ġrapidly": 4432,
      "Ġvisitors": 4433,
      "aunch": 4434,
      "anship": 4435,
      "Ġpromising": 4436,
      "Ġtrade": 4437,
      "Ġscr": 4438,
      "ĠProduc": 4439,
      "ĠReal": 4440,
      "Ġpurchasing": 4441,
      "Ġcheck": 4442,
      "Ġwide": 4443,
      "agine": 4444,
      "ĠMy": 4445,
      "ĠCho": 4446,
      "ventions": 4447,
      "Ġresponsibilities": 4448,
      "Ġintriguing": 4449,
      "Ġlens": 4450,
      "rought": 4451,
      "Ġexperts": 4452,
      "Ġball": 4453,
      "ĠNor": 4454,
      "Ġrecovery": 4455,
      "ĠWhat": 4456,
      "Ġfiles": 4457,
      "Ġwisdom": 4458,
      "ĠCustom": 4459,
      "odes": 4460,
      "Ġresolution": 4461,
      "apeu": 4462,
      "Ġbeliefs": 4463,
      "Ġnurturing": 4464,
      "ulated": 4465,
      "Ġample": 4466,
      "ĠStates": 4467,
      "Ġadded": 4468,
      "Ġschol": 4469,
      "Ġincorporate": 4470,
      "Ġprotecting": 4471,
      "Ġcooper": 4472,
      "Ġlabor": 4473,
      "Ġexamples": 4474,
      "ĠProv": 4475,
      "Ġflavor": 4476,
      "Ġmetal": 4477,
      "Ġcharm": 4478,
      "enders": 4479,
      "Ġclub": 4480,
      "Ġelim": 4481,
      "Ġexecution": 4482,
      "Ġunderscores": 4483,
      "Ġtraditions": 4484,
      "att": 4485,
      "ĠSet": 4486,
      "cient": 4487,
      "Ġentreprene": 4488,
      "whel": 4489,
      "Ġconflicts": 4490,
      "Ġcorrect": 4491,
      "Ġpractition": 4492,
      "Ġflavors": 4493,
      "Ġpreventing": 4494,
      "lig": 4495,
      "ocurr": 4496,
      "Ġorganizational": 4497,
      "osphere": 4498,
      "Ġsn": 4499,
      "ĠCare": 4500,
      "Ġsurv": 4501,
      "Ġfelt": 4502,
      "10": 4503,
      "Ġovers": 4504,
      "Ġunp": 4505,
      "Ġeager": 4506,
      "Ġende": 4507,
      "Ġconfigur": 4508,
      "ai": 4509,
      "itical": 4510,
      "Ġhosp": 4511,
      "Ġpopularity": 4512,
      "pped": 4513,
      "Ġremote": 4514,
      "ooked": 4515,
      "Ġasked": 4516,
      "Ġweek": 4517,
      "irect": 4518,
      "Ġdemograph": 4519,
      "Ġvig": 4520,
      "chain": 4521,
      "Ġjoy": 4522,
      "ognitive": 4523,
      "Ġlayers": 4524,
      "itage": 4525,
      "Ġgar": 4526,
      "Ġren": 4527,
      "ĠLever": 4528,
      "ought": 4529,
      "Ġmitigate": 4530,
      "ĠInternational": 4531,
      "Ġic": 4532,
      "Ġtaste": 4533,
      "Ġcour": 4534,
      "Ġreplace": 4535,
      "urd": 4536,
      "ague": 4537,
      "ĠFr": 4538,
      "Ġuses": 4539,
      "Ġtransactions": 4540,
      "Ġnorms": 4541,
      "Ġcertif": 4542,
      "Ġcompetitors": 4543,
      "ĠPublic": 4544,
      "umes": 4545,
      "Ġboost": 4546,
      "Ġsites": 4547,
      "Ġprepared": 4548,
      "rant": 4549,
      "ĠĊ": 4550,
      "Ġproduce": 4551,
      "Ġapplying": 4552,
      "Ġplayed": 4553,
      "letes": 4554,
      "Ġreinfor": 4555,
      "Ġobstacles": 4556,
      "ĠAmong": 4557,
      "Ġdistinc": 4558,
      "ĠCB": 4559,
      "pper": 4560,
      "ĠApplic": 4561,
      "Ġregularly": 4562,
      "Ġdrawing": 4563,
      "Ġvarying": 4564,
      "hand": 4565,
      "manship": 4566,
      "Ġgene": 4567,
      "Ġinters": 4568,
      "ĠEth": 4569,
      "Ġcommitted": 4570,
      "Ġsmaller": 4571,
      "Ġexempl": 4572,
      "Ġactively": 4573,
      "ĠHar": 4574,
      "Ġmanip": 4575,
      "Ġtalk": 4576,
      "Ġtook": 4577,
      "ĠNational": 4578,
      "Ġoutd": 4579,
      "Ġexplicit": 4580,
      "Ġengaged": 4581,
      "Ġevaluate": 4582,
      "Ġwaiting": 4583,
      "Ġroutine": 4584,
      "Ġalgorithms": 4585,
      "Ġtable": 4586,
      "ert": 4587,
      "Ġsex": 4588,
      "Ġpersist": 4589,
      "Ġconvenience": 4590,
      "Ġdream": 4591,
      "Ġbrought": 4592,
      "Ġgender": 4593,
      "Ġmicro": 4594,
      "Ġcalc": 4595,
      "Ġtack": 4596,
      "rep": 4597,
      "Ġdispar": 4598,
      "ky": 4599,
      "Ġreason": 4600,
      "Ġopin": 4601,
      "Ġtechnique": 4602,
      "overs": 4603,
      "prof": 4604,
      "Ġadopting": 4605,
      "Ġacknowledging": 4606,
      "Ġden": 4607,
      "ĠAI": 4608,
      "otor": 4609,
      "ublish": 4610,
      "Ġsaid": 4611,
      "Ġbodies": 4612,
      "Ġcoverage": 4613,
      "Ġcells": 4614,
      "Ġsleep": 4615,
      "ieties": 4616,
      "Ġphen": 4617,
      "Ġcomplement": 4618,
      "Ġconnecting": 4619,
      "Ġgoes": 4620,
      "ceptions": 4621,
      "Ġillustrate": 4622,
      "ĠEncouraging": 4623,
      "apeutic": 4624,
      "room": 4625,
      "Ġlate": 4626,
      "Ġstands": 4627,
      "ĠNo": 4628,
      "Ġcoaches": 4629,
      "Ġtargeting": 4630,
      "ĠQu": 4631,
      "Ġfavorite": 4632,
      "Ġatmosphere": 4633,
      "Ġadequate": 4634,
      "Ġsigns": 4635,
      "Ġexplain": 4636,
      "Through": 4637,
      "Ġtemperature": 4638,
      "ror": 4639,
      "rief": 4640,
      "ensity": 4641,
      "Ġdecre": 4642,
      "ĠProper": 4643,
      "Ġutilize": 4644,
      "Ġmanufacturers": 4645,
      "//": 4646,
      "Ġfile": 4647,
      "Ġentails": 4648,
      "omestic": 4649,
      "Ġevaluation": 4650,
      "Ġvoice": 4651,
      "Ġelect": 4652,
      "Ġexpert": 4653,
      "Ġgeneral": 4654,
      "Ġpromotes": 4655,
      "Ġfeeling": 4656,
      "Ġdetermining": 4657,
      "Ġappealing": 4658,
      "ĠMay": 4659,
      "Ġreporting": 4660,
      "Ġdesigning": 4661,
      "Ġcoaching": 4662,
      "ĠUsing": 4663,
      "ork": 4664,
      "ison": 4665,
      "Ġlast": 4666,
      "agers": 4667,
      "Ġconsidered": 4668,
      "Ġfocuses": 4669,
      "ĠEducation": 4670,
      "Ġimages": 4671,
      "Ġprices": 4672,
      "Ġsimply": 4673,
      "Ġgeneration": 4674,
      "ĠAccess": 4675,
      "Ġconnected": 4676,
      "!\"": 4677,
      "Ġcriteria": 4678,
      "ults": 4679,
      "Ġtrig": 4680,
      "Ġmanaged": 4681,
      "ĠArt": 4682,
      "Ġprospects": 4683,
      "bracing": 4684,
      "Ġcris": 4685,
      "ils": 4686,
      "Ġoverwhel": 4687,
      "Ġdeveloped": 4688,
      "Ġreports": 4689,
      "Ġculinary": 4690,
      "Ġcultivating": 4691,
      "Ġmemorable": 4692,
      "Despite": 4693,
      "Ġinterventions": 4694,
      "nings": 4695,
      "Ġexercises": 4696,
      "Ġviolence": 4697,
      "Ġsector": 4698,
      "Ġtut": 4699,
      "ales": 4700,
      "eck": 4701,
      "Ġlength": 4702,
      "Ġrelax": 4703,
      "Ġglance": 4704,
      "ĠDefinition": 4705,
      "Ġrewards": 4706,
      "Ġalignment": 4707,
      "Ġcatering": 4708,
      "Ġfigures": 4709,
      "Ġnight": 4710,
      "rial": 4711,
      "Ġaccept": 4712,
      "Ġcenter": 4713,
      "where": 4714,
      "Ġhimself": 4715,
      "Ġerrors": 4716,
      "Ġsubsequent": 4717,
      "Ġinclusive": 4718,
      "Ġconflict": 4719,
      "Ġframeworks": 4720,
      "erv": 4721,
      "Ġfirm": 4722,
      "Ġmemories": 4723,
      "Ġleverage": 4724,
      "uous": 4725,
      "asp": 4726,
      "ading": 4727,
      "ĠInv": 4728,
      "Ġcoll": 4729,
      "yl": 4730,
      "inc": 4731,
      "Ġperhaps": 4732,
      "Ġemergency": 4733,
      "ana": 4734,
      "ĠCal": 4735,
      "ĠLook": 4736,
      "Ġinvestors": 4737,
      "Ġclassic": 4738,
      "Ġfunds": 4739,
      "right": 4740,
      "oman": 4741,
      "Ġproceed": 4742,
      "Ġwhite": 4743,
      "Ġintercon": 4744,
      "Ġteaching": 4745,
      "ounds": 4746,
      "Ġfriend": 4747,
      "Ġinspire": 4748,
      "elihood": 4749,
      "Ġcivil": 4750,
      "igration": 4751,
      "Ġalter": 4752,
      "Ġparents": 4753,
      "Ġforce": 4754,
      "Ġdeg": 4755,
      "Ġunfor": 4756,
      "uality": 4757,
      "Ġavailability": 4758,
      "Ġannoun": 4759,
      ".'": 4760,
      "Ġcrow": 4761,
      "Ġstrict": 4762,
      "Ġparty": 4763,
      "Ġarise": 4764,
      "ĠJust": 4765,
      "mary": 4766,
      "Ġcards": 4767,
      "Ġthanks": 4768,
      "Ġblood": 4769,
      "Ġparticipating": 4770,
      "Ġpractitioners": 4771,
      "onents": 4772,
      "olic": 4773,
      "ffee": 4774,
      "Ġtransforming": 4775,
      "Ġdurability": 4776,
      "Ġnuances": 4777,
      "tor": 4778,
      "Ġconver": 4779,
      "Ġjoin": 4780,
      "Ġpromises": 4781,
      "Ġglass": 4782,
      "ley": 4783,
      "raf": 4784,
      "ĠOur": 4785,
      "Ġregions": 4786,
      "Ġexplo": 4787,
      "ĠChallen": 4788,
      "Ġmusical": 4789,
      "Ġinvestments": 4790,
      "Ġshifts": 4791,
      "Ġcorporate": 4792,
      "Ġinput": 4793,
      "unately": 4794,
      "ĠBar": 4795,
      "Ġtry": 4796,
      "Ġtimely": 4797,
      "Ġkne": 4798,
      "Ġdifference": 4799,
      "Once": 4800,
      "Ġpun": 4801,
      "edom": 4802,
      "Ġreviews": 4803,
      "Ġhyd": 4804,
      "Ġpreparation": 4805,
      "fl": 4806,
      "Ġstore": 4807,
      "Ġrise": 4808,
      "ĠAlex": 4809,
      "ĠSEO": 4810,
      "Ġdishes": 4811,
      "Ġwear": 4812,
      "Ġmessaging": 4813,
      "Ġseamlessly": 4814,
      "Ġsusp": 4815,
      "Ġclinical": 4816,
      "Ġintim": 4817,
      "Ġwhose": 4818,
      "ĠState": 4819,
      "Ġblend": 4820,
      "Ġmonitor": 4821,
      "ĠSecond": 4822,
      "Ġrecommendations": 4823,
      "Ġadvertis": 4824,
      "Ġbonds": 4825,
      "ticism": 4826,
      "Ġche": 4827,
      "Ġunl": 4828,
      "Ġuns": 4829,
      "atically": 4830,
      "Ġstrive": 4831,
      "ĠEvalu": 4832,
      "Ġversatile": 4833,
      "ĠImplementing": 4834,
      "Ġphenomen": 4835,
      "izations": 4836,
      "Ġextensive": 4837,
      "Ġsupports": 4838,
      "En": 4839,
      "aves": 4840,
      "Ġproactive": 4841,
      "Ġcontract": 4842,
      "Ġdocuments": 4843,
      "lining": 4844,
      "ellect": 4845,
      "ĠFact": 4846,
      "Ġwealth": 4847,
      "itement": 4848,
      "ĠChar": 4849,
      "Ġstudying": 4850,
      "lessly": 4851,
      "Ġretail": 4852,
      "Ġlistening": 4853,
      "Ġexpanding": 4854,
      "Ġmortg": 4855,
      "50": 4856,
      "enever": 4857,
      "Ġrefine": 4858,
      "Ġoptimization": 4859,
      "Ġshowcasing": 4860,
      "Ġpsychological": 4861,
      "raw": 4862,
      "Ġspent": 4863,
      "Ġdelight": 4864,
      "appy": 4865,
      "Ġactual": 4866,
      "power": 4867,
      "Ġsevere": 4868,
      "Ġschem": 4869,
      "ĠAssess": 4870,
      "Ġauthenticity": 4871,
      "Ġcollege": 4872,
      "iation": 4873,
      "pan": 4874,
      "Ġfix": 4875,
      "ictim": 4876,
      "Ġanyone": 4877,
      "Ġcouldn": 4878,
      "Ġfollowed": 4879,
      "Ġschools": 4880,
      "ĠRef": 4881,
      "ilitary": 4882,
      "Ġstrengthen": 4883,
      "Ġinvolvement": 4884,
      "Ġheavy": 4885,
      "Ġaesthetics": 4886,
      "Ġpaper": 4887,
      "Ġsong": 4888,
      "isl": 4889,
      "ĠFe": 4890,
      "Ġaccounts": 4891,
      "Ġwasn": 4892,
      "Ġaccurately": 4893,
      "Ġpersonnel": 4894,
      "Ġtherapeutic": 4895,
      "Ġsou": 4896,
      "Ġlon": 4897,
      "Ġlost": 4898,
      "asion": 4899,
      "ĠPart": 4900,
      "Ġreflecting": 4901,
      "ĠUniversity": 4902,
      "Ġoperation": 4903,
      "Ġcollaborative": 4904,
      "ĠServices": 4905,
      "Ġpursuing": 4906,
      "Ġinterconnected": 4907,
      "book": 4908,
      "Ġpremium": 4909,
      "ĠAfric": 4910,
      "==": 4911,
      "tices": 4912,
      "key": 4913,
      "ĠPe": 4914,
      "ogether": 4915,
      "ĠDep": 4916,
      "word": 4917,
      "Ġrepresentation": 4918,
      "Ġgovernance": 4919,
      "Ġstruggle": 4920,
      "Ġtell": 4921,
      "Ġease": 4922,
      "Ġinterview": 4923,
      "Ġsecuring": 4924,
      "Ġempowers": 4925,
      "Ġforeign": 4926,
      "Ġconcent": 4927,
      "Ġpet": 4928,
      "ums": 4929,
      "Ġincred": 4930,
      "Ġdistribut": 4931,
      "Ġaccompl": 4932,
      "ĠSaf": 4933,
      "ashion": 4934,
      "Ġmemory": 4935,
      "aters": 4936,
      "Ġunity": 4937,
      "Ġlocations": 4938,
      "Ġthoughts": 4939,
      "Ġcharacterized": 4940,
      "oper": 4941,
      "eration": 4942,
      "onding": 4943,
      "ounting": 4944,
      "Ġheritage": 4945,
      "Ġwhereas": 4946,
      "Ġloan": 4947,
      "Ġevolution": 4948,
      "Ġgeograph": 4949,
      "oll": 4950,
      "ference": 4951,
      "Ġoffice": 4952,
      "Ġcool": 4953,
      "Ġcohes": 4954,
      "Ġexcitement": 4955,
      "Ġmarg": 4956,
      "Ġdetermination": 4957,
      "Ġlatest": 4958,
      "Ġtangible": 4959,
      "ww": 4960,
      "Ġreputable": 4961,
      "Ġseasoned": 4962,
      ",'": 4963,
      "AR": 4964,
      "Ġvery": 4965,
      "Ġsix": 4966,
      "Ġprop": 4967,
      "Ġextends": 4968,
      "ĠMany": 4969,
      "Ġeyes": 4970,
      "Ġthrive": 4971,
      "irms": 4972,
      "ĠIT": 4973,
      "overn": 4974,
      "Ġcentered": 4975,
      "Ġcombined": 4976,
      "Ġveget": 4977,
      "Ġharmon": 4978,
      "Ġpoor": 4979,
      "Ġversatility": 4980,
      "Ġrelying": 4981,
      "ull": 4982,
      "Ġrespective": 4983,
      "Ġdeath": 4984,
      "Ġversion": 4985,
      "Ġachievements": 4986,
      "Ġadversity": 4987,
      "Ġdepend": 4988,
      "Ġreading": 4989,
      "Ġaffect": 4990,
      "ĠIndia": 4991,
      "Ġconversation": 4992,
      "Ġcontaining": 4993,
      "Ġtotal": 4994,
      "used": 4995,
      "Ġcher": 4996,
      "Ġmanual": 4997,
      "Ġamount": 4998,
      "Ġskilled": 4999,
      "Ġcauses": 5000,
      "Ġreaching": 5001,
      "Ġmist": 5002,
      "Ġlic": 5003,
      "ĠSur": 5004,
      "ocks": 5005,
      "ĠDem": 5006,
      "Ġreliability": 5007,
      "owned": 5008,
      "Ġpayment": 5009,
      "Ġpredic": 5010,
      "Ġvigil": 5011,
      "ordinary": 5012,
      "ĠTechniques": 5013,
      "aught": 5014,
      "Ġtargeted": 5015,
      "Ġassessment": 5016,
      "Ġholds": 5017,
      "Ġathletes": 5018,
      "Ġluxury": 5019,
      "Ġdig": 5020,
      "Ġhyp": 5021,
      "Ġlaunch": 5022,
      "Ġprecise": 5023,
      "fac": 5024,
      "Ġwel": 5025,
      "Ġisol": 5026,
      "Ġinclusivity": 5027,
      "Ġassign": 5028,
      "Ġ18": 5029,
      "ĠProcess": 5030,
      "Ġaccessible": 5031,
      "Ġinfluences": 5032,
      "Ġworksh": 5033,
      "Ġresonate": 5034,
      "Ġindependent": 5035,
      "Pro": 5036,
      "ficial": 5037,
      "Ġselling": 5038,
      "Ġancient": 5039,
      "Ġcompar": 5040,
      "udden": 5041,
      "ĠLastly": 5042,
      "Ġtexture": 5043,
      "Ġlikelihood": 5044,
      "Ġadherence": 5045,
      "PS": 5046,
      "oon": 5047,
      "oles": 5048,
      "Ġselec": 5049,
      "Ġstring": 5050,
      "ĠGu": 5051,
      "ĠVis": 5052,
      "Ġentertainment": 5053,
      "osition": 5054,
      "Ġdeploy": 5055,
      "Ġargue": 5056,
      "```": 5057,
      "Ġcryptocurr": 5058,
      "related": 5059,
      "Ġpublish": 5060,
      "outs": 5061,
      "Ġwhenever": 5062,
      "Ġcommunicate": 5063,
      "Ġbeloved": 5064,
      "Ġsour": 5065,
      "uting": 5066,
      "Ġincreases": 5067,
      "Ġshows": 5068,
      "Ġstriking": 5069,
      "Ġactors": 5070,
      "Ġstreamline": 5071,
      "Ġextraordinary": 5072,
      "Ġtit": 5073,
      "Ġpic": 5074,
      "ĠMin": 5075,
      "Ġliqu": 5076,
      "Ġgrad": 5077,
      "Ġclaims": 5078,
      "Ġchemical": 5079,
      "Ġapplied": 5080,
      "ken": 5081,
      "rust": 5082,
      "Ġcognitive": 5083,
      "Ġhalf": 5084,
      "Ġchurch": 5085,
      "iveness": 5086,
      "ĠGe": 5087,
      "Ġaren": 5088,
      "ĠControl": 5089,
      "Ġrevolution": 5090,
      "Ġweaknesses": 5091,
      "AC": 5092,
      "bal": 5093,
      "Ġdomestic": 5094,
      "ively": 5095,
      "Ġparticipate": 5096,
      "ont": 5097,
      "Ġgraph": 5098,
      "Ġleave": 5099,
      "ĠFinally": 5100,
      "ferences": 5101,
      "oral": 5102,
      "Ġvot": 5103,
      "Ġheard": 5104,
      "Ġaesthetic": 5105,
      "Ġstraight": 5106,
      "atur": 5107,
      "Ġgas": 5108,
      "Ġincident": 5109,
      "Ġincidents": 5110,
      "Ġinsight": 5111,
      "Ġotherwise": 5112,
      "ects": 5113,
      "aying": 5114,
      "Ġserved": 5115,
      "Ġhandle": 5116,
      "ĠPlus": 5117,
      "Ġcaptivating": 5118,
      "Ġsell": 5119,
      "ightly": 5120,
      "ĠExp": 5121,
      "Ġpressing": 5122,
      "Ġinstitution": 5123,
      "Ġconduct": 5124,
      "Ġadjustments": 5125,
      "If": 5126,
      "ny": 5127,
      "gevity": 5128,
      "Ġhear": 5129,
      "ĠGener": 5130,
      "Ġdecades": 5131,
      "ille": 5132,
      "Ġlibr": 5133,
      "ĠSub": 5134,
      "agues": 5135,
      "Ġacts": 5136,
      "udes": 5137,
      "Ġcontrac": 5138,
      "ailing": 5139,
      "Ġscene": 5140,
      "Ġformer": 5141,
      "Ġgrapp": 5142,
      "faceted": 5143,
      "ĠHappy": 5144,
      "Ġmotivation": 5145,
      "Ġchain": 5146,
      "Ġprofiles": 5147,
      "onomic": 5148,
      "Ġmillion": 5149,
      "Ġmastering": 5150,
      "Ġheightened": 5151,
      "uro": 5152,
      "Ġwild": 5153,
      "Ġcompens": 5154,
      "Ġword": 5155,
      "Ġphil": 5156,
      "Ġdelves": 5157,
      "Ġemploying": 5158,
      "def": 5159,
      "Ġexcessive": 5160,
      "With": 5161,
      "Ġmaster": 5162,
      "Ġtrend": 5163,
      "Ġagg": 5164,
      "Ġlisten": 5165,
      "Ġbuyers": 5166,
      "ĠBr": 5167,
      "Ġplant": 5168,
      "Ġbeneficial": 5169,
      "Ġbreaking": 5170,
      "Ġemphasizes": 5171,
      "ĠMonit": 5172,
      "Ġhoriz": 5173,
      "solving": 5174,
      "ĠSol": 5175,
      "ody": 5176,
      "Ġheld": 5177,
      "Ġsilver": 5178,
      "Ġperceived": 5179,
      "house": 5180,
      "uests": 5181,
      "venues": 5182,
      "Ġcareers": 5183,
      "Ġnearby": 5184,
      "Ġflexible": 5185,
      "olding": 5186,
      "ĠAv": 5187,
      "Ġdesigners": 5188,
      "Ġgenerating": 5189,
      "apping": 5190,
      "Ġreminder": 5191,
      "ĠApplications": 5192,
      "Ġbir": 5193,
      "Ġhomes": 5194,
      "ĠResp": 5195,
      "Ġroad": 5196,
      "Ġprofici": 5197,
      "Ġeveryday": 5198,
      "Ġrelevance": 5199,
      "Ġimagine": 5200,
      "Ġhind": 5201,
      "Ġhair": 5202,
      "irus": 5203,
      "Ġvictim": 5204,
      "ocking": 5205,
      "Ġexperiencing": 5206,
      "ĠImpro": 5207,
      "Ġreceiving": 5208,
      "OS": 5209,
      "son": 5210,
      "Ġaid": 5211,
      "eters": 5212,
      "Ġconnect": 5213,
      "Ġtradition": 5214,
      "Ġattach": 5215,
      "Ġsuppor": 5216,
      "ĠAmerica": 5217,
      "Ġreturns": 5218,
      "Ġtip": 5219,
      "entist": 5220,
      "Ġtrying": 5221,
      "ĠOut": 5222,
      "Ġserious": 5223,
      "Ġnoting": 5224,
      "Ġallowed": 5225,
      "Ġentry": 5226,
      "Ġinnovations": 5227,
      "ĠRegularly": 5228,
      "Ġblockchain": 5229,
      "Ġarrangements": 5230,
      "essary": 5231,
      "Ġrh": 5232,
      "Ġchance": 5233,
      "ĠPr": 5234,
      "Ġintellect": 5235,
      "ĠFollow": 5236,
      "Ġattacks": 5237,
      "Ġtransformative": 5238,
      "Ġcategories": 5239,
      "such": 5240,
      "Ġfun": 5241,
      "Ġmel": 5242,
      "Ġadvice": 5243,
      "Ġownership": 5244,
      "Ġbelong": 5245,
      "Ġinternet": 5246,
      "Ġelectronic": 5247,
      "Ġscholars": 5248,
      "Ġple": 5249,
      "Ġsequ": 5250,
      "ronic": 5251,
      "ĠEmbracing": 5252,
      "otive": 5253,
      "lean": 5254,
      "ĠRuss": 5255,
      "ormal": 5256,
      "Ġlifestyle": 5257,
      "App": 5258,
      "NA": 5259,
      "Re": 5260,
      "oly": 5261,
      "page": 5262,
      "ument": 5263,
      "ĠCap": 5264,
      "ĠDigital": 5265,
      "Ġphase": 5266,
      "ĠVal": 5267,
      "Ġreflection": 5268,
      "Ġsubtle": 5269,
      "Ġthoughtfully": 5270,
      "Ġemerge": 5271,
      "ĠSecurity": 5272,
      "Ġinvestigation": 5273,
      "Ġlongevity": 5274,
      "mon": 5275,
      "Ġpage": 5276,
      "Ġforth": 5277,
      "Ġequal": 5278,
      "Ġdefense": 5279,
      "Ġadvertising": 5280,
      "iate": 5281,
      "ibl": 5282,
      "Ġproducing": 5283,
      "Ġorganic": 5284,
      "enefits": 5285,
      "Ġeleg": 5286,
      "Ġemerged": 5287,
      "down": 5288,
      "hab": 5289,
      "oving": 5290,
      "icy": 5291,
      "Ġelement": 5292,
      "ĠNon": 5293,
      "Ġcalls": 5294,
      "ĠConsiderations": 5295,
      "ĠEncourage": 5296,
      "Ġpreviously": 5297,
      "Ġgaming": 5298,
      "Ġlighting": 5299,
      "verage": 5300,
      "Ġsho": 5301,
      "Ġdish": 5302,
      "Ġcoffee": 5303,
      "Ġavoiding": 5304,
      "Ġhardware": 5305,
      "Ġreflects": 5306,
      "dle": 5307,
      "erb": 5308,
      "estim": 5309,
      "Ġsave": 5310,
      "Ġpor": 5311,
      "Ġdating": 5312,
      "asm": 5313,
      "ĠDet": 5314,
      "ĠConf": 5315,
      "ĠConvers": 5316,
      "Ġreceived": 5317,
      "Ġprospective": 5318,
      "Ġathle": 5319,
      "Ġpromptly": 5320,
      "Beyond": 5321,
      "Ġdivid": 5322,
      "ĠMet": 5323,
      "Ġintended": 5324,
      "Ġeasier": 5325,
      "Ġ199": 5326,
      "Ġnecessitates": 5327,
      "Ġcriminal": 5328,
      "Ġdatab": 5329,
      "yd": 5330,
      "oric": 5331,
      "ĠSw": 5332,
      "ĠFuture": 5333,
      "Ġattract": 5334,
      "aker": 5335,
      "ĠOnline": 5336,
      "Ġschedules": 5337,
      "ĠProgram": 5338,
      "Ġentrepreneurs": 5339,
      "Ġdang": 5340,
      "ĠWar": 5341,
      "ĠUse": 5342,
      "Ġassist": 5343,
      "Ġembark": 5344,
      "ĠWork": 5345,
      "aunting": 5346,
      "ĠRet": 5347,
      "ĠNF": 5348,
      "Ġscreen": 5349,
      "Ġminor": 5350,
      "Ġpracticing": 5351,
      "ĠChallenges": 5352,
      "here": 5353,
      "Ġ*": 5354,
      "rovers": 5355,
      "Ġdog": 5356,
      "Ġbust": 5357,
      "Ġlocated": 5358,
      "Ġdivine": 5359,
      "Ġallocation": 5360,
      "ĠUtilizing": 5361,
      "IS": 5362,
      "Ġ=": 5363,
      "era": 5364,
      "oding": 5365,
      "tedly": 5366,
      "Ġformation": 5367,
      "Ġscenario": 5368,
      "free": 5369,
      "vis": 5370,
      "Ġgem": 5371,
      "Ġidentified": 5372,
      "ourses": 5373,
      "ĠTechnology": 5374,
      "Ġabsor": 5375,
      "Ġsavings": 5376,
      "ĠRelations": 5377,
      "Ġiconic": 5378,
      "EM": 5379,
      "sing": 5380,
      "Ġtiss": 5381,
      "esis": 5382,
      "Ġmilitary": 5383,
      "Ġsuit": 5384,
      "Ġmeals": 5385,
      "Ġextended": 5386,
      "Ġimmense": 5387,
      "Ġacquis": 5388,
      "VID": 5389,
      "Ġbreath": 5390,
      "Ġattributes": 5391,
      "arter": 5392,
      "Ġselect": 5393,
      "ulture": 5394,
      "Ġlegisl": 5395,
      "Ġdiscovery": 5396,
      "ecurity": 5397,
      "Ġling": 5398,
      "Ġprofit": 5399,
      "Ġfinance": 5400,
      "Ġapplicable": 5401,
      "Ġmultifaceted": 5402,
      "Ġeventually": 5403,
      "Ġpushing": 5404,
      "pection": 5405,
      "Ġsubject": 5406,
      "Ġaudio": 5407,
      "Ġpreparing": 5408,
      "Ġdemocratic": 5409,
      "Ġfront": 5410,
      "Ġformat": 5411,
      "ĠExploring": 5412,
      "ĠMusic": 5413,
      "Ġcooperation": 5414,
      "Ġnation": 5415,
      "ĠAut": 5416,
      "ĠNever": 5417,
      "Ġcorner": 5418,
      "Ġtopic": 5419,
      "Ġauthority": 5420,
      "Ġhosting": 5421,
      "Ġsupportive": 5422,
      "utive": 5423,
      "reme": 5424,
      "Ġdry": 5425,
      "icating": 5426,
      "Ġhers": 5427,
      "Ġresidents": 5428,
      "Ġupcoming": 5429,
      "Ġviews": 5430,
      "Ġturned": 5431,
      "Ġannual": 5432,
      "Ġfaster": 5433,
      "ented": 5434,
      "erson": 5435,
      "Ġguests": 5436,
      "Ġunnec": 5437,
      "Ġconscious": 5438,
      "Ġwilling": 5439,
      "Ġenduring": 5440,
      "Ġsophisticated": 5441,
      "Ġtutorial": 5442,
      "CA": 5443,
      "ER": 5444,
      "uis": 5445,
      "Ġapps": 5446,
      "Ġdisorders": 5447,
      "Ġcentury": 5448,
      "Ġseems": 5449,
      "ĠWeb": 5450,
      "gg": 5451,
      "ervation": 5452,
      "Ġpand": 5453,
      "ĠSam": 5454,
      "apy": 5455,
      "Ġintegrated": 5456,
      "Ġdefensive": 5457,
      "Ġcomprehension": 5458,
      "Ġauthorities": 5459,
      "iant": 5460,
      "ĊĠĠĠ": 5461,
      "Ġdu": 5462,
      "raft": 5463,
      "Ġallev": 5464,
      "ĠHIV": 5465,
      "Ġmedium": 5466,
      "Ġexcellence": 5467,
      "gments": 5468,
      "Ġpray": 5469,
      "Ġbott": 5470,
      "Ġreasons": 5471,
      "ched": 5472,
      "Ġtruth": 5473,
      "Ġroof": 5474,
      "Ġfreedom": 5475,
      "ĠRecogn": 5476,
      "Ġengineering": 5477,
      "Ġtemperatures": 5478,
      "Ġsuperior": 5479,
      "Ġdocumentation": 5480,
      "Ġderived": 5481,
      "prises": 5482,
      "Ġfirms": 5483,
      "roduce": 5484,
      "Ġmotor": 5485,
      "ĠCity": 5486,
      "Ġabuse": 5487,
      "inding": 5488,
      "Ġinspiring": 5489,
      "Ġrestrictions": 5490,
      "Ġinteresting": 5491,
      "ĠNavigating": 5492,
      "ĠEnh": 5493,
      "uthor": 5494,
      "reet": 5495,
      "idity": 5496,
      "Ġobjects": 5497,
      "Ġmaximum": 5498,
      "ĠAssoci": 5499,
      "Ġcatch": 5500,
      "Ġbox": 5501,
      "Ġpoll": 5502,
      "Ġcollaborations": 5503,
      "Ġlegacy": 5504,
      "Ġ2018": 5505,
      "Ġadoption": 5506,
      "ĠLeveraging": 5507,
      "Ġexplicitly": 5508,
      "points": 5509,
      "erve": 5510,
      "Ġmath": 5511,
      "ĠBack": 5512,
      "Ġang": 5513,
      "oga": 5514,
      "Ġessence": 5515,
      "ĠYet": 5516,
      "Ġemployee": 5517,
      "Ġprecision": 5518,
      "Ġoneself": 5519,
      "Ġwood": 5520,
      "Ġovercome": 5521,
      "Ġquite": 5522,
      "Ġmedicine": 5523,
      "Ġgenerated": 5524,
      "ĠAppro": 5525,
      "Ġcomfortable": 5526,
      "Ġsymbol": 5527,
      "ck": 5528,
      "Ġthr": 5529,
      "text": 5530,
      "Ġgovernments": 5531,
      "Ġbelieve": 5532,
      "Ġinterested": 5533,
      "Ġempowering": 5534,
      "party": 5535,
      "uff": 5536,
      "och": 5537,
      "Ġpromp": 5538,
      "Ġcomplexities": 5539,
      "Ġvolun": 5540,
      "Ġaccompan": 5541,
      "MS": 5542,
      "met": 5543,
      "Ġalthough": 5544,
      "roup": 5545,
      "Ġscal": 5546,
      "Ġagency": 5547,
      "Ġremaining": 5548,
      "Ġdefine": 5549,
      "Ġcarbon": 5550,
      "known": 5551,
      "Ġhousing": 5552,
      "://": 5553,
      "ĠKnow": 5554,
      "Ġemployment": 5555,
      "Ġtrip": 5556,
      "Ġcomposition": 5557,
      "Ġseparate": 5558,
      "uctu": 5559,
      "Ġsought": 5560,
      "ĠEffective": 5561,
      "Ġserver": 5562,
      "Ġgoods": 5563,
      "Ġeco": 5564,
      "Ġdead": 5565,
      "Ġdelicious": 5566,
      "Ġprepare": 5567,
      "Ġmilest": 5568,
      "Ġbattery": 5569,
      "Of": 5570,
      "Ġfan": 5571,
      "Ġfashion": 5572,
      "Ġbed": 5573,
      "asures": 5574,
      "ĠSouth": 5575,
      "Ġvict": 5576,
      "ticed": 5577,
      "Ġtravelers": 5578,
      "Ġconversion": 5579,
      "Ġpositioning": 5580,
      "Ġsafeguarding": 5581,
      "Ġdilig": 5582,
      "Ġmoving": 5583,
      "Ġemotion": 5584,
      "Ġdimensions": 5585,
      "Ġelevate": 5586,
      "Ġherself": 5587,
      "Sc": 5588,
      "lim": 5589,
      "Ġfederal": 5590,
      "ĠPa": 5591,
      "Ġblack": 5592,
      "Ġmusicians": 5593,
      "Ġdipl": 5594,
      "Ġpolicymakers": 5595,
      "dis": 5596,
      "Ġtests": 5597,
      "Ġtrading": 5598,
      "Ġprominent": 5599,
      "Ġintegral": 5600,
      "Ġgrace": 5601,
      "Ġcouns": 5602,
      "Ġexpansion": 5603,
      "Ġunnecessary": 5604,
      "Ġdiplom": 5605,
      "coin": 5606,
      "iling": 5607,
      "Ġgive": 5608,
      "riven": 5609,
      "ching": 5610,
      "anted": 5611,
      "Ġnetworking": 5612,
      "Ġinspired": 5613,
      "Ġwon": 5614,
      "tingu": 5615,
      "Ġmanagers": 5616,
      "Ġsoon": 5617,
      "Ġmodifications": 5618,
      "Ġvideos": 5619,
      "onomy": 5620,
      "Ġvulnerable": 5621,
      "Ġharnessing": 5622,
      "Ġcraftsmanship": 5623,
      "ĠFactors": 5624,
      "anges": 5625,
      "ĠGovern": 5626,
      "ishes": 5627,
      "Ġcollect": 5628,
      "Ġprofile": 5629,
      "Ġoblig": 5630,
      "Ġcustomized": 5631,
      "Ġstruggles": 5632,
      "Ġdidn": 5633,
      "Ġaffordable": 5634,
      "Ġresol": 5635,
      "ĠUp": 5636,
      "Ġspecies": 5637,
      "words": 5638,
      "parts": 5639,
      "Ġfluctu": 5640,
      "Ġgenerally": 5641,
      "Ġfunding": 5642,
      "Ġpayments": 5643,
      "Ġsounds": 5644,
      "ĠBalancing": 5645,
      "Ġmeticulous": 5646,
      "Ġi": 5647,
      "itam": 5648,
      "Ġborrow": 5649,
      "Ġreactions": 5650,
      "Ġseemed": 5651,
      "Ġwait": 5652,
      "ĠCommunity": 5653,
      "',": 5654,
      "Em": 5655,
      "abric": 5656,
      "Ġunits": 5657,
      "Ġpersever": 5658,
      "Ġstatement": 5659,
      "Ġsectors": 5660,
      "Ġhighlighted": 5661,
      "Ġconstantly": 5662,
      "ĠHistorical": 5663,
      "Ġstatistics": 5664,
      "Ġsweet": 5665,
      "zy": 5666,
      "arian": 5667,
      "rad": 5668,
      "ĠTravel": 5669,
      "Ġuncover": 5670,
      "ĠEuropean": 5671,
      "Ġuncertainty": 5672,
      "ĠCOVID": 5673,
      "Ġworkshops": 5674,
      "ixt": 5675,
      "water": 5676,
      "Ġfer": 5677,
      "roph": 5678,
      "entral": 5679,
      "Ġformal": 5680,
      "ĠChristians": 5681,
      "Ġreveals": 5682,
      "Ġvariations": 5683,
      "Throughout": 5684,
      "ycl": 5685,
      "Ġmand": 5686,
      "ouble": 5687,
      "ested": 5688,
      "Ġjur": 5689,
      "Ġnotes": 5690,
      "Ġworkers": 5691,
      "ĠModern": 5692,
      "ĠCBD": 5693,
      "onial": 5694,
      "Ġmark": 5695,
      "Ġgaps": 5696,
      "ĠLead": 5697,
      "Ġdisapp": 5698,
      "Ġcreations": 5699,
      "Ġamounts": 5700,
      "ounters": 5701,
      "espread": 5702,
      "Ġintellectual": 5703,
      "quis": 5704,
      "worth": 5705,
      "Ġcombat": 5706,
      "Ġviewers": 5707,
      "Ġindicators": 5708,
      "Ġolder": 5709,
      "Ġadministration": 5710,
      "Ġcounterparts": 5711,
      "Ġcompromising": 5712,
      "gn": 5713,
      "Ġfitness": 5714,
      "Ġlimits": 5715,
      "ĠChristianity": 5716,
      "rooms": 5717,
      "ader": 5718,
      "Ġinner": 5719,
      "unction": 5720,
      "Ġattending": 5721,
      "Ġpersonalized": 5722,
      "Ġlived": 5723,
      "Ġjourneys": 5724,
      "Ġtask": 5725,
      "Ġpurchase": 5726,
      "Ġgathering": 5727,
      "Ġphotograph": 5728,
      "Ġrecipe": 5729,
      "Ġofficials": 5730,
      "Ġsacri": 5731,
      "Ġcook": 5732,
      "Ġampl": 5733,
      "Ġscre": 5734,
      "AM": 5735,
      "Ġ<": 5736,
      "Ġcourses": 5737,
      "Ġmember": 5738,
      "theless": 5739,
      "osoph": 5740,
      "ĠLaw": 5741,
      "Ġmoist": 5742,
      "Ġaccessories": 5743,
      "Ġcorres": 5744,
      "Ġinstructions": 5745,
      "Ġwidespread": 5746,
      "Ġdescribed": 5747,
      "Ġusually": 5748,
      "Ġsuitable": 5749,
      "Ġsport": 5750,
      "Ġoutput": 5751,
      "Ġphone": 5752,
      "Ġexcer": 5753,
      "Ġupdated": 5754,
      "Ġwonder": 5755,
      "Guid": 5756,
      "arking": 5757,
      "isely": 5758,
      "osis": 5759,
      "estry": 5760,
      "Ġinteract": 5761,
      "Ġprovider": 5762,
      "Ġcombination": 5763,
      "Ġmindfulness": 5764,
      "Ġendeavors": 5765,
      "ault": 5766,
      "Ġfarm": 5767,
      "ĠBenefits": 5768,
      "Ġagents": 5769,
      "Ġassessments": 5770,
      "Ġprecious": 5771,
      "Ġgeographical": 5772,
      "inning": 5773,
      "Ġpal": 5774,
      "ĠLim": 5775,
      "ĠInformation": 5776,
      "ĠConnec": 5777,
      "ĠEnter": 5778,
      "Ġconducting": 5779,
      "Ġthriving": 5780,
      "Ġneighbor": 5781,
      "Ġrooted": 5782,
      "iblical": 5783,
      "eks": 5784,
      "iers": 5785,
      "Ġstim": 5786,
      "Ġhit": 5787,
      "ĠPost": 5788,
      "Ġcontrovers": 5789,
      "Ġrecon": 5790,
      "Ġextend": 5791,
      "Ġdiscussed": 5792,
      "Ġsensiti": 5793,
      "ĠContin": 5794,
      "ĠService": 5795,
      "Ġintroduced": 5796,
      "Ġlinked": 5797,
      "Ġharmonious": 5798,
      "Ġwaters": 5799,
      "rie": 5800,
      "ritis": 5801,
      "ĠLife": 5802,
      "Ġspot": 5803,
      "Ġ12": 5804,
      "Ġstrike": 5805,
      "Ġdestination": 5806,
      "Ġanimals": 5807,
      "Ġaccomplish": 5808,
      "pet": 5809,
      "Ġtech": 5810,
      "istry": 5811,
      "ountain": 5812,
      "Ġencounters": 5813,
      "Ġload": 5814,
      "Ġfailure": 5815,
      "vent": 5816,
      "estern": 5817,
      "ĠBo": 5818,
      "Ġdisp": 5819,
      "Ġweigh": 5820,
      "ancies": 5821,
      "Ġsurve": 5822,
      "Ġworkflow": 5823,
      "Ġamongst": 5824,
      "Ġgoing": 5825,
      "ĠApplying": 5826,
      "Ġversions": 5827,
      "Ġautomated": 5828,
      "Ġmillions": 5829,
      "co": 5830,
      "Ġjournal": 5831,
      "Ġpaths": 5832,
      "Ġexclusive": 5833,
      "Ġbolst": 5834,
      "Ġpose": 5835,
      "Ġdark": 5836,
      "ĠSign": 5837,
      "osed": 5838,
      "ĠFoot": 5839,
      "Ġsurfaces": 5840,
      "Ġmolec": 5841,
      "Ġbridge": 5842,
      "Ġox": 5843,
      "Ġfem": 5844,
      "asure": 5845,
      "ĠCor": 5846,
      "Ġexplored": 5847,
      "Ġvisually": 5848,
      "Ġhumanity": 5849,
      "Ġconstructive": 5850,
      "Ġshowcases": 5851,
      "Ġbustling": 5852,
      "Ġsizes": 5853,
      "Ġsurprise": 5854,
      "Ġsubs": 5855,
      "Ġpreserve": 5856,
      "Ġraises": 5857,
      "Ġopt": 5858,
      "Ġcompeting": 5859,
      "Ġimmediately": 5860,
      "Ġagreements": 5861,
      "Ġtension": 5862,
      "Ġmys": 5863,
      "Ġbank": 5864,
      "Ġalb": 5865,
      "ĠBre": 5866,
      "Ġcurious": 5867,
      "Ġstatements": 5868,
      "Ġeconomy": 5869,
      "ĠDeveloping": 5870,
      "Ġexhibit": 5871,
      "Ġrenowned": 5872,
      "Ġexcerpt": 5873,
      "bit": 5874,
      "ero": 5875,
      "ulting": 5876,
      "Ġrend": 5877,
      "ĠPot": 5878,
      "ĠProm": 5879,
      "Ġintu": 5880,
      "Ġclarity": 5881,
      "Ġsaw": 5882,
      "Ġnotice": 5883,
      "Ġfinancing": 5884,
      "Ġminutes": 5885,
      "Ġoccup": 5886,
      "Ġshifting": 5887,
      "Ġgetting": 5888,
      "Ġlosses": 5889,
      "ĠPractical": 5890,
      "ĠPractices": 5891,
      "ĠTwo": 5892,
      "Ġhospit": 5893,
      "iled": 5894,
      "ula": 5895,
      "ĠRo": 5896,
      "ĠRob": 5897,
      "Ġinvent": 5898,
      "Ġpeers": 5899,
      "What": 5900,
      "Ġregulation": 5901,
      "Ġchecks": 5902,
      "...": 5903,
      "ĠIdentifying": 5904,
      "Ġcopy": 5905,
      "ĠNorth": 5906,
      "Ġpandemic": 5907,
      "Ġhaz": 5908,
      "Ġextr": 5909,
      "Ġinterface": 5910,
      "Ġmeal": 5911,
      "Ġoperate": 5912,
      "Ġeducators": 5913,
      "Ġoptimizing": 5914,
      "Ġgaining": 5915,
      "Ġframework": 5916,
      "ĠRespons": 5917,
      "12": 5918,
      "bles": 5919,
      "cel": 5920,
      "ok": 5921,
      "table": 5922,
      "oning": 5923,
      "ecting": 5924,
      "Ġconvey": 5925,
      "Ġdistingu": 5926,
      "Ġmanif": 5927,
      "Ġprevention": 5928,
      "Ġregim": 5929,
      "Ġready": 5930,
      "Ġminds": 5931,
      "urring": 5932,
      "Ġshowcase": 5933,
      "Ġmachines": 5934,
      "Example": 5935,
      "ĠPerformance": 5936,
      "Ġfulfill": 5937,
      "SP": 5938,
      "level": 5939,
      "Ġpriorities": 5940,
      "Ġharmful": 5941,
      "Ġadhering": 5942,
      "ville": 5943,
      "asive": 5944,
      "cipl": 5945,
      "Ġcharge": 5946,
      "Ġenjoying": 5947,
      "Ġerror": 5948,
      "Ġoverlooked": 5949,
      "Ġcourt": 5950,
      "bl": 5951,
      "omet": 5952,
      "acerb": 5953,
      "Ġforget": 5954,
      "Ġexacerb": 5955,
      "umin": 5956,
      "standing": 5957,
      "Ġaccel": 5958,
      "Ġscale": 5959,
      "Ġblue": 5960,
      "Ġlanguages": 5961,
      "Ġfigure": 5962,
      "ĠSystems": 5963,
      "ĠNevertheless": 5964,
      "aver": 5965,
      "tire": 5966,
      "Ġbra": 5967,
      "Ġyouth": 5968,
      "ava": 5969,
      "Ġstanding": 5970,
      "Ġ2016": 5971,
      "ĠIdentify": 5972,
      "iology": 5973,
      "Ġpair": 5974,
      "anting": 5975,
      "Ġoutlined": 5976,
      "Ġcleaning": 5977,
      "Ġknew": 5978,
      "Ġthous": 5979,
      "Ġband": 5980,
      "economic": 5981,
      "ĠAct": 5982,
      "ada": 5983,
      "ĠBit": 5984,
      "Ġtraum": 5985,
      "Ġrecognized": 5986,
      "Ġ30": 5987,
      "ĠCompan": 5988,
      "Ġbene": 5989,
      "urious": 5990,
      "ette": 5991,
      "Ġvend": 5992,
      "Ġoral": 5993,
      "Ġleast": 5994,
      "ĠMicro": 5995,
      "Ġappoint": 5996,
      "Ġequitable": 5997,
      "ashing": 5998,
      "ĠOpen": 5999,
      "ĠConversely": 6000,
      "anation": 6001,
      "Ġbill": 6002,
      "Ġprol": 6003,
      "Ġindul": 6004,
      "ĠEmploy": 6005,
      "Ġelig": 6006,
      "Ġcomputing": 6007,
      "Ġcontracts": 6008,
      "gers": 6009,
      "enities": 6010,
      "Ġpages": 6011,
      "ĠAust": 6012,
      "antly": 6013,
      "Ġrecre": 6014,
      "Ġequity": 6015,
      "Ġsummary": 6016,
      "Ġidentities": 6017,
      "Ġroutines": 6018,
      "Ġbackgrounds": 6019,
      "Ġconstitutes": 6020,
      "Ġimmersive": 6021,
      "ĠFirstly": 6022,
      "rate": 6023,
      "Ġtast": 6024,
      "Ġhop": 6025,
      "apt": 6026,
      "ĠEd": 6027,
      "Ġsufficient": 6028,
      "Ġcenters": 6029,
      "Ġbalancing": 6030,
      "Ġmatches": 6031,
      "Ġjurisd": 6032,
      "Let": 6033,
      "oking": 6034,
      "point": 6035,
      "ugh": 6036,
      "Ġfant": 6037,
      "Ġwine": 6038,
      "ocation": 6039,
      "Ġunt": 6040,
      "Ġdoors": 6041,
      "Ġemphasis": 6042,
      "Ġactually": 6043,
      "Ġrecommended": 6044,
      "breaking": 6045,
      "Ġtips": 6046,
      "eries": 6047,
      "Ġmarked": 6048,
      "Ġreward": 6049,
      "Ġinteractive": 6050,
      "ĠNetwor": 6051,
      "Ġrefining": 6052,
      "Ġpopulation": 6053,
      "Ġtargets": 6054,
      "Ġappears": 6055,
      "ĠEnglish": 6056,
      "board": 6057,
      "ĠProfession": 6058,
      "ĠAddressing": 6059,
      "Ġrelaxation": 6060,
      "ĠBest": 6061,
      "ĠFound": 6062,
      "ĠHave": 6063,
      "ĠOpportun": 6064,
      "Ġmeets": 6065,
      "Ġtrusted": 6066,
      "Ġmeetings": 6067,
      "Ġstructural": 6068,
      "tps": 6069,
      "ino": 6070,
      "rem": 6071,
      "edding": 6072,
      "Ġdaunting": 6073,
      "Ġexpected": 6074,
      "ĠAre": 6075,
      "Ġvariety": 6076,
      "Ġwebpage": 6077,
      "tify": 6078,
      "Ġentirely": 6079,
      "Ġdiseases": 6080,
      "ha": 6081,
      "Ġcuis": 6082,
      "Ġbooks": 6083,
      "Ġven": 6084,
      "Ġweeks": 6085,
      "Ġtalents": 6086,
      "Ġharmony": 6087,
      "ĠTeam": 6088,
      "Ġaffordability": 6089,
      "Ġarchitecture": 6090,
      "SS": 6091,
      "bing": 6092,
      "fol": 6093,
      "Ġround": 6094,
      "Ġnations": 6095,
      "Ġhealthier": 6096,
      "Ġgrasp": 6097,
      "Ġautomotive": 6098,
      "Ġinterpersonal": 6099,
      "Ġadvocacy": 6100,
      "uzz": 6101,
      "inter": 6102,
      "Ġcast": 6103,
      "Ġbond": 6104,
      "Ġstead": 6105,
      "ĠTip": 6106,
      "ĠAir": 6107,
      "ĠClear": 6108,
      "Ġadults": 6109,
      "ĠInves": 6110,
      "Ġgains": 6111,
      "Ġemphasize": 6112,
      "Ġshares": 6113,
      "Ġperseverance": 6114,
      "driven": 6115,
      "Ġpitch": 6116,
      "Ġmov": 6117,
      "uman": 6118,
      "Ġtransitions": 6119,
      "rown": 6120,
      "Ġteeth": 6121,
      "Ġconfid": 6122,
      "Ġforming": 6123,
      "Ġpreval": 6124,
      "Ġversus": 6125,
      "Ġschedul": 6126,
      "Ġguarantees": 6127,
      "Ġphenomenon": 6128,
      "BA": 6129,
      "Next": 6130,
      "Ġrating": 6131,
      "Ġexists": 6132,
      "ĠFost": 6133,
      "orse": 6134,
      "Ġroll": 6135,
      "Ġjo": 6136,
      "Ġdiscourse": 6137,
      "Ġshapes": 6138,
      "Ġrestaur": 6139,
      "fficacy": 6140,
      "Ġtreating": 6141,
      "Ġspirituality": 6142,
      "DP": 6143,
      "ED": 6144,
      "Ġtun": 6145,
      "Ġca": 6146,
      "Ġgent": 6147,
      "ighter": 6148,
      "ĠII": 6149,
      "umn": 6150,
      "ĠHot": 6151,
      "Ġunderm": 6152,
      "Ġinviting": 6153,
      "Ġcombines": 6154,
      "ooting": 6155,
      "Ġcycle": 6156,
      "Ġvulnerabilities": 6157,
      "Ġsmartph": 6158,
      "Ġtapestry": 6159,
      "Ġphilosoph": 6160,
      "ĠCompanies": 6161,
      "Furthermore": 6162,
      "eds": 6163,
      "Ġmir": 6164,
      "stone": 6165,
      "Ġretention": 6166,
      "char": 6167,
      "ĠWind": 6168,
      "Ġtransit": 6169,
      "Ġreduction": 6170,
      "Ġterrit": 6171,
      "Ġoccurs": 6172,
      "Ġcolleagues": 6173,
      "Ġsexual": 6174,
      "Ġcas": 6175,
      "Ġbul": 6176,
      "Ġchronic": 6177,
      "ĠMat": 6178,
      "ĠNe": 6179,
      "Ġcharges": 6180,
      "Ġpartner": 6181,
      "Ġcommonly": 6182,
      "riptions": 6183,
      "ĠDiscuss": 6184,
      "na": 6185,
      "Ġtheology": 6186,
      "Ġfat": 6187,
      "Ġbrain": 6188,
      "ĠCount": 6189,
      "ĠOper": 6190,
      "ĠGiven": 6191,
      "ĠIniti": 6192,
      "Ġdesire": 6193,
      "Ġbalanced": 6194,
      "Ġassessing": 6195,
      "Ġacadem": 6196,
      "Ġcash": 6197,
      "Ġprow": 6198,
      "Ġnames": 6199,
      "Ġconducted": 6200,
      "Ġopinions": 6201,
      "Ġvolunte": 6202,
      "Ġbeneath": 6203,
      "date": 6204,
      "ĠMul": 6205,
      "ĠEast": 6206,
      "ĠDon": 6207,
      "Ġindicate": 6208,
      "Ġpromise": 6209,
      "Ġflour": 6210,
      "Ġimplemented": 6211,
      "ĠColle": 6212,
      "Ġholding": 6213,
      "ĠMedia": 6214,
      "ĠTime": 6215,
      "Ġintersection": 6216,
      "paced": 6217,
      "road": 6218,
      "rap": 6219,
      "Ġintroduce": 6220,
      "apan": 6221,
      "ĠFamiliar": 6222,
      "ĠDi": 6223,
      "Ġemissions": 6224,
      "Ġdispl": 6225,
      "ĠSte": 6226,
      "ports": 6227,
      "ĠBeh": 6228,
      "ĠStudents": 6229,
      "Ġmaximizing": 6230,
      "Ġslightly": 6231,
      "PIs": 6232,
      "ĠLearning": 6233,
      "Ġstringent": 6234,
      "Ġcompensation": 6235,
      "Ġproficiency": 6236,
      "Ġprowess": 6237,
      "Ġavenues": 6238,
      "Ġthing": 6239,
      "ĠBet": 6240,
      "entists": 6241,
      "Ġpercent": 6242,
      "Ġrelief": 6243,
      "ourage": 6244,
      "Ġbelow": 6245,
      "Ġaware": 6246,
      "Ġ2021": 6247,
      "Ġtourism": 6248,
      "field": 6249,
      "isp": 6250,
      "ĠCri": 6251,
      "ĠSee": 6252,
      "Ġvill": 6253,
      "ĠDoc": 6254,
      "Ġjoint": 6255,
      "Ġawa": 6256,
      "Ġartificial": 6257,
      "Ġdebate": 6258,
      "CP": 6259,
      "SA": 6260,
      "otion": 6261,
      "tra": 6262,
      "estiv": 6263,
      "Ġpit": 6264,
      "anging": 6265,
      "ocol": 6266,
      "ĠPat": 6267,
      "Ġworry": 6268,
      "ĠGroup": 6269,
      "Ġsubmit": 6270,
      "Ġstruggling": 6271,
      "bersecurity": 6272,
      "Ġcryst": 6273,
      "Ġinstallation": 6274,
      "umbled": 6275,
      "Ġmarginal": 6276,
      "ĠFootball": 6277,
      "Ġstock": 6278,
      "Ġintense": 6279,
      "ĠUpon": 6280,
      "Ġnewly": 6281,
      "Ġvisiting": 6282,
      "Ġdeter": 6283,
      "Ġgratitude": 6284,
      "ĠIndeed": 6285,
      "Ġadopt": 6286,
      "Ġspeech": 6287,
      "Ġoverwhelming": 6288,
      "discipl": 6289,
      "piec": 6290,
      "tile": 6291,
      "Ġsent": 6292,
      "Ġfru": 6293,
      "Ġhes": 6294,
      "Ġrare": 6295,
      "ĠBas": 6296,
      "ĠBrand": 6297,
      "ĠPay": 6298,
      "Ġboard": 6299,
      "Ġ15": 6300,
      "Ġmeditation": 6301,
      "Ġdrivers": 6302,
      "Ġaligns": 6303,
      "Ġadaptation": 6304,
      "Ġaspirations": 6305,
      "ĠCenter": 6306,
      "Guideline": 6307,
      "emed": 6308,
      "aint": 6309,
      "paralle": 6310,
      "atches": 6311,
      "Ġimmune": 6312,
      "Ġguiding": 6313,
      "Ġopponents": 6314,
      "Ġtestament": 6315,
      "ĠSchool": 6316,
      "Ġpenal": 6317,
      "Ġcrisis": 6318,
      ");": 6319,
      "ii": 6320,
      "nab": 6321,
      "enty": 6322,
      "Ġlinks": 6323,
      "olitical": 6324,
      "asy": 6325,
      "Ġupgra": 6326,
      "Ġdetailed": 6327,
      "Ġaligned": 6328,
      "Additionally": 6329,
      "Ġoutdoor": 6330,
      "Ġ|": 6331,
      "Ġgrand": 6332,
      "Ġdism": 6333,
      "Ġsections": 6334,
      "Ġbright": 6335,
      "Ġthoroughly": 6336,
      "Ġmobility": 6337,
      "ĠSupport": 6338,
      "Sh": 6339,
      "Ġ0": 6340,
      "Ġpick": 6341,
      "Ġmagn": 6342,
      "Ġcomplications": 6343,
      "Ġamenities": 6344,
      "Ġengines": 6345,
      "commer": 6346,
      "Ġfacilitates": 6347,
      "Ġvolumes": 6348,
      "Ġnuanced": 6349,
      "Ġscrut": 6350,
      "Ġdemographics": 6351,
      "paralleled": 6352,
      "commerce": 6353,
      "cons": 6354,
      "Ġsenti": 6355,
      "Ġshown": 6356,
      "Ġregist": 6357,
      "Ġsignals": 6358,
      "Ġoffic": 6359,
      "Ġsocio": 6360,
      "Ġedge": 6361,
      "Ġviewing": 6362,
      "Ġpersonality": 6363,
      "urrent": 6364,
      "Ġvoices": 6365,
      "Ġcoupl": 6366,
      "IP": 6367,
      "lers": 6368,
      "Ġtensions": 6369,
      "Ġsem": 6370,
      "itter": 6371,
      "ĠFace": 6372,
      "ĠRather": 6373,
      "ĠChina": 6374,
      "Ġformats": 6375,
      "ĠEnviron": 6376,
      "Ġhumans": 6377,
      "Ġ2019": 6378,
      "Ġwritten": 6379,
      "Ġcorrectly": 6380,
      "Ġdistinctive": 6381,
      "Ġtackle": 6382,
      "Ġtheore": 6383,
      "Ġdram": 6384,
      "Ġgear": 6385,
      "Ġrati": 6386,
      "ardless": 6387,
      "Ġplants": 6388,
      "ĠOf": 6389,
      "Ġrecruit": 6390,
      "Ġconfirm": 6391,
      "Ġestim": 6392,
      "Ġoccasion": 6393,
      "Ġwidely": 6394,
      "Ġconfidently": 6395,
      "Is": 6396,
      "dom": 6397,
      "uce": 6398,
      "ĠThom": 6399,
      "ĠEqu": 6400,
      "Ġrot": 6401,
      "Ġdecor": 6402,
      "Ġfacets": 6403,
      "ĠCompar": 6404,
      "Ġdomain": 6405,
      "ker": 6406,
      "sp": 6407,
      "Ġturning": 6408,
      "tible": 6409,
      "Ġunparalleled": 6410,
      "Ġindeed": 6411,
      "Ġperceptions": 6412,
      "ĠJapan": 6413,
      "Ġdetection": 6414,
      "Ġmuscle": 6415,
      "ĠImplications": 6416,
      "Ġpresentation": 6417,
      "Ġposts": 6418,
      "azon": 6419,
      "Ġdimin": 6420,
      "ĠUtilize": 6421,
      "ĠOpportunities": 6422,
      "We": 6423,
      "stream": 6424,
      "Ġincenti": 6425,
      "Ġrelatively": 6426,
      "Ġera": 6427,
      "ĠPriv": 6428,
      "Ġunlock": 6429,
      "Ġinterviews": 6430,
      "ĠSafety": 6431,
      "fers": 6432,
      "Ġaverage": 6433,
      "Ġow": 6434,
      "Ġhurd": 6435,
      "keep": 6436,
      "ĠDay": 6437,
      "ĠWell": 6438,
      "ĠForm": 6439,
      "Ġclearly": 6440,
      "ĠTraditional": 6441,
      "Ġstreams": 6442,
      "itchen": 6443,
      "Ġbrief": 6444,
      "ĠTogether": 6445,
      "Ġchamp": 6446,
      "Ġadvancing": 6447,
      "ĠStand": 6448,
      "Ġnothing": 6449,
      "Ġattor": 6450,
      "Ġattack": 6451,
      "Ġdiam": 6452,
      "Ġindicates": 6453,
      "ĠUsers": 6454,
      "Ġpaid": 6455,
      "Ġacquisition": 6456,
      "Ġprayer": 6457,
      "Cons": 6458,
      "ES": 6459,
      "box": 6460,
      "year": 6461,
      "Ġcities": 6462,
      "ara": 6463,
      "itim": 6464,
      "Ġdeal": 6465,
      "ĠLit": 6466,
      "Ġperpet": 6467,
      "ĠStay": 6468,
      "Ġcenturies": 6469,
      "Ġprime": 6470,
      "Ġpreferred": 6471,
      "print": 6472,
      "Ġpartnership": 6473,
      "Ġprosper": 6474,
      "Ġraised": 6475,
      "Ġsteel": 6476,
      "Ġpursuit": 6477,
      "Ġnecessitating": 6478,
      "Ġbirth": 6479,
      "disciplinary": 6480,
      "Ġpict": 6481,
      "Ġfabric": 6482,
      "ĠDif": 6483,
      "Ġagre": 6484,
      "Ġtraveling": 6485,
      "ĠIndian": 6486,
      "Ġdebates": 6487,
      "Ġwrong": 6488,
      "ĠIsra": 6489,
      "ĠEurope": 6490,
      "ĠLegal": 6491,
      "Ġsensitivity": 6492,
      "'.": 6493,
      "rants": 6494,
      "Ġsand": 6495,
      "ĠDist": 6496,
      "Ġposes": 6497,
      "ĠVer": 6498,
      "Ġnoticed": 6499,
      "Ġsubsc": 6500,
      "----------------------------": 6501,
      "ĠReview": 6502,
      "Ġtailor": 6503,
      "Ġmindset": 6504,
      "Ġcrafted": 6505,
      "Ġencountered": 6506,
      "ĠCommunication": 6507,
      "Ġproposed": 6508,
      "Ġschemes": 6509,
      "Ġthousands": 6510,
      "ML": 6511,
      "Ġsudden": 6512,
      "Ġpul": 6513,
      "Ġtraject": 6514,
      "Ġhelped": 6515,
      "ype": 6516,
      "Ġprogression": 6517,
      "Ġowners": 6518,
      "ĠArts": 6519,
      "Ġsugar": 6520,
      "Ġsuggesting": 6521,
      "ĠPark": 6522,
      "Ġresili": 6523,
      "Ġcannab": 6524,
      "illed": 6525,
      "Ġplaces": 6526,
      "ĠGrow": 6527,
      "Ġroots": 6528,
      "soft": 6529,
      "Ġinfec": 6530,
      "Ġconducive": 6531,
      "Ġceleb": 6532,
      "load": 6533,
      "Ġguarantee": 6534,
      "Ġmeticulously": 6535,
      "Ġstem": 6536,
      "Ġrule": 6537,
      "estled": 6538,
      "----------": 6539,
      "Ġtrain": 6540,
      "Ġsocieties": 6541,
      "Ġemployers": 6542,
      "Ġswift": 6543,
      "Ġvulnerability": 6544,
      "Ġtheoretical": 6545,
      "VII": 6546,
      "ham": 6547,
      "Ġice": 6548,
      "iday": 6549,
      "uted": 6550,
      "Ġinclusion": 6551,
      "ateral": 6552,
      "Ġmarketers": 6553,
      "Ġinflamm": 6554,
      "Ġclasses": 6555,
      "Ġnutrition": 6556,
      "Ġcherished": 6557,
      "mas": 6558,
      "inger": 6559,
      "roc": 6560,
      "Ġwent": 6561,
      "ĠTest": 6562,
      "Ġask": 6563,
      "Ġplaced": 6564,
      "Ġspark": 6565,
      "Ġfeels": 6566,
      "ĠChild": 6567,
      "Ġinitiative": 6568,
      "Ġraising": 6569,
      "oubtedly": 6570,
      "Ġneighborhood": 6571,
      "15": 6572,
      "CD": 6573,
      "Com": 6574,
      "coh": 6575,
      "Ġap": 6576,
      "iger": 6577,
      "Ġyoga": 6578,
      "Ġtimeless": 6579,
      "Ġoutcome": 6580,
      "racy": 6581,
      "Ġexcel": 6582,
      "rupt": 6583,
      "Ġstrengthening": 6584,
      "scale": 6585,
      "ĠSupp": 6586,
      "Ġmonthly": 6587,
      "Ġcamar": 6588,
      "Ġprotein": 6589,
      "Ġpictures": 6590,
      "Ġstable": 6591,
      "forward": 6592,
      "ĠHome": 6593,
      "Ġrock": 6594,
      "Ġsignal": 6595,
      "Ġrefresh": 6596,
      "ĠYork": 6597,
      "Ġutilization": 6598,
      "Ġranking": 6599,
      "Ġvolume": 6600,
      "ĠStrategy": 6601,
      "Ġsuscep": 6602,
      "ĠExperience": 6603,
      "aderie": 6604,
      "Ġcamaraderie": 6605,
      "AN": 6606,
      "Effective": 6607,
      "Ġmood": 6608,
      "Ġbus": 6609,
      "Ġreb": 6610,
      "imming": 6611,
      "ĠPers": 6612,
      "Ġspending": 6613,
      "Ġincluded": 6614,
      "Ġposed": 6615,
      "Ġcoast": 6616,
      "Ġfollowers": 6617,
      "Ġendless": 6618,
      "Ġidentification": 6619,
      "ĠApple": 6620,
      "Ġpoly": 6621,
      "Ġcycles": 6622,
      "Ġdemanding": 6623,
      "Ġrevealing": 6624,
      "Ġcompromise": 6625,
      "found": 6626,
      "Ġske": 6627,
      "Ġdin": 6628,
      "Ġmouth": 6629,
      "pecting": 6630,
      "Ġclo": 6631,
      "Ġmedications": 6632,
      "Ġgradu": 6633,
      "Ġ2017": 6634,
      "Ġingredient": 6635,
      "Ġfewer": 6636,
      "Ġteachings": 6637,
      "Ġmyself": 6638,
      "cip": 6639,
      "using": 6640,
      "usions": 6641,
      "agon": 6642,
      "ĠChurch": 6643,
      "Ġworked": 6644,
      "titudes": 6645,
      "Ġbelievers": 6646,
      "Ġrecipes": 6647,
      "Ġescal": 6648,
      ".).": 6649,
      "Have": 6650,
      "fast": 6651,
      "riting": 6652,
      "ench": 6653,
      "Ġstic": 6654,
      "Ġod": 6655,
      "Ġhun": 6656,
      "Ġju": 6657,
      "Ġasset": 6658,
      "ĠJour": 6659,
      "oven": 6660,
      "ĠContext": 6661,
      "Ġaddresses": 6662,
      "Ġutilized": 6663,
      "ĠContent": 6664,
      "aid": 6665,
      "ycle": 6666,
      "Ġast": 6667,
      "Ġbow": 6668,
      "Ġbiblical": 6669,
      "Ġlisting": 6670,
      "Ġrelative": 6671,
      "Ġaccident": 6672,
      "ysical": 6673,
      "Ġindustrial": 6674,
      "Ġpassed": 6675,
      "ĠIndust": 6676,
      "Ġundoubtedly": 6677,
      "Ġexpressions": 6678,
      "ĠInstit": 6679,
      "Ġwanted": 6680,
      "Ġencompasses": 6681,
      "Ġmortgage": 6682,
      "Ġpicture": 6683,
      "PU": 6684,
      "RM": 6685,
      "Ġwider": 6686,
      "Ġstret": 6687,
      "ried": 6688,
      "ĠEss": 6689,
      "thern": 6690,
      "Ġsett": 6691,
      "ltimate": 6692,
      "Ġcarries": 6693,
      "Ġattractive": 6694,
      "Ġdisparate": 6695,
      "Ġgentle": 6696,
      "rators": 6697,
      "Ġstars": 6698,
      "ĠTypes": 6699,
      "ĠEl": 6700,
      "ĠRequ": 6701,
      "Ġquiet": 6702,
      "Ġeffect": 6703,
      "Ġdeepen": 6704,
      "pirit": 6705,
      "ĠPlatform": 6706,
      "Ġperfectly": 6707,
      "Ġpackages": 6708,
      "Ġadventures": 6709,
      "Ġencompassing": 6710,
      "ĠPresident": 6711,
      "Ġmissing": 6712,
      "Ġshopping": 6713,
      "cil": 6714,
      "missions": 6715,
      "Ġoffensive": 6716,
      "Ġ2020": 6717,
      "Ġencry": 6718,
      "ĠUnlike": 6719,
      "Ġcollaborate": 6720,
      "Ġspeaking": 6721,
      "Ġpredict": 6722,
      "Ġacquiring": 6723,
      "ĠEnsuring": 6724,
      "AP": 6725,
      "After": 6726,
      "Ġgap": 6727,
      "Ġasking": 6728,
      "uming": 6729,
      "Ġconsists": 6730,
      "Ġcontrols": 6731,
      "Ġcovered": 6732,
      "Ġskincare": 6733,
      "Ġreported": 6734,
      "AS": 6735,
      "CC": 6736,
      "nov": 6737,
      "Ġsen": 6738,
      "ellow": 6739,
      "Ġstumbled": 6740,
      "irable": 6741,
      "ĠSince": 6742,
      "ĠMc": 6743,
      "ĠMax": 6744,
      "Ġarray": 6745,
      "Ġunderst": 6746,
      "Ġaccum": 6747,
      "obile": 6748,
      "Ġdistress": 6749,
      "Ġdrawn": 6750,
      "Ġtrials": 6751,
      "Ġmechanical": 6752,
      "Ġreinforcing": 6753,
      "ĠAssociation": 6754,
      "Ġinventory": 6755,
      "18": 6756,
      "dep": 6757,
      "nering": 6758,
      "vant": 6759,
      "Â°": 6760,
      "Ġtom": 6761,
      "through": 6762,
      "Ġgard": 6763,
      "izable": 6764,
      "ĠBu": 6765,
      "Ġequally": 6766,
      "Ġpassing": 6767,
      "arsh": 6768,
      "Ġfoods": 6769,
      "putes": 6770,
      "Ġadvocating": 6771,
      "Ġadministrative": 6772,
      "Ġintroducing": 6773,
      "htaking": 6774,
      "Ġpool": 6775,
      "Ġforg": 6776,
      "iform": 6777,
      "ĠFort": 6778,
      "entially": 6779,
      "ĠComb": 6780,
      "Ġcoach": 6781,
      "Ġmethodologies": 6782,
      "Ġachieved": 6783,
      "ĠManufact": 6784,
      "Ġrepresenting": 6785,
      "Ġelectron": 6786,
      "Ġbreathtaking": 6787,
      "Ġembodies": 6788,
      "Ġstraightforward": 6789,
      "Ġaging": 6790,
      "Ġwhe": 6791,
      "ĠLocal": 6792,
      "ĠImagine": 6793,
      "Ġtransformed": 6794,
      "Ġenthusiasm": 6795,
      "Ġpackage": 6796,
      "Ġwarrant": 6797,
      "Ġdomains": 6798,
      "Ġexplained": 6799,
      "Ġhinder": 6800,
      "Ġalleviate": 6801,
      "30": 6802,
      "Al": 6803,
      "Ġretain": 6804,
      "Ġveter": 6805,
      "ĠIP": 6806,
      "Ġimper": 6807,
      "umph": 6808,
      "ogen": 6809,
      "ĠAdop": 6810,
      "ĠAmazon": 6811,
      "####": 6812,
      "ĠExample": 6813,
      "Ġsummer": 6814,
      "Ġdomin": 6815,
      "Ġventure": 6816,
      "Ġconfigurations": 6817,
      "Ġgradually": 6818,
      "ĠFacebook": 6819,
      "11": 6820,
      "ae": 6821,
      "ĠTur": 6822,
      "Ġacid": 6823,
      "Ġchat": 6824,
      "Ġtraits": 6825,
      "Ġaccidents": 6826,
      "Ġadvances": 6827,
      "Ġtwist": 6828,
      "ĠStudies": 6829,
      "Ġdestinations": 6830,
      "author": 6831,
      "tw": 6832,
      "Ġtemporary": 6833,
      "Ġsession": 6834,
      "Ġthread": 6835,
      "ĠDirect": 6836,
      "Ġquanti": 6837,
      "Ġcold": 6838,
      "Ġfirsthand": 6839,
      "Ġindicating": 6840,
      "Ġdisplays": 6841,
      "Ac": 6842,
      "Ġefficacy": 6843,
      "ask": 6844,
      "Ġnative": 6845,
      "ĠSum": 6846,
      "Ġleaves": 6847,
      "ĠMo": 6848,
      "Ġbuying": 6849,
      "roll": 6850,
      "Ġdepression": 6851,
      "Ġstrengthens": 6852,
      "Ġevolve": 6853,
      "Ġsuggested": 6854,
      "Ġattempting": 6855,
      "Ġdepartments": 6856,
      "Ġrhyth": 6857,
      "Ġtissue": 6858,
      "Ġreform": 6859,
      "ĠExamination": 6860,
      "Ġswitch": 6861,
      "Ġfrequency": 6862,
      "Ġprotective": 6863,
      "ruption": 6864,
      "Ġdisciplines": 6865,
      "Ġacceptance": 6866,
      "Ġfluctuations": 6867,
      "ĠCollege": 6868,
      "CS": 6869,
      "otic": 6870,
      "inity": 6871,
      "Ġdate": 6872,
      "Ġdining": 6873,
      "ulent": 6874,
      "Ġsetbacks": 6875,
      "Ġgenre": 6876,
      "Ġelectric": 6877,
      "Ġgroundbreaking": 6878,
      "ĠSuper": 6879,
      "ĠPractice": 6880,
      "ranch": 6881,
      "Imagine": 6882,
      "ĠFinancial": 6883,
      "Ġalbum": 6884,
      "Ġcoupled": 6885,
      "Ġagreed": 6886,
      "Col": 6887,
      "Ġtransaction": 6888,
      "Ġsafer": 6889,
      "Ġcompletion": 6890,
      "Ġpresenting": 6891,
      "Ġsustained": 6892,
      "Ġobjective": 6893,
      "Ġphotography": 6894,
      "ĠSuccessful": 6895,
      "Ġtestim": 6896,
      "Ġsanc": 6897,
      "antic": 6898,
      "Ġfol": 6899,
      "Ġdentist": 6900,
      "actively": 6901,
      "Ġincons": 6902,
      "Ġcommand": 6903,
      "Ġscores": 6904,
      "oval": 6905,
      "gettable": 6906,
      "ĠAng": 6907,
      "Ġremained": 6908,
      "Ġlegitim": 6909,
      "Ġunfamiliar": 6910,
      "Ġliterature": 6911,
      "ĠEnsure": 6912,
      "Ġselected": 6913,
      "Ġobligations": 6914,
      "ĠPotential": 6915,
      "Ġhesit": 6916,
      "wood": 6917,
      "Ġmac": 6918,
      "etes": 6919,
      "otypes": 6920,
      "ĠNow": 6921,
      "Ġrepair": 6922,
      "Ġlocally": 6923,
      "Ġobtain": 6924,
      "ĠEnergy": 6925,
      "Ġwarmth": 6926,
      "Ġmitigating": 6927,
      "Ġcategory": 6928,
      "Ġenterprises": 6929,
      "ĠEarth": 6930,
      "Wor": 6931,
      "uments": 6932,
      "rec": 6933,
      "Ġdance": 6934,
      "Ġdiscom": 6935,
      "Ġdrives": 6936,
      "Ġsurroundings": 6937,
      "Ġexpressing": 6938,
      "Ġmiscon": 6939,
      "Ġbringing": 6940,
      "Ġcuisine": 6941,
      "mers": 6942,
      "Ġrom": 6943,
      "Ġpowers": 6944,
      "Ġrace": 6945,
      "Ġsegments": 6946,
      "Ġearth": 6947,
      "Ġautomation": 6948,
      "Ġarticles": 6949,
      "Ġaccommodate": 6950,
      "Ġattempts": 6951,
      "ĠSetting": 6952,
      "Ġfruits": 6953,
      "pris": 6954,
      "rogen": 6955,
      "ĠCultural": 6956,
      "Ġdeals": 6957,
      "Ġclar": 6958,
      "Ġperception": 6959,
      "Ġquarter": 6960,
      "Ġkitchen": 6961,
      "Ġleader": 6962,
      "obal": 6963,
      "Ġbug": 6964,
      "Ġfaces": 6965,
      "Ġdefin": 6966,
      "ĠAltern": 6967,
      "Ġprincip": 6968,
      "ĠAtt": 6969,
      "Ġtriumph": 6970,
      "ascular": 6971,
      "Ġresonates": 6972,
      "Ġcelebrating": 6973,
      "Ġdirection": 6974,
      "Ġmoisture": 6975,
      "ĠProfessional": 6976,
      "ET": 6977,
      "Ġtrou": 6978,
      "Ġcos": 6979,
      "Ġtheory": 6980,
      "Ġfruit": 6981,
      "ĠElec": 6982,
      "ĠGerm": 6983,
      "Ġembarking": 6984,
      "brid": 6985,
      "Ġ198": 6986,
      "onym": 6987,
      "Ġreference": 6988,
      "Ġpersistent": 6989,
      "lets": 6990,
      "Ġbat": 6991,
      "ĠTake": 6992,
      "rier": 6993,
      "ĠMake": 6994,
      "ĠHouse": 6995,
      "Ġcream": 6996,
      "Ġuph": 6997,
      "Ġsetup": 6998,
      "Ġconfidential": 6999,
      "Ġlimiting": 7000,
      "Ġstriving": 7001,
      "Ġschedule": 7002,
      "Ġcaution": 7003,
      "Ġdiscomfort": 7004,
      "erves": 7005,
      "tial": 7006,
      "eting": 7007,
      "Ġcoming": 7008,
      "Ġcha": 7009,
      "Ġrecording": 7010,
      "Ġcustomization": 7011,
      "Ġfluid": 7012,
      "Ġvalued": 7013,
      "Ġspecializing": 7014,
      "Ġadapting": 7015,
      "Ġcovering": 7016,
      "Ġfrequent": 7017,
      "Ġecosystems": 7018,
      "ders": 7019,
      "kers": 7020,
      "oe": 7021,
      "ĠBel": 7022,
      "Ġservers": 7023,
      "Ġnavigation": 7024,
      "gery": 7025,
      "Ġelections": 7026,
      "Ġobserved": 7027,
      "Ġteachers": 7028,
      "marks": 7029,
      "ĠEstablishing": 7030,
      "Ġexemplifies": 7031,
      "Ġrendering": 7032,
      "Fi": 7033,
      "ID": 7034,
      "Ġfish": 7035,
      "Ġbold": 7036,
      "Ġbaking": 7037,
      "Ġech": 7038,
      "Ġgun": 7039,
      "aph": 7040,
      "ĠEvery": 7041,
      "ĠWord": 7042,
      "ĠLo": 7043,
      "Ġconservation": 7044,
      "Ġglim": 7045,
      "Ġcurric": 7046,
      "levision": 7047,
      "Ġmetals": 7048,
      "evolving": 7049,
      "Ġcoordination": 7050,
      "Ġsuffering": 7051,
      "16": 7052,
      "Ġpra": 7053,
      "Ġdone": 7054,
      "Ġrever": 7055,
      "Ġnormal": 7056,
      "ĠSpirit": 7057,
      "ĠWill": 7058,
      "ĠHT": 7059,
      "forming": 7060,
      "Ġcollecting": 7061,
      "Ġdiscrim": 7062,
      "Ġrequests": 7063,
      "ointed": 7064,
      "rolog": 7065,
      "Ġinfluential": 7066,
      "ĠCloud": 7067,
      "Ġtransparent": 7068,
      "aughter": 7069,
      "ĠCreating": 7070,
      "Ġincredible": 7071,
      "ĠInvestig": 7072,
      "Ġhurdles": 7073,
      "cohol": 7074,
      "Ġx": 7075,
      "Ġped": 7076,
      "Ġegg": 7077,
      "ĠMid": 7078,
      "ĠDav": 7079,
      "Ġtransmission": 7080,
      "ĠKing": 7081,
      "Ġbran": 7082,
      "ĠTimmy": 7083,
      "Ġaffili": 7084,
      "Ġwriters": 7085,
      "ĠPrior": 7086,
      "Ġunforgettable": 7087,
      "ĠAustral": 7088,
      "Ġign": 7089,
      "Ġhiring": 7090,
      "Ġstone": 7091,
      "oses": 7092,
      "ensable": 7093,
      "ĠUnder": 7094,
      "Ġscore": 7095,
      "Ġspecified": 7096,
      "ĠOrig": 7097,
      "ĠSecondly": 7098,
      "Ġdelightful": 7099,
      "Ġmathema": 7100,
      "lin": 7101,
      "uk": 7102,
      "org": 7103,
      "Ġdoub": 7104,
      "Ġforec": 7105,
      "oting": 7106,
      "ĠMaterial": 7107,
      "Ġattitudes": 7108,
      "Ġdisputes": 7109,
      "Ġexplores": 7110,
      "ĠJam": 7111,
      "Ġdriven": 7112,
      "tification": 7113,
      "Ġconvenient": 7114,
      "Ġstreaming": 7115,
      "Ġreleases": 7116,
      "Ġcandidate": 7117,
      "ĠParticip": 7118,
      "Ġcelebrate": 7119,
      "Ġhorizons": 7120,
      "ispensable": 7121,
      "arious": 7122,
      "lements": 7123,
      "iders": 7124,
      "Ġagent": 7125,
      "Ġ14": 7126,
      "ician": 7127,
      "ĠEmpower": 7128,
      "Ġcertainly": 7129,
      "fortunately": 7130,
      "itigation": 7131,
      "Ġbrowsing": 7132,
      "Ġmagic": 7133,
      "Ġbolster": 7134,
      "ĠAfrican": 7135,
      "Ġinconsist": 7136,
      "AD": 7137,
      "market": 7138,
      "rings": 7139,
      "tors": 7140,
      "urm": 7141,
      "Ġadhere": 7142,
      "ĠDri": 7143,
      "Ġsegment": 7144,
      "Ġindispensable": 7145,
      "Ġtex": 7146,
      "Ġproduced": 7147,
      "Ġnewfound": 7148,
      "Ġmarketplace": 7149,
      "Ġcritically": 7150,
      "Ġautomatically": 7151,
      "Ġreferred": 7152,
      "Ġcrime": 7153,
      "Ġaccommodations": 7154,
      "Ġmarginalized": 7155,
      "tes": 7156,
      "uity": 7157,
      "Ġur": 7158,
      "Ġsti": 7159,
      "anks": 7160,
      "Ġdouble": 7161,
      "Ġnurs": 7162,
      "ĠCross": 7163,
      "ĠSpecial": 7164,
      "ĠIde": 7165,
      "irec": 7166,
      "Ġ16": 7167,
      "Ġnoise": 7168,
      "Ġcontributed": 7169,
      "Ġmyri": 7170,
      "Ġautonomy": 7171,
      "ĠTrump": 7172,
      "ĠBlack": 7173,
      "Ġattracting": 7174,
      "Ġ2023": 7175,
      "ĠBitcoin": 7176,
      "ĠMicrosoft": 7177,
      "lies": 7178,
      "erts": 7179,
      "Ġpin": 7180,
      "rab": 7181,
      "Ġvitam": 7182,
      "overing": 7183,
      "Ġscript": 7184,
      "Ġrequest": 7185,
      "Ġgenres": 7186,
      "Ġdifferenti": 7187,
      "Ġobtaining": 7188,
      "There": 7189,
      "Ġreached": 7190,
      "Ġtrial": 7191,
      "Ġcybersecurity": 7192,
      "Ġdamages": 7193,
      "Ġpurchases": 7194,
      "ĠOptim": 7195,
      "Ġfraud": 7196,
      "Ġannounce": 7197,
      "entralized": 7198,
      "cultural": 7199,
      "Ġmig": 7200,
      "Ġconcl": 7201,
      "otes": 7202,
      "ĠPsych": 7203,
      "ĠMich": 7204,
      "Ġintros": 7205,
      "veloper": 7206,
      "Ġsucceed": 7207,
      "ĠGreen": 7208,
      "Ġcreators": 7209,
      "Ġelectrical": 7210,
      "Ġvolati": 7211,
      "Ġcaters": 7212,
      "Ġexistence": 7213,
      "Ġwalk": 7214,
      "Ġdiscipline": 7215,
      "ĠChoosing": 7216,
      "Ġconfiguration": 7217,
      "ĠInvest": 7218,
      "Ġcohesive": 7219,
      "Ġlicens": 7220,
      "authorized": 7221,
      "gi": 7222,
      "gue": 7223,
      "ona": 7224,
      "Ġaccep": 7225,
      "Ġresist": 7226,
      "ĠWestern": 7227,
      "ĠLike": 7228,
      "Ġparalle": 7229,
      "weight": 7230,
      "Ġdiscl": 7231,
      "Ġorganized": 7232,
      "ĠRegardless": 7233,
      "Ġstewards": 7234,
      "Ġfavorable": 7235,
      "Ġsimplicity": 7236,
      "Ġfairness": 7237,
      "Ġunwaver": 7238,
      "Ġinterpretation": 7239,
      "Ġeliminating": 7240,
      "Ġvictims": 7241,
      "Ġjoining": 7242,
      "Ġmyriad": 7243,
      "min": 7244,
      "Ġpets": 7245,
      "Ġultimate": 7246,
      "Ġpregn": 7247,
      "Ġentering": 7248,
      "Ġimportantly": 7249,
      "Ġaffects": 7250,
      "Ġmarvel": 7251,
      "Ġbegins": 7252,
      "Ġtalented": 7253,
      "Ġunwavering": 7254,
      "Ar": 7255,
      "Ġtree": 7256,
      "Ġfishing": 7257,
      "Ġgems": 7258,
      "ĠCost": 7259,
      "ĠInnov": 7260,
      "resent": 7261,
      "Ġmeasuring": 7262,
      "Ġhomeown": 7263,
      "Ġdebt": 7264,
      "Ġbasket": 7265,
      "Ġprioritizing": 7266,
      "Ġscientists": 7267,
      "Ġmastery": 7268,
      "https": 7269,
      "Ġnegotiations": 7270,
      "Ġdegree": 7271,
      "Ġlisteners": 7272,
      "Ġmilestones": 7273,
      "yle": 7274,
      "Ġaf": 7275,
      "Ġwoman": 7276,
      "ictions": 7277,
      "step": 7278,
      "ĠSen": 7279,
      "iforn": 7280,
      "ĠPort": 7281,
      "uding": 7282,
      "Ġsolace": 7283,
      "Ġcriticism": 7284,
      "ĠThroughout": 7285,
      "rehensive": 7286,
      "Ġcurrently": 7287,
      "Ġlayout": 7288,
      "ĠClass": 7289,
      "ĠHistory": 7290,
      "Ġanswer": 7291,
      "ĠSal": 7292,
      "amic": 7293,
      "Ġuniform": 7294,
      "Ġunauthorized": 7295,
      "Ġ2014": 7296,
      "ĠPlan": 7297,
      "Ġ50": 7298,
      "Ġruns": 7299,
      "Ġtextures": 7300,
      "Ġfixed": 7301,
      "Ġvegetables": 7302,
      "Ġcryptocurrencies": 7303,
      "Ġliquid": 7304,
      "Ġprosperity": 7305,
      "Ġeating": 7306,
      "Ġstored": 7307,
      "mentation": 7308,
      "ĠCoun": 7309,
      "amb": 7310,
      "agram": 7311,
      "Ġresid": 7312,
      "Ġintr": 7313,
      "Ġ(\"": 7314,
      "Ġevid": 7315,
      "Ġunderp": 7316,
      "Ġmotion": 7317,
      "Ġsupported": 7318,
      "Ġnarrow": 7319,
      "Ġnearly": 7320,
      "Ġadjusting": 7321,
      "ĠProtection": 7322,
      "Ġpublished": 7323,
      "aj": 7324,
      "Ġsold": 7325,
      "rete": 7326,
      "Ġwire": 7327,
      "Ġgif": 7328,
      "Ġcomparing": 7329,
      "aping": 7330,
      "Ġplot": 7331,
      "Ġdispos": 7332,
      "Ġparad": 7333,
      "ĠUk": 7334,
      "ĠNiger": 7335,
      "Ġdesires": 7336,
      "Ġquan": 7337,
      "Ġfinally": 7338,
      "Ġsearching": 7339,
      "notch": 7340,
      "Ġagreement": 7341,
      "Ġordinary": 7342,
      "Ġclubs": 7343,
      "Ġsay": 7344,
      "Ġstones": 7345,
      "Ġgot": 7346,
      "Ġgently": 7347,
      "aby": 7348,
      "ĠHuman": 7349,
      "rick": 7350,
      "Ġnotion": 7351,
      "ĠAlways": 7352,
      "Ġdiet": 7353,
      "Ġtherapies": 7354,
      "Ġfailures": 7355,
      "Ġinstruments": 7356,
      "Ġbanks": 7357,
      "ĠApproach": 7358,
      "And": 7359,
      "Ġcin": 7360,
      "Ġstop": 7361,
      "ĠMag": 7362,
      "ressions": 7363,
      "Ġremin": 7364,
      "Ġrealistic": 7365,
      "apped": 7366,
      "Ġdietary": 7367,
      "Ġpolitic": 7368,
      "Ġillum": 7369,
      "Ġpaying": 7370,
      "Ġhappened": 7371,
      "Ġwatching": 7372,
      "Ġunderscore": 7373,
      "ĠCollaboration": 7374,
      "Ġepis": 7375,
      "Ġreplacement": 7376,
      "SO": 7377,
      "TP": 7378,
      "front": 7379,
      "Ġpure": 7380,
      "Ġwedding": 7381,
      "unch": 7382,
      "Ġneut": 7383,
      "Ġsubjects": 7384,
      "atching": 7385,
      "Ġguided": 7386,
      "ĠArch": 7387,
      "ĠSoft": 7388,
      "ĠTraining": 7389,
      "Ġzones": 7390,
      "ĠIsrael": 7391,
      "Ġclothing": 7392,
      "Ġtick": 7393,
      "Ġsam": 7394,
      "arn": 7395,
      "Ġdual": 7396,
      "Ġrent": 7397,
      "Ġrain": 7398,
      "ĠCry": 7399,
      "ĠSan": 7400,
      "andom": 7401,
      "Ġitem": 7402,
      "ĠEven": 7403,
      "Ġunus": 7404,
      "Ġabund": 7405,
      "Ġsparked": 7406,
      "Ġconsiderable": 7407,
      "Ġconfront": 7408,
      "Ġinfluenc": 7409,
      "ĠTrust": 7410,
      "Ġupdate": 7411,
      "Ġwinning": 7412,
      "Ġpassionate": 7413,
      "ĠIncre": 7414,
      "Ġfulfilling": 7415,
      "Ġdreams": 7416,
      "Ġdecreased": 7417,
      "Ġprofitability": 7418,
      "ĠAutom": 7419,
      "CT": 7420,
      "ju": 7421,
      "men": 7422,
      "made": 7423,
      "Ġtight": 7424,
      "ari": 7425,
      "Ġstores": 7426,
      "ĠTer": 7427,
      "uses": 7428,
      "Ġleague": 7429,
      "Ġcompounds": 7430,
      "ĠHol": 7431,
      "Ġinterfaces": 7432,
      "awareness": 7433,
      "Ġpeak": 7434,
      "Ġevolved": 7435,
      "Ġshaped": 7436,
      "ĠBefore": 7437,
      "Ġdisruptions": 7438,
      "Ġtastes": 7439,
      "Ġinflammation": 7440,
      "Ph": 7441,
      "falls": 7442,
      "Ġties": 7443,
      "Ġtherm": 7444,
      "Ġpip": 7445,
      "Ġshipping": 7446,
      "ĠGen": 7447,
      "Ġspanning": 7448,
      "uthentic": 7449,
      "These": 7450,
      "Ġ2015": 7451,
      "brace": 7452,
      "Ġorigins": 7453,
      "SD": 7454,
      "Un": 7455,
      "gener": 7456,
      "vy": 7457,
      "tious": 7458,
      "Ġelection": 7459,
      "Ġstere": 7460,
      "Ġlifel": 7461,
      "ĠDeep": 7462,
      "Ġhumility": 7463,
      "Ġlooked": 7464,
      "Ġpressures": 7465,
      "Ġportfol": 7466,
      "Ġdatas": 7467,
      "Ġpromotional": 7468,
      "Ġgenetic": 7469,
      "ĠPaul": 7470,
      "Ġworkflows": 7471,
      "ĠGrowth": 7472,
      "do": 7473,
      "dit": 7474,
      "ints": 7475,
      "Ġsaving": 7476,
      "ĠCul": 7477,
      "ĠBased": 7478,
      "Ġ100": 7479,
      "Ġconfusion": 7480,
      "Ġphysically": 7481,
      "ĠPlanning": 7482,
      "Ġtooth": 7483,
      "Ġvariables": 7484,
      "ĠSolutions": 7485,
      "ĠRussia": 7486,
      "ĠNFL": 7487,
      "Ġhazards": 7488,
      "Ġcannabis": 7489,
      "CO": 7490,
      "aro": 7491,
      "erate": 7492,
      "Ġsin": 7493,
      "ulties": 7494,
      "ĠAud": 7495,
      "aming": 7496,
      "izz": 7497,
      "ĠWal": 7498,
      "ĠRest": 7499,
      "Ġconsulting": 7500,
      "ressed": 7501,
      "Ġinsu": 7502,
      "Ġfeet": 7503,
      "Ġguest": 7504,
      "Ġanalytical": 7505,
      "Ġ2013": 7506,
      "Ġutility": 7507,
      "Ġpoised": 7508,
      "Ġtempl": 7509,
      "ĠQuality": 7510,
      "ĠExploration": 7511,
      "Ġsunny": 7512,
      "Ġlegislation": 7513,
      "BT": 7514,
      "Comm": 7515,
      "Tr": 7516,
      "ĠTreat": 7517,
      "pliance": 7518,
      "ĠMal": 7519,
      "ĠGame": 7520,
      "Ġarising": 7521,
      "Ġtheme": 7522,
      "rolling": 7523,
      "Ġtypical": 7524,
      "Ġcontrolling": 7525,
      "ĠEmphas": 7526,
      "Ġraise": 7527,
      "Ġexecuting": 7528,
      "Ġauthentication": 7529,
      "Ġobserve": 7530,
      "Ġlabel": 7531,
      "Ġvacc": 7532,
      "ĠEarly": 7533,
      "ython": 7534,
      "Ġproteins": 7535,
      "ĠCaliforn": 7536,
      "Ġvigilant": 7537,
      "Ġmanifest": 7538,
      ".)": 7539,
      "Ġfranch": 7540,
      "Ġgau": 7541,
      "ĠTV": 7542,
      "etheless": 7543,
      "anged": 7544,
      "Ġpassions": 7545,
      "ĠArmed": 7546,
      "Ġuseful": 7547,
      "Ġenjoyable": 7548,
      "Ġplacement": 7549,
      "Ġwinter": 7550,
      "Ġhousehold": 7551,
      "Ġmanipulation": 7552,
      "Ġmistakes": 7553,
      "Ġlibraries": 7554,
      "ritish": 7555,
      "Ġcoding": 7556,
      "Ġbacter": 7557,
      "ica": 7558,
      "illa": 7559,
      "Ġparent": 7560,
      "Ġinterplay": 7561,
      "Ġcommunications": 7562,
      "Ġadvis": 7563,
      "Ġagric": 7564,
      "Ġdefined": 7565,
      "Why": 7566,
      "Ġcontinuity": 7567,
      "Ġglobally": 7568,
      "Ġpainting": 7569,
      "ĠMedical": 7570,
      "Ġimagery": 7571,
      "ĠAnalyzing": 7572,
      "Ġdrugs": 7573,
      "Ġartistry": 7574,
      "Am": 7575,
      "Man": 7576,
      "Ultimately": 7577,
      "otional": 7578,
      "Ġtiny": 7579,
      "Ġsat": 7580,
      "itting": 7581,
      "embly": 7582,
      "Ġorganizing": 7583,
      "Ġsolar": 7584,
      "Ġmuscles": 7585,
      "Ġproperly": 7586,
      "azz": 7587,
      "Ġelectricity": 7588,
      "Ġreleased": 7589,
      "Ġadverse": 7590,
      "Ġanimal": 7591,
      "Ġexperimentation": 7592,
      "Ġcomplementary": 7593,
      "Ġtitles": 7594,
      "ĠBackground": 7595,
      "ĊĠĠĠĠ": 7596,
      "Ġretire": 7597,
      "eterm": 7598,
      "amily": 7599,
      "Ġacting": 7600,
      "ĠMethod": 7601,
      "Ġuncon": 7602,
      "Ġtraction": 7603,
      "onged": 7604,
      "Ġblending": 7605,
      "Ġmyster": 7606,
      "Ġimmun": 7607,
      "ĠComprehensive": 7608,
      "ĠEngine": 7609,
      "Ġanticipate": 7610,
      "Ġmixed": 7611,
      "Ġattendees": 7612,
      "www": 7613,
      "Ġelegance": 7614,
      "ĠRecognizing": 7615,
      "Ġcasual": 7616,
      "Ġcelebration": 7617,
      "Ġevidenced": 7618,
      "Ġarom": 7619,
      "rees": 7620,
      "osit": 7621,
      "Ġproven": 7622,
      "Ġdiscrep": 7623,
      "Ġ24": 7624,
      "Ġanything": 7625,
      "Ġworkplace": 7626,
      "Ġencaps": 7627,
      "Ġfoundational": 7628,
      "Ġfriendly": 7629,
      "Ġgathered": 7630,
      "Ġsymbols": 7631,
      "Ġpromotion": 7632,
      "ĠCustomer": 7633,
      "Ġdatabases": 7634,
      "Ġprevalent": 7635,
      "Ġreminisc": 7636,
      "building": 7637,
      "dens": 7638,
      "Ġurg": 7639,
      "Ġimaging": 7640,
      "eseen": 7641,
      "ĠGold": 7642,
      "ĠUser": 7643,
      "Ġphr": 7644,
      "Ġtherefore": 7645,
      "Ġlocals": 7646,
      "Ġapproached": 7647,
      "Ġearning": 7648,
      "ĠWithin": 7649,
      "ĠEmbrace": 7650,
      "Ġscenes": 7651,
      "Ġsolidifying": 7652,
      "ĠPolicy": 7653,
      "Ġinstruction": 7654,
      "ĠIntegration": 7655,
      "Ġsurvival": 7656,
      "Ġfemale": 7657,
      "top": 7658,
      "ention": 7659,
      "Ġthick": 7660,
      "roid": 7661,
      "Ġbone": 7662,
      "Ġster": 7663,
      "Ġbear": 7664,
      "ĠMary": 7665,
      "istan": 7666,
      "ĠGra": 7667,
      "Ġscope": 7668,
      "ĠStep": 7669,
      "Ġestablishment": 7670,
      "Ġdiab": 7671,
      "iscovery": 7672,
      "tism": 7673,
      "Ġachievement": 7674,
      "Ġhappiness": 7675,
      "Ġpackaging": 7676,
      "enny": 7677,
      "ĠVisual": 7678,
      "ĠHotel": 7679,
      "Ġinsufficient": 7680,
      "RP": 7681,
      "spec": 7682,
      "Ġhing": 7683,
      "Ġhub": 7684,
      "Ġlosing": 7685,
      "Ġrac": 7686,
      "ĠRead": 7687,
      "entials": 7688,
      "ĠUnderstand": 7689,
      "Ġprovision": 7690,
      "Ġundergo": 7691,
      "Ġregister": 7692,
      "ĠAdm": 7693,
      "Ġcapt": 7694,
      "Ġcompleting": 7695,
      "Ġsmoo": 7696,
      "Ġpurs": 7697,
      "Ġhumor": 7698,
      "Ġfilms": 7699,
      "Ġmechanism": 7700,
      "ĠPharm": 7701,
      "Ġgrounded": 7702,
      "ĠPolitical": 7703,
      "Expl": 7704,
      "Ġcataly": 7705,
      "Ġmanufacturer": 7706,
      "ĠAnalyze": 7707,
      "Ġsharp": 7708,
      "defined": 7709,
      "Ġdismiss": 7710,
      "70": 7711,
      "Cre": 7712,
      "Ġce": 7713,
      "Ġcodes": 7714,
      "Ġfle": 7715,
      "Ġborders": 7716,
      "Ġhob": 7717,
      "Ġhier": 7718,
      "Ġharsh": 7719,
      "Ġconferences": 7720,
      "ĠWater": 7721,
      "Ġliability": 7722,
      "ĠJava": 7723,
      "Ġmedication": 7724,
      "--------------------": 7725,
      "Ġhistoric": 7726,
      "Ġlawy": 7727,
      "ushing": 7728,
      "Ġobserv": 7729,
      "Ġinterpre": 7730,
      "Ġtranslate": 7731,
      "ĠDepart": 7732,
      "Ġpenalties": 7733,
      "Ġunusual": 7734,
      "lands": 7735,
      "uge": 7736,
      "orically": 7737,
      "Ġprob": 7738,
      "riage": 7739,
      "ĠBritish": 7740,
      "Ġsea": 7741,
      "ĠHy": 7742,
      "Ġimpacting": 7743,
      "Ġspons": 7744,
      "Ġremoving": 7745,
      "Ġdesignated": 7746,
      "Ġknows": 7747,
      "Ġfacts": 7748,
      "Ġduration": 7749,
      "Ġparameters": 7750,
      "aturally": 7751,
      "Ġbelonging": 7752,
      "Ġaccompanied": 7753,
      "Ġrecruitment": 7754,
      "Ġnone": 7755,
      "ĠTom": 7756,
      "ĠTour": 7757,
      "ĠMore": 7758,
      "ĠHand": 7759,
      "Ġaccounting": 7760,
      "Ġmodes": 7761,
      "Ġresponding": 7762,
      "Ġbutter": 7763,
      "Ġextreme": 7764,
      "rench": 7765,
      "Ġcycl": 7766,
      "Ġyounger": 7767,
      "Ġopposing": 7768,
      "Ġexchanges": 7769,
      "Ġhabit": 7770,
      "Ġfunctionalities": 7771,
      "Ġunwanted": 7772,
      "Ġrenewed": 7773,
      "Ġtrauma": 7774,
      "ĠManufacturing": 7775,
      ".âĢĿ": 7776,
      "14": 7777,
      "cell": 7778,
      "yr": 7779,
      "edia": 7780,
      "arc": 7781,
      "Ġtow": 7782,
      "icks": 7783,
      "Ġrevel": 7784,
      "Ġstrain": 7785,
      "ĠSelf": 7786,
      "ppers": 7787,
      "Ġremoval": 7788,
      "Ġago": 7789,
      "Ġcritics": 7790,
      "Ġethn": 7791,
      "Ġsubstance": 7792,
      "Ġfilling": 7793,
      "ĠCentral": 7794,
      "Ġfrag": 7795,
      "ĠMaintain": 7796,
      "ĠWindows": 7797,
      "ĠCalifornia": 7798,
      "Sec": 7799,
      "Ġpuzz": 7800,
      "Ġreally": 7801,
      "Ġnet": 7802,
      "ĠCur": 7803,
      "Ġadorn": 7804,
      "ĠDo": 7805,
      "Ġdisorder": 7806,
      "asters": 7807,
      "atial": 7808,
      "ears": 7809,
      "aways": 7810,
      "verse": 7811,
      "Ġhumble": 7812,
      "ĠOnly": 7813,
      "Ġtravels": 7814,
      "Ġartwork": 7815,
      "Ġqualified": 7816,
      "Ġfeatured": 7817,
      "ĠSelection": 7818,
      "Ġmotivations": 7819,
      "Ġallocate": 7820,
      "Ġdiagnostic": 7821,
      "Ġcarrying": 7822,
      "Ġproceedings": 7823,
      "Ġunforeseen": 7824,
      "Ġskep": 7825,
      "PP": 7826,
      "Ġproactively": 7827,
      "emost": 7828,
      "iff": 7829,
      "Ġalcohol": 7830,
      "Ġlean": 7831,
      "ĠMaking": 7832,
      "endant": 7833,
      "ĠLess": 7834,
      "Ġrecycl": 7835,
      "Ġsystemic": 7836,
      "ords": 7837,
      "Ġdepends": 7838,
      "exts": 7839,
      "Ġpreference": 7840,
      "Ġrepresentatives": 7841,
      "Ġfamiliarity": 7842,
      "Ġarchitectural": 7843,
      "Ġdemographic": 7844,
      "Ġvigilance": 7845,
      "Ġisolation": 7846,
      "Ġdiligent": 7847,
      "Ġfulfillment": 7848,
      "Ġrewarding": 7849,
      "World": 7850,
      "kens": 7851,
      "ya": 7852,
      "Ġrough": 7853,
      "ini": 7854,
      "Ġtire": 7855,
      "Ġtaught": 7856,
      "atric": 7857,
      "Ġreass": 7858,
      "igen": 7859,
      "Ġprojec": 7860,
      "Ġvirus": 7861,
      "utter": 7862,
      "Ġalle": 7863,
      "ĠThough": 7864,
      "Ġdear": 7865,
      "ificance": 7866,
      "Ġopens": 7867,
      "Ġfacial": 7868,
      "ĠConsult": 7869,
      "ĠShare": 7870,
      "Ġillness": 7871,
      "Ġcontains": 7872,
      "Ġgatherings": 7873,
      "Ġdifficulties": 7874,
      "Ġcamera": 7875,
      "OI": 7876,
      "ta": 7877,
      "zed": 7878,
      "Ġ{": 7879,
      "titive": 7880,
      "Ġcaught": 7881,
      "Ġtoler": 7882,
      "Ġexceed": 7883,
      "ĠCraf": 7884,
      "Ġpride": 7885,
      "ĠLong": 7886,
      "Ġspect": 7887,
      "yses": 7888,
      "Ġexpensive": 7889,
      "Ġmarks": 7890,
      "Ġcyber": 7891,
      "Ġwondered": 7892,
      "Ġjudgment": 7893,
      "Ġhotel": 7894,
      "Ġdissem": 7895,
      "Ġmagical": 7896,
      "Ġorders": 7897,
      "Ġkindness": 7898,
      "Ġcharming": 7899,
      "ĠMonitor": 7900,
      "quisite": 7901,
      "13": 7902,
      "IM": 7903,
      "inese": 7904,
      "ora": 7905,
      "Ġfr": 7906,
      "uter": 7907,
      "Ġimpar": 7908,
      "Ġcreatures": 7909,
      "Ġdeliber": 7910,
      "Ġhistories": 7911,
      "Ġexecutive": 7912,
      "Ġactionable": 7913,
      "Ġpsychology": 7914,
      "Ġadministrators": 7915,
      "Ġsafeguard": 7916,
      "ĠSkills": 7917,
      "Ġhearts": 7918,
      "ĠFollowing": 7919,
      "Ġscheduling": 7920,
      "giene": 7921,
      "De": 7922,
      "Ġmother": 7923,
      "ione": 7924,
      "Ġiter": 7925,
      "ĠFocus": 7926,
      "duct": 7927,
      "avior": 7928,
      "Ġremove": 7929,
      "Ġkeywords": 7930,
      "Ġlesson": 7931,
      "Ġdiscovering": 7932,
      "Ġchecking": 7933,
      "Ġwindow": 7934,
      "Ġeffortlessly": 7935,
      "Ġintentional": 7936,
      "Ġsongs": 7937,
      "Ġconcentr": 7938,
      "Consider": 7939,
      "Ġlifelong": 7940,
      "alities": 7941,
      "Ġstated": 7942,
      "ĠSou": 7943,
      "ama": 7944,
      "Ġalm": 7945,
      "ĠPric": 7946,
      "opolitical": 7947,
      "Ġclick": 7948,
      "Ġformed": 7949,
      "Ġcars": 7950,
      "Ġenjoyment": 7951,
      "Ġopposition": 7952,
      "Ġacknowledge": 7953,
      "Ġmoral": 7954,
      "Ġenterprise": 7955,
      "Ġluxurious": 7956,
      "Ġrenewable": 7957,
      "Ġvictory": 7958,
      "ĠAdminist": 7959,
      "HC": 7960,
      "Reg": 7961,
      "Ġfusion": 7962,
      "Ġdw": 7963,
      "Ġnod": 7964,
      "uls": 7965,
      "Ġgets": 7966,
      "iral": 7967,
      "Ġcomments": 7968,
      "ĠBra": 7969,
      "ĠPal": 7970,
      "Ġroute": 7971,
      "Ġtiming": 7972,
      "Ġconfron": 7973,
      "Ġintegrate": 7974,
      "Ġcommitting": 7975,
      "Ġcombinations": 7976,
      "Ġglobe": 7977,
      "Ġexpressed": 7978,
      "Ġrevealed": 7979,
      "Ġunderstood": 7980,
      "Ġstewardship": 7981,
      "Ġsmoother": 7982,
      "Ġpursue": 7983,
      "ban": 7984,
      "atin": 7985,
      "Ġfestiv": 7986,
      "Ġhorm": 7987,
      "cean": 7988,
      "Ġdeveloper": 7989,
      "uster": 7990,
      "ĠOther": 7991,
      "ĠInf": 7992,
      "ube": 7993,
      "Ġstrategically": 7994,
      "Ġapplicants": 7995,
      "Ġdriver": 7996,
      "Ġrevol": 7997,
      "Ġinvestigations": 7998,
      "Ġburden": 7999,
      "Ġnecessitate": 8000,
      "Ġyields": 8001,
      "Ġdemocracy": 8002,
      "Ġintimate": 8003,
      "ĠAvoid": 8004,
      "Ġprompting": 8005,
      "ocolate": 8006,
      "Ġofficers": 8007,
      "Ġresilient": 8008,
      "FA": 8009,
      "Ġexh": 8010,
      "abil": 8011,
      "emy": 8012,
      "Ġresidential": 8013,
      "ĠFil": 8014,
      "Ġcontexts": 8015,
      "Ġrelies": 8016,
      "alse": 8017,
      "Ġkids": 8018,
      "Ġedit": 8019,
      "Ġpeer": 8020,
      "Ġappreciating": 8021,
      "ximity": 8022,
      "Ġfunctioning": 8023,
      "ĠScience": 8024,
      "ĠPrepar": 8025,
      "Ġsynth": 8026,
      "Ġmomentum": 8027,
      "Ġvacation": 8028,
      "profit": 8029,
      "Ġsourcing": 8030,
      "Ġgrappling": 8031,
      "Ġsocioeconomic": 8032,
      "ĠPrivacy": 8033,
      "Ġhierarch": 8034,
      "igenous": 8035,
      "AT": 8036,
      "mates": 8037,
      "tique": 8038,
      "Ġburn": 8039,
      "unk": 8040,
      "ĠHam": 8041,
      "ello": 8042,
      "ologists": 8043,
      "ishment": 8044,
      "Ġkn": 8045,
      "Ġdiscern": 8046,
      "ĠVirtual": 8047,
      "Ġmechanics": 8048,
      "Ġobserving": 8049,
      "Ġpursuits": 8050,
      "Ġlabels": 8051,
      "piece": 8052,
      "Over": 8053,
      "Pl": 8054,
      "vision": 8055,
      "Ġ#": 8056,
      "Ġcourage": 8057,
      "rew": 8058,
      "edded": 8059,
      "terior": 8060,
      "Ġseasons": 8061,
      "ventional": 8062,
      "Ġpolice": 8063,
      "portion": 8064,
      "Ġworlds": 8065,
      "Ġobject": 8066,
      "titution": 8067,
      "Ġinfluenced": 8068,
      "Ġclassroom": 8069,
      "rime": 8070,
      "Ġadvocate": 8071,
      "Ġcorrec": 8072,
      "Ġliteracy": 8073,
      "ĠMaintaining": 8074,
      "Ġtrigger": 8075,
      "ĠMonitoring": 8076,
      "ĠMulti": 8077,
      "He": 8078,
      "MC": 8079,
      "Tim": 8080,
      "oil": 8081,
      "inery": 8082,
      "Ġpow": 8083,
      "iture": 8084,
      "omy": 8085,
      "ĠGr": 8086,
      "Ġspots": 8087,
      "elfare": 8088,
      "Ġperformers": 8089,
      "------------------------------------": 8090,
      "Ġbiases": 8091,
      "Ġbiological": 8092,
      "Ġdrawbacks": 8093,
      "Ġverify": 8094,
      "Ġimmerse": 8095,
      "Ġtranscends": 8096,
      "Ġcheese": 8097,
      "Ġincredibly": 8098,
      "Ġscalability": 8099,
      "Ġincentives": 8100,
      "Ġtexts": 8101,
      "Ġintrospection": 8102,
      "17": 8103,
      "Ġcrises": 8104,
      "ĠMental": 8105,
      "ĠFac": 8106,
      "Ġplenty": 8107,
      "aven": 8108,
      "Ġmeant": 8109,
      "Ġdesirable": 8110,
      "Ġvisits": 8111,
      "Ġconnectivity": 8112,
      "Ġdistric": 8113,
      "Ġequality": 8114,
      "Ġkeeps": 8115,
      "--------------------------------------------": 8116,
      "ĠSignificance": 8117,
      "Ġscrutiny": 8118,
      "ĠFortunately": 8119,
      "Acc": 8120,
      "uary": 8121,
      "Ġaug": 8122,
      "ĠTher": 8123,
      "Ġintake": 8124,
      "Ġspend": 8125,
      "Ġtelevision": 8126,
      "ĠCheck": 8127,
      "Ġstandout": 8128,
      "Ġinflation": 8129,
      "Ġcontrolled": 8130,
      "Ġtale": 8131,
      "Ġrapport": 8132,
      "Ġdescription": 8133,
      "Ġmisu": 8134,
      "ĠJohnson": 8135,
      "Ġunfold": 8136,
      "====": 8137,
      "Ġwillingness": 8138,
      "Ġvendors": 8139,
      "Ġupholding": 8140,
      "inals": 8141,
      "Ġcasting": 8142,
      "Ġfati": 8143,
      "Ġdoll": 8144,
      "state": 8145,
      "Ġstems": 8146,
      "ĠAR": 8147,
      "ĠWest": 8148,
      "Ġreliance": 8149,
      "Ġdecl": 8150,
      "Ġ25": 8151,
      "Ġcozy": 8152,
      "estingly": 8153,
      "Ġpreservation": 8154,
      "Ġsatisfying": 8155,
      "Ġnegatively": 8156,
      "Ġbeginning": 8157,
      "ĠOffice": 8158,
      "ĠGlobal": 8159,
      "Ġinterpretations": 8160,
      "ĠIndustry": 8161,
      "ĠDepartment": 8162,
      "LS": 8163,
      "iov": 8164,
      "iological": 8165,
      "rane": 8166,
      "tist": 8167,
      "Ġspl": 8168,
      "Ġslic": 8169,
      "reced": 8170,
      "atable": 8171,
      "Ġstre": 8172,
      "Ġnaturally": 8173,
      "Ġexquisite": 8174,
      "Ġcomment": 8175,
      "ĠSn": 8176,
      "ĠEconom": 8177,
      "everal": 8178,
      "Ġdetect": 8179,
      "Ġediting": 8180,
      "Ġcontinually": 8181,
      "icken": 8182,
      "Ġowner": 8183,
      "pson": 8184,
      "berry": 8185,
      "Ġsubstances": 8186,
      "umptions": 8187,
      "ĠSched": 8188,
      "Ġbeautifully": 8189,
      "ĠChoose": 8190,
      "Ġcryptocurrency": 8191,
      "Ġpercentage": 8192,
      "Ġchaos": 8193,
      "recedented": 8194,
      "60": 8195,
      "Based": 8196,
      "uistic": 8197,
      "eras": 8198,
      "Ġcues": 8199,
      "ref": 8200,
      "Ġnuc": 8201,
      "raine": 8202,
      "Ġvess": 8203,
      "Ġintroduction": 8204,
      "ipe": 8205,
      "Ġmanager": 8206,
      "ĠNeed": 8207,
      "Ġoverview": 8208,
      "Ġseeks": 8209,
      "Ġearn": 8210,
      "liers": 8211,
      "Ġfilter": 8212,
      "ĠInstagram": 8213,
      "Ġsteep": 8214,
      "Ġhoning": 8215,
      "Ġhonest": 8216,
      "Ġproposition": 8217,
      "Ġmorning": 8218,
      "Ġescape": 8219,
      "Ġelsewhere": 8220,
      "Ġunprecedented": 8221,
      "Ġeagerly": 8222,
      "Ġaccomplishments": 8223,
      "ĠCounty": 8224,
      "Ġrankings": 8225,
      "Ġreminiscent": 8226,
      "25": 8227,
      "Ġtum": 8228,
      "erce": 8229,
      "Ġinequ": 8230,
      "Ġwalls": 8231,
      "Ġdro": 8232,
      "ĠSl": 8233,
      "empt": 8234,
      "odies": 8235,
      "Ġdegra": 8236,
      "ĠEU": 8237,
      "ĠRich": 8238,
      "ionship": 8239,
      "Ġassumptions": 8240,
      "Ġpotent": 8241,
      "ĠChinese": 8242,
      "ergies": 8243,
      "Ġrealizing": 8244,
      "Ġanalyses": 8245,
      "Ġviewpoints": 8246,
      "Ġchildhood": 8247,
      "intage": 8248,
      "Ġspeakers": 8249,
      "Ġengineers": 8250,
      "Ġportion": 8251,
      "Ġintuitive": 8252,
      "depth": 8253,
      "night": 8254,
      "rest": 8255,
      "Ġfalls": 8256,
      "Ġmountain": 8257,
      "Ġliber": 8258,
      "Ġgives": 8259,
      "Ġvirt": 8260,
      "apers": 8261,
      "asted": 8262,
      "Ġmeat": 8263,
      "ressure": 8264,
      "ĠNeg": 8265,
      "ĠJames": 8266,
      "Ġsolving": 8267,
      "Ġequips": 8268,
      "Ġdescriptions": 8269,
      "ĠDesc": 8270,
      "Ġattractions": 8271,
      "Ġcapitalize": 8272,
      "Ġcoping": 8273,
      "habilit": 8274,
      "Ġelectronics": 8275,
      "Des": 8276,
      "Ġ/": 8277,
      "erning": 8278,
      "reast": 8279,
      "ucture": 8280,
      "ĠSym": 8281,
      "ĠDiv": 8282,
      "Ġplain": 8283,
      "Ġroster": 8284,
      "ĠStar": 8285,
      "Ġinfection": 8286,
      "Ġmaintains": 8287,
      "Ġfamous": 8288,
      "Ġholiday": 8289,
      "Ġpicturesque": 8290,
      "IT": 8291,
      "laim": 8292,
      "erved": 8293,
      "ĠSun": 8294,
      "Ġchef": 8295,
      "Ġchains": 8296,
      "ĠFrench": 8297,
      "Ġinterior": 8298,
      "Ġrol": 8299,
      "Ġpresc": 8300,
      "Ġsurg": 8301,
      "Ġfacility": 8302,
      "Ġconfident": 8303,
      "Ġimmigration": 8304,
      "Ġcontinuously": 8305,
      "pring": 8306,
      "ĠAcad": 8307,
      "Ġcollected": 8308,
      "Ġtrees": 8309,
      "Ġindependently": 8310,
      "ĠPlayers": 8311,
      "Ġopinion": 8312,
      "rustration": 8313,
      "ixture": 8314,
      "Ġfatigue": 8315,
      "Ds": 8316,
      "RA": 8317,
      "mark": 8318,
      "tun": 8319,
      "Ġfrustration": 8320,
      "Ġwelfare": 8321,
      "Ġproves": 8322,
      "Ġforemost": 8323,
      "rian": 8324,
      "Ġappar": 8325,
      "earing": 8326,
      "Ġfeas": 8327,
      "Ġprestig": 8328,
      "Ġsurpris": 8329,
      "Ġcompleted": 8330,
      "ĠComple": 8331,
      "Ġdistance": 8332,
      "Ġseverity": 8333,
      "Ġoperates": 8334,
      "fficiency": 8335,
      "Ġprevents": 8336,
      "exic": 8337,
      "Ġdetermined": 8338,
      "Ġwaves": 8339,
      "Ġhyper": 8340,
      "Ġsurviv": 8341,
      "ĠNonetheless": 8342,
      "Ġsacrific": 8343,
      "ĠPrioriti": 8344,
      "Ġprestigious": 8345,
      ":*": 8346,
      "From": 8347,
      "mic": 8348,
      "pression": 8349,
      "puts": 8350,
      "ĊĠ": 8351,
      "itations": 8352,
      "Ġwish": 8353,
      "Ġwise": 8354,
      "Ġbit": 8355,
      "Ġupl": 8356,
      "Ġnestled": 8357,
      "ĠTop": 8358,
      "ĠST": 8359,
      "Ġrooms": 8360,
      "Ġneck": 8361,
      "ĠRev": 8362,
      "Ġappropriately": 8363,
      "Ġsummar": 8364,
      "Ġexpanded": 8365,
      "ĠCanada": 8366,
      "Ġdisparities": 8367,
      "Ġhospitality": 8368,
      "ĠFamiliarize": 8369,
      "Ġregistration": 8370,
      "Ġperpetu": 8371,
      "Ġdiscrimination": 8372,
      "ST": 8373,
      "pse": 8374,
      "upp": 8375,
      "Ġ+": 8376,
      "Ġlenders": 8377,
      "aser": 8378,
      "Ġul": 8379,
      "ĠAuthentic": 8380,
      "ĠSoci": 8381,
      "emption": 8382,
      "ĠBeyond": 8383,
      "Ġarmed": 8384,
      "ulty": 8385,
      "Ġexpend": 8386,
      "Ġsoccer": 8387,
      "Ġfinish": 8388,
      "Ġflo": 8389,
      "Ġplanet": 8390,
      "Ġestablishments": 8391,
      "thetic": 8392,
      "ĠCompany": 8393,
      "Ġeconomies": 8394,
      "Ġenriching": 8395,
      "ĠJapanese": 8396,
      "Ġencryption": 8397,
      "AI": 8398,
      "Ġtempor": 8399,
      "Ġtender": 8400,
      "Ġthrow": 8401,
      "Ġreper": 8402,
      "urpose": 8403,
      "ĠCath": 8404,
      "ĠSy": 8405,
      "rome": 8406,
      "ache": 8407,
      "ĠLake": 8408,
      "ept": 8409,
      "ĠGood": 8410,
      "Ġassured": 8411,
      "Ġtea": 8412,
      "Ġexped": 8413,
      "Ġparticles": 8414,
      "Ġworkforce": 8415,
      "away": 8416,
      "Ġoperators": 8417,
      "Ġexcited": 8418,
      "Ġconsume": 8419,
      "Ġhappen": 8420,
      "Ġstructured": 8421,
      "Ġcompatible": 8422,
      "Ġoils": 8423,
      "ĠAdvanced": 8424,
      "Ġreplied": 8425,
      "Ġhypo": 8426,
      "Ġdeployment": 8427,
      "Ġpitfalls": 8428,
      "Ġsacrificing": 8429,
      "no": 8430,
      "Ġtor": 8431,
      "uli": 8432,
      "Ġring": 8433,
      "ĠCour": 8434,
      "ĠBro": 8435,
      "ĠPop": 8436,
      "ĠPati": 8437,
      "igned": 8438,
      "ĠLu": 8439,
      "Ġconsent": 8440,
      "overty": 8441,
      "Inter": 8442,
      "ĠProject": 8443,
      "Ġbackd": 8444,
      "Ġmenu": 8445,
      "Ġbuildings": 8446,
      "ĠColor": 8447,
      "Ġreferences": 8448,
      "Ġroutes": 8449,
      "Ġconstitu": 8450,
      "Ġtourists": 8451,
      "Ġwalking": 8452,
      "Ġcorporations": 8453,
      "Ġdiagnosis": 8454,
      "Ġuniversities": 8455,
      "ĠProviding": 8456,
      "ĠAfrica": 8457,
      "ĠEnhanced": 8458,
      "ĠEnvironmental": 8459,
      "Ġdiscrepancies": 8460,
      "Ps": 8461,
      "can": 8462,
      "medi": 8463,
      "Ġdates": 8464,
      "eles": 8465,
      "ota": 8466,
      "Ġseeds": 8467,
      "ĠHere": 8468,
      "Ġplug": 8469,
      "ĠLa": 8470,
      "Ġabreast": 8471,
      "aked": 8472,
      "Ġsky": 8473,
      "Ġsauce": 8474,
      "Ġnecessarily": 8475,
      "Ġaiming": 8476,
      "Ġauthors": 8477,
      "Ġencouraged": 8478,
      "position": 8479,
      "Ġevaluations": 8480,
      "ĠPhysical": 8481,
      "Ġdialogues": 8482,
      "ĠCreate": 8483,
      "ĠProvide": 8484,
      "Ġannounced": 8485,
      "ĠFeatures": 8486,
      "Ġsourced": 8487,
      "BC": 8488,
      "uit": 8489,
      "inely": 8490,
      "throp": 8491,
      "ĠCa": 8492,
      "Ġvoc": 8493,
      "Ġalleg": 8494,
      "ĠBen": 8495,
      "ĠBank": 8496,
      "Ġcontempl": 8497,
      "Ġneuro": 8498,
      "Ġweap": 8499,
      "Ġphases": 8500,
      "Ġsurge": 8501,
      "ĠUnfortunately": 8502,
      "unctional": 8503,
      "ĠConsum": 8504,
      "Ġauto": 8505,
      "ĠPeriod": 8506,
      "ĠBlue": 8507,
      "ĠPoli": 8508,
      "Ġradio": 8509,
      "Ġmortgages": 8510,
      "ĠLeadership": 8511,
      "Ġappointments": 8512,
      "Ġmovie": 8513,
      "Ġstereotypes": 8514,
      "Ġsurgical": 8515,
      "During": 8516,
      "bor": 8517,
      "etic": 8518,
      "Ġdensity": 8519,
      "etry": 8520,
      "Ġcong": 8521,
      "ĠAp": 8522,
      "ĠCamp": 8523,
      "ĠSil": 8524,
      "ĠMost": 8525,
      "ĠFree": 8526,
      "ipher": 8527,
      "Ġdiscerning": 8528,
      "Ġembedded": 8529,
      "Ġsafely": 8530,
      "Ġsupplies": 8531,
      "struction": 8532,
      "Ġorigin": 8533,
      "Ġstreamlining": 8534,
      "Ġspeaks": 8535,
      "Ġhygiene": 8536,
      "Ġbaseball": 8537,
      "Ġhotels": 8538,
      "ĠAnalytics": 8539,
      "ĠCharacter": 8540,
      "ĠDiffer": 8541,
      "200": 8542,
      "Ġbot": 8543,
      "Ġeight": 8544,
      "stones": 8545,
      "ulates": 8546,
      "osity": 8547,
      "ĠMechan": 8548,
      "Ġcompact": 8549,
      "ĠFood": 8550,
      "ĠLuc": 8551,
      "Ġoutstanding": 8552,
      "Ġdoor": 8553,
      "Ġresponsibly": 8554,
      "Ġmonetary": 8555,
      "ĠStrength": 8556,
      "Ġpersonally": 8557,
      "ĠClin": 8558,
      "Ġcollectively": 8559,
      "Ġstepping": 8560,
      "Ġbias": 8561,
      "ĠResources": 8562,
      "Ġindependence": 8563,
      "Ġsheds": 8564,
      "Ġcrisp": 8565,
      "ĠGeneral": 8566,
      "ĠPlatforms": 8567,
      "CE": 8568,
      "jud": 8569,
      "Ġiron": 8570,
      "Ġaward": 8571,
      "Ġsnow": 8572,
      "Ġpoverty": 8573,
      "Ġbench": 8574,
      "ĠLight": 8575,
      "ĠLink": 8576,
      "Ġaddiction": 8577,
      "Ġresponsive": 8578,
      "Ġpassword": 8579,
      "Ġdowntime": 8580,
      "Ġcarb": 8581,
      "Cont": 8582,
      "Ġmeaningfully": 8583,
      "Ġmerch": 8584,
      "Ġphotos": 8585,
      "ĠOffering": 8586,
      "ponding": 8587,
      "Ġanticipated": 8588,
      "Ġthrilling": 8589,
      "Ġprolonged": 8590,
      "Ġsentiment": 8591,
      "keeping": 8592,
      "iovascular": 8593,
      "Sp": 8594,
      "azing": 8595,
      "discovery": 8596,
      "alg": 8597,
      "isure": 8598,
      "Ġbite": 8599,
      "ĠEffec": 8600,
      "geoning": 8601,
      "ells": 8602,
      "ricket": 8603,
      "Ġsurgery": 8604,
      "ĠDeb": 8605,
      "Ġupdating": 8606,
      "Ġuniversal": 8607,
      "Ġoversight": 8608,
      "Ġdegrees": 8609,
      "Ġexploit": 8610,
      "Ġinstitutional": 8611,
      "Ġcorresponding": 8612,
      "Ġeligibility": 8613,
      "Ġphilosophy": 8614,
      "CR": 8615,
      "craf": 8616,
      "ka": 8617,
      "Ġtab": 8618,
      "iter": 8619,
      "Ġgast": 8620,
      "ĠSing": 8621,
      "ĠBud": 8622,
      "ĠFre": 8623,
      "Ġshor": 8624,
      "Ġemails": 8625,
      "Ġaband": 8626,
      "Ġindirect": 8627,
      "Ġperman": 8628,
      "Ġtrail": 8629,
      "Ġinvites": 8630,
      "Ġdecentralized": 8631,
      "Ġblocks": 8632,
      "Ġeste": 8633,
      "Ġcontinuing": 8634,
      "Ġwrest": 8635,
      "Ġburgeoning": 8636,
      "Ġdurable": 8637,
      "Ġteacher": 8638,
      "Ġwildlife": 8639,
      "Ġcounseling": 8640,
      "Ġratings": 8641,
      "ĠLessons": 8642,
      "40": 8643,
      "berg": 8644,
      "Ġcoin": 8645,
      "eding": 8646,
      "Ġworship": 8647,
      "Ġmigration": 8648,
      "Ġbath": 8649,
      "ida": 8650,
      "idable": 8651,
      "vement": 8652,
      "ĠCS": 8653,
      "ĠRis": 8654,
      "Ġplacing": 8655,
      "Ġevident": 8656,
      "inded": 8657,
      "Ġsignifies": 8658,
      "Ġlifesp": 8659,
      "ĠAnother": 8660,
      "ielding": 8661,
      "Ġcollaborating": 8662,
      "ĠTrends": 8663,
      "Ġadopted": 8664,
      "Ġreleasing": 8665,
      "Ġcalm": 8666,
      "Ġhappens": 8667,
      "Ġmachinery": 8668,
      "Ġreligion": 8669,
      "Ġdisplayed": 8670,
      "Ġhospital": 8671,
      "Ġdatabase": 8672,
      "Ġbolstering": 8673,
      "Ġtestimonial": 8674,
      "Ġglimpse": 8675,
      "ĠEmpowerment": 8676,
      "Ġbasketball": 8677,
      "Ġgauge": 8678,
      "()": 8679,
      "ship": 8680,
      "Ġsample": 8681,
      "Ġinches": 8682,
      "Ġmild": 8683,
      "ulum": 8684,
      "Ġench": 8685,
      "advant": 8686,
      "Ġintensity": 8687,
      "ĠFund": 8688,
      "Ġhearing": 8689,
      "Ġpreced": 8690,
      "Ġconcrete": 8691,
      "Ġextending": 8692,
      "Ġfilters": 8693,
      "Ġdiscoveries": 8694,
      "Ġcollections": 8695,
      "ennis": 8696,
      "ĠHealthcare": 8697,
      "Ġsquare": 8698,
      "Ġimplies": 8699,
      "ĠEvaluate": 8700,
      "ĠValue": 8701,
      "Ġcounsel": 8702,
      "Ġresolve": 8703,
      "Ġjurisdictions": 8704,
      "Ġhomeowners": 8705,
      "col": 8706,
      "lor": 8707,
      "mn": 8708,
      "uels": 8709,
      "Ġturb": 8710,
      "tier": 8711,
      "Ġthin": 8712,
      "anqu": 8713,
      "Ġlush": 8714,
      "Ġproximity": 8715,
      "Ġgest": 8716,
      "Ġglean": 8717,
      "ravel": 8718,
      "ĠAD": 8719,
      "ĠAug": 8720,
      "add": 8721,
      "ĠDue": 8722,
      "Ġsuited": 8723,
      "Ġquart": 8724,
      "Ġ13": 8725,
      "Ġfinished": 8726,
      "Ġsuppliers": 8727,
      "Ġcorruption": 8728,
      "Ġterrain": 8729,
      "Ġcomprehend": 8730,
      "Ġpathways": 8731,
      "Ġabsorb": 8732,
      "Ġdeadlines": 8733,
      "Ġtrajectory": 8734,
      "Ġrefreshing": 8735,
      "onymous": 8736,
      "ĠDavid": 8737,
      "ĠJamie": 8738,
      "Rem": 8739,
      "gon": 8740,
      "tely": 8741,
      "Ġ.": 8742,
      "Ġtied": 8743,
      "tiqu": 8744,
      "Ġcovers": 8745,
      "Ġinev": 8746,
      "Ġfalse": 8747,
      "ĠSa": 8748,
      "ĠSales": 8749,
      "ĠIss": 8750,
      "ĠMexic": 8751,
      "illance": 8752,
      "Ġtele": 8753,
      "Ġ17": 8754,
      "ĠAdjust": 8755,
      "Ġmoves": 8756,
      "Ġrising": 8757,
      "Ġsupplement": 8758,
      "ĠTools": 8759,
      "ographic": 8760,
      "Ġcombine": 8761,
      "Ġbread": 8762,
      "Ġbreaks": 8763,
      "ĠSharing": 8764,
      "Ġterror": 8765,
      "Ġconventions": 8766,
      "Ġfeeding": 8767,
      "Ġexposed": 8768,
      "Ġprocedure": 8769,
      "ĠDefining": 8770,
      "Ġvalidation": 8771,
      "Ġinstrumental": 8772,
      "ĠFostering": 8773,
      "Ġgifts": 8774,
      "Our": 8775,
      "Ġlists": 8776,
      "Ġlitigation": 8777,
      "Ġnom": 8778,
      "ĠTarget": 8779,
      "uten": 8780,
      "ĠBible": 8781,
      "Ġoverhead": 8782,
      "Ġapproval": 8783,
      "ypically": 8784,
      "otherapy": 8785,
      "Ġcustoms": 8786,
      "cont": 8787,
      "Ġ2011": 8788,
      "ĠAndroid": 8789,
      "Ġdraft": 8790,
      "Ġ40": 8791,
      "Ġrestoration": 8792,
      "Ġdimension": 8793,
      "Ġtaxes": 8794,
      "Ġsecondary": 8795,
      "Ġdogs": 8796,
      "Ġemotionally": 8797,
      "ĠLittle": 8798,
      "Ġpoliticians": 8799,
      "oom": 8800,
      "Ġconvic": 8801,
      "Ġrandom": 8802,
      "adow": 8803,
      "ĠHR": 8804,
      "ensus": 8805,
      "ĠStart": 8806,
      "Ġformidable": 8807,
      "Ġdefining": 8808,
      "Ġsupporters": 8809,
      "ĠEmily": 8810,
      "Ġsale": 8811,
      "Ġcredentials": 8812,
      "Ġturns": 8813,
      "Ġconstructing": 8814,
      "Ġcompositions": 8815,
      "Ġconstitute": 8816,
      "ĠAgain": 8817,
      "ĠTwitter": 8818,
      "Ġcompassionate": 8819,
      "Ġmilk": 8820,
      "offs": 8821,
      "Ġsurveys": 8822,
      "Ġcup": 8823,
      "Ġbooking": 8824,
      "olism": 8825,
      "Ġstain": 8826,
      "Ġric": 8827,
      "ticing": 8828,
      "ĠPass": 8829,
      "ĠMark": 8830,
      "Ġadult": 8831,
      "Ġimposed": 8832,
      "ounted": 8833,
      "Ġqueries": 8834,
      "Ġrepairs": 8835,
      "ĠItal": 8836,
      "Ġcharging": 8837,
      "Ġearned": 8838,
      "ĠAllow": 8839,
      "ocket": 8840,
      "ĠManaging": 8841,
      "Ġcurrency": 8842,
      "Ġtactical": 8843,
      "ammy": 8844,
      "ĠLeague": 8845,
      "Ġcameras": 8846,
      "Ġoccurred": 8847,
      "ĠPlayer": 8848,
      "profile": 8849,
      "Ġlibrary": 8850,
      "Ġsmartphones": 8851,
      "Ġcrystal": 8852,
      "Ġhinges": 8853,
      "*:": 8854,
      "cast": 8855,
      "la": 8856,
      "orge": 8857,
      "Ġpaving": 8858,
      "Ġtheories": 8859,
      "ston": 8860,
      "essor": 8861,
      "Ġproof": 8862,
      "ĠTal": 8863,
      "ĠMel": 8864,
      "Ġtransmit": 8865,
      "ointing": 8866,
      "Ġbelieved": 8867,
      "Ġcomputers": 8868,
      "ĠPhil": 8869,
      "ĠTeams": 8870,
      "Ġarrival": 8871,
      "ĠIntegrating": 8872,
      "Ġdiplomacy": 8873,
      "ĠNetwork": 8874,
      "ĠDocument": 8875,
      "Ġprinciple": 8876,
      "Ġretirement": 8877,
      "Ġesteemed": 8878,
      "Se": 8879,
      "Ġtends": 8880,
      "itual": 8881,
      "Ġfram": 8882,
      "idating": 8883,
      "asis": 8884,
      "ulf": 8885,
      "ulatory": 8886,
      "Ġleisure": 8887,
      "ĠMind": 8888,
      "umen": 8889,
      "Ġshall": 8890,
      "ĠDown": 8891,
      "ĠHD": 8892,
      "ĠLond": 8893,
      "Ġintertw": 8894,
      "Ġcommunal": 8895,
      "Ġscoring": 8896,
      "Ġmodify": 8897,
      "comm": 8898,
      "Ġcompletely": 8899,
      "Ġaddressed": 8900,
      "Ġfoundations": 8901,
      "Ġbreaches": 8902,
      "Ġreturning": 8903,
      "Ġsalt": 8904,
      "Ġdamaged": 8905,
      "ĠEngland": 8906,
      "Ġgreatly": 8907,
      "Ġintentions": 8908,
      "Ġtriggers": 8909,
      "Script": 8910,
      "Ġdiabetes": 8911,
      "Navigating": 8912,
      "Rec": 8913,
      "Ġstoring": 8914,
      "ĠLog": 8915,
      "Ġdelving": 8916,
      "ĠStructure": 8917,
      "Ġethics": 8918,
      "Ġworthy": 8919,
      "Ġsolidarity": 8920,
      "Ġfailed": 8921,
      "Ġreminders": 8922,
      "Ġillustrating": 8923,
      "ĠOffer": 8924,
      "Ġaffairs": 8925,
      "ĠCollaborative": 8926,
      "Ġnegotiation": 8927,
      "Ġstatistical": 8928,
      "Ġanswers": 8929,
      "Ġathletic": 8930,
      "Ġscreens": 8931,
      "Ġcorresp": 8932,
      "Ġdistinguish": 8933,
      "ĠBetween": 8934,
      "ĠAlternatively": 8935,
      "Ġdatasets": 8936,
      "nam": 8937,
      "reach": 8938,
      "Ġpave": 8939,
      "Ġtheft": 8940,
      "Ġbonding": 8941,
      "ĠSustain": 8942,
      "Ġvintage": 8943,
      "Ġads": 8944,
      "Ġseas": 8945,
      "Ġheights": 8946,
[...]
